[PAD]	0
[UNK]	0
[BOS]	0
[EOS]	0
[SEP]	0
[CLS]	0
[MASK]	0
▁.	-3.53035
▁의	-3.69608
▁다	-3.70843
▁이	-3.71591
▁는	-3.81083
▁,	-3.8944
▁에	-3.9659
▁을	-4.06515
▁	-4.08856
▁하	-4.11126
▁은	-4.34563
▁)	-4.51535
▁(	-4.52522
▁를	-4.56617
▁년	-4.60657
▁고	-4.6544
▁가	-4.80421
▁있	-4.82983
▁으로	-4.84654
▁에서	-4.85362
▁한	-4.94849
▁로	-4.95472
▁되	-4.9708
▁었	-5.07328
▁과	-5.27924
▁들	-5.38297
▁도	-5.40772
▁월	-5.44437
▁일	-5.45619
▁했	-5.50106
▁와	-5.50508
▁그	-5.56433
▁적	-5.56991
▁인	-5.59064
▁기	-5.60471
▁였	-5.60964
▁어	-5.69194
▁1	-5.82913
▁지	-5.86234
▁19	-5.89283
▁것	-5.89893
▁여	-5.93978
▁수	-5.95226
▁"	-5.99257
▁게	-6.00195
▁한다	-6.03361
▁2	-6.03807
▁등	-6.14702
▁며	-6.20777
▁된	-6.2326
▁3	-6.26671
▁'	-6.29651
▁때	-6.39785
▁해	-6.39895
▁대	-6.41478
▁자	-6.4253
▁만	-6.43727
▁-	-6.43836
▁제	-6.4388
▁할	-6.46695
자	-6.48623
▁던	-6.4903
▁4	-6.51578
▁주	-6.51941
이	-6.53333
하	-6.55083
▁아	-6.55781
▁중	-6.59307
지	-6.60807
▁5	-6.60987
▁시	-6.64107
않	-6.65269
▁나	-6.67082
▁까지	-6.68532
인	-6.69043
▁전	-6.69058
음	-6.69124
▁명	-6.69344
▁았	-6.7005
▁성	-6.70479
▁에게	-6.72434
▁후	-6.75833
▁개	-6.76958
기	-6.77216
사	-6.78269
▁으며	-6.78379
▁받	-6.80866
▁된다	-6.82255
▁《	-6.83066
▁6	-6.84571
스	-6.84826
▁지만	-6.86168
서	-6.86308
가	-6.8698
문	-6.87136
나	-6.87585
▁세	-6.88074
▁부터	-6.88093
▁~	-6.88107
▁같	-6.88565
▁·	-6.89569
리	-6.91629
▁없	-6.91724
▁면	-6.919
▁10	-6.92893
▁사용	-6.9381
▁7	-6.9399
▁라는	-6.94081
▁라고	-6.96455
▁두	-6.97565
▁8	-6.97799
▁번	-6.99226
▁이후	-7.00502
▁말	-7.02207
부	-7.0319
▁면서	-7.04301
도	-7.05072
▁일본	-7.05483
▁라	-7.06151
▁미국	-7.07317
▁화	-7.08239
▁는데	-7.09283
▁위	-7.0949
▁서	-7.12013
시	-7.12749
▁9	-7.13701
▁》	-7.14171
군	-7.1658
▁사	-7.16717
▁12	-7.17951
로	-7.18854
▁18	-7.1898
▁대한민국	-7.20603
▁많	-7.21953
히	-7.22173
▁군	-7.22199
▁비	-7.24001
▁지역	-7.24123
▁대한	-7.24497
▁다른	-7.25964
장	-7.26786
▁역	-7.29323
▁다고	-7.30337
▁11	-7.30739
▁오	-7.31718
▁보	-7.3186
▁호	-7.33103
▁및	-7.344
▁구	-7.35485
수	-7.35518
▁부	-7.35587
▁상	-7.3604
▁:	-7.37026
▁장	-7.37177
▁시작	-7.37484
▁내	-7.38178
▁차	-7.38744
▁권	-7.39027
주	-7.39294
▁선	-7.39304
▁원	-7.39634
면	-7.40197
▁모	-7.41243
▁사람	-7.42275
▁또한	-7.42538
▁함께	-7.43506
어	-7.43761
▁위해	-7.44892
▁조	-7.46055
르	-7.46242
▁현재	-7.46338
국	-7.47722
▁경우	-7.48419
▁팀	-7.48532
▁계	-7.49064
구	-7.49429
▁마	-7.49733
▁자신	-7.49969
▁더	-7.51494
치	-7.53061
▁이름	-7.53935
▁세계	-7.54414
▁위치	-7.54663
▁기록	-7.54743
▁선수	-7.5495
▁안	-7.55894
▁당시	-7.56034
▁거	-7.56256
▁경기	-7.57457
▁영화	-7.58258
전	-7.58526
▁하나	-7.59574
▁학교	-7.59637
쪽	-7.60266
체	-7.6043
▁그러나	-7.60753
▁한국	-7.60755
트	-7.60878
▁가장	-7.61138
▁16	-7.61883
▁국가	-7.62604
선	-7.62815
▁신	-7.63501
대	-7.63617
▁_	-7.6377
▁동	-7.63962
▁속	-7.64238
▁데	-7.64447
드	-7.64482
▁유	-7.6451
상	-7.65097
▁15	-7.65171
▁다는	-7.65188
▁활동	-7.65631
▁또는	-7.65736
▁가지	-7.65847
▁남	-7.66094
▁간	-7.66204
▁이나	-7.66628
다	-7.67288
▁조선	-7.68064
원	-7.68348
▁약	-7.68497
▁뒤	-7.68812
관	-7.69232
▁따라	-7.70458
점	-7.71001
▁재	-7.71014
▁진	-7.7141
▁그리고	-7.71543
▁째	-7.71859
제	-7.72294
▁formula	-7.72991
운	-7.73128
▁리그	-7.73395
▁17	-7.7355
▁본	-7.73596
▁당	-7.7536
물	-7.77554
종	-7.77746
▁통해	-7.78305
▁스	-7.78496
▁각	-7.78807
▁의해	-7.79238
성	-7.79419
진	-7.79526
▁점	-7.79768
고	-7.79985
력	-7.79989
역	-7.80252
▁공	-7.80805
▁형	-7.81087
간	-7.81524
▁/	-7.81852
위	-7.81948
▁반	-7.82232
▁처	-7.82233
▁사이	-7.83253
▁대표	-7.83402
▁20	-7.83508
▁왕	-7.83675
든	-7.84032
▁만들	-7.8427
▁초	-7.84548
▁강	-7.85027
당	-7.85192
▁보다	-7.85579
▁아니	-7.8603
래	-7.86181
▁함	-7.86522
▁현	-7.86649
▁알	-7.86676
▁분	-7.87184
▁‘	-7.87586
록	-7.87598
▁뜻	-7.87627
▁정부	-7.87969
▁첫	-7.88486
모	-7.88651
▁산	-7.88678
▁예	-7.89079
▁시대	-7.901
▁도시	-7.91458
▁프랑스	-7.91659
▁미	-7.91709
s	-7.91851
▁불	-7.92957
▁다시	-7.93032
해	-7.93267
▁포함	-7.93482
동	-7.93507
▁시즌	-7.93525
▁큰	-7.9373
▁로서	-7.93739
▁14	-7.93826
소	-7.94385
▁여러	-7.94421
▁m	-7.95226
▁영국	-7.95691
▁중국	-7.96075
파	-7.96266
▁전쟁	-7.96372
것	-7.96493
명	-7.96554
▁으나	-7.96636
보	-7.97199
▁독일	-7.97897
▁발	-7.98005
▁바	-7.98415
우	-7.98726
▁타	-7.99234
▁무	-7.99856
▁총	-8.00193
▁’	-8.00383
▁양	-8.00453
▁가능	-8.00573
▁km	-8.01081
▁13	-8.01087
단	-8.01165
▁소	-8.01428
내	-8.01556
모두	-8.01654
▁회	-8.01684
편	-8.03264
▁작	-8.03533
▁문제	-8.0417
속	-8.04248
▁별	-8.04303
▁대회	-8.04498
▁대학	-8.04645
의	-8.04765
▁이상	-8.04986
▁길	-8.04989
▁파	-8.05049
▁는다	-8.05418
▁다가	-8.05507
▁사회	-8.05607
▁A	-8.05766
▁동안	-8.05856
▁정치	-8.05914
▁K	-8.06277
▁외	-8.06686
식	-8.07223
▁용	-8.07574
▁연구	-8.07679
회	-8.08482
▁살	-8.08492
▁크	-8.08644
▁일부	-8.08697
▁였으며	-8.08767
한	-8.0891
정	-8.09131
▁지방	-8.09518
▁축구	-8.10469
▁개발	-8.10901
▁감독	-8.11314
▁존재	-8.11398
▁서울	-8.11663
▁대학교	-8.11681
▁병	-8.12107
▁직	-8.12258
▁따	-8.12708
▁정	-8.12892
▁리	-8.12925
▁될	-8.12953
라	-8.13385
법	-8.13468
▁시간	-8.13618
▁이용	-8.13703
▁정도	-8.13862
화	-8.13885
산	-8.13893
립	-8.14106
▁일반	-8.14281
▁입	-8.1447
▁위한	-8.14811
▁열	-8.14893
▁중심	-8.15012
▁배	-8.15357
▁곳	-8.15662
▁세기	-8.15955
현	-8.16827
근	-8.16941
▁종	-8.17332
▁%	-8.17443
▁방송	-8.17766
▁]	-8.17909
과	-8.17939
▁맡	-8.1809
▁구성	-8.18118
부분	-8.18279
▁M	-8.18521
만	-8.18673
▁씨	-8.19001
▁삼	-8.19053
▁작품	-8.19173
▁또	-8.19288
▁게임	-8.19927
▁[	-8.20036
▁30	-8.20322
▁제작	-8.20627
신	-8.20863
▁단	-8.20884
중	-8.20955
▁인구	-8.21351
비	-8.21355
▁피	-8.22111
▁주장	-8.22242
▁0	-8.22308
▁곡	-8.22362
▁관계	-8.22686
▁치	-8.23049
▁결	-8.23118
▁아들	-8.23591
▁역사	-8.23743
▁사건	-8.23836
▁교육	-8.24118
오	-8.24264
▁건	-8.24437
▁로부터	-8.24627
▁운동	-8.24636
▁영	-8.24852
▁발표	-8.24924
▁〈	-8.25183
▁섬	-8.25479
아	-8.25727
▁<	-8.26307
▁이러	-8.26381
조	-8.26606
▁문	-8.26665
▁승	-8.26669
타	-8.27084
경	-8.27211
▁음	-8.27403
▁높	-8.27425
▁네	-8.2777
▁집	-8.27915
▁국제	-8.28103
▁발견	-8.282
▁연	-8.28351
질	-8.28815
▁매	-8.29613
▁기준	-8.30201
▁문화	-8.30244
▁경	-8.30255
▁했으며	-8.3038
▁새로	-8.30423
▁음악	-8.30724
▁대해	-8.30967
▁시키	-8.31023
▁대통령	-8.31341
즈	-8.31391
으나	-8.31488
금	-8.31771
▁야	-8.31919
▁기술	-8.32131
▁우승	-8.32246
▁법	-8.32562
직	-8.32723
▁2010	-8.33105
▁죽	-8.33307
▁규	-8.33341
▁즉	-8.34129
▁잘	-8.34318
▁F	-8.34852
▁못	-8.34949
▁B	-8.35033
▁최초	-8.35555
마	-8.3599
게	-8.36103
▁달	-8.36322
▁날	-8.36576
▁쓰	-8.36636
▁지원	-8.36782
량	-8.36844
▁물	-8.36939
호	-8.36998
세	-8.37245
▁천	-8.37281
▁2008	-8.37329
▁설립	-8.37402
▁됐	-8.37587
▁영향	-8.37692
▁포	-8.37871
▁>	-8.37933
은	-8.37995
▁유럽	-8.37996
▁2011	-8.38128
▁초등	-8.38596
▁전투	-8.38727
▁”	-8.38805
▁C	-8.38818
▁“	-8.39131
▁볼	-8.39729
▁카	-8.39863
▁결정	-8.39927
▁구조	-8.3994
▁공격	-8.39985
지만	-8.4016
▁S	-8.40417
▁최	-8.41031
▁관련	-8.41116
▁키	-8.41226
▁배우	-8.41481
▁결과	-8.41627
▁형태	-8.42034
▁어서	-8.42079
프	-8.4212
▁경제	-8.42237
▁2007	-8.42647
입	-8.42744
▁부분	-8.4277
▁편	-8.42903
판	-8.42939
▁설치	-8.43298
▁새	-8.43356
▁러시아	-8.43564
▁특히	-8.43582
▁노	-8.43591
▁코	-8.43901
미	-8.44092
▁앞	-8.44181
차	-8.44367
▁소속	-8.44454
으며	-8.44655
▁상태	-8.44821
▁올림픽	-8.44832
▁임	-8.45074
일	-8.45094
날	-8.45171
▁프로	-8.45236
▁갖	-8.45257
▁25	-8.45358
▁2009	-8.4541
▁발생	-8.45568
▁중앙	-8.4574
▁사실	-8.46475
▁루	-8.46516
▁2012	-8.46568
▁손	-8.46618
▁베	-8.46669
▁같이	-8.46704
▁드	-8.47037
▁참여	-8.47081
▁프로그램	-8.47375
▁발매	-8.47522
▁의미	-8.47774
노	-8.47837
▁요	-8.48335
년	-8.48644
▁니	-8.48889
계	-8.49001
▁생각	-8.49163
▁통	-8.49364
석	-8.49801
학	-8.50059
▁지정	-8.50177
▁과정	-8.50282
▁제국	-8.50336
▁나라	-8.5066
니	-8.50719
▁그녀	-8.50762
▁행정	-8.50987
▁사망	-8.51215
▁진행	-8.51218
▁채	-8.51727
▁향	-8.52071
▁2014	-8.5212
색	-8.52248
방	-8.5225
▁막	-8.52431
▁판	-8.52479
토	-8.52542
▁21	-8.5271
▁백	-8.52786
▁이전	-8.52975
▁생	-8.5316
▁중요	-8.53254
▁조직	-8.53334
▁매우	-8.5354
▁2013	-8.5413
용	-8.54431
▁위원회	-8.54576
▁출신	-8.54778
재	-8.54974
▁운영	-8.55001
▁필요	-8.55074
▁〉	-8.55292
에	-8.55363
▁아버지	-8.55417
▁독립	-8.55447
저	-8.56012
e	-8.56119
▁트	-8.56223
적	-8.56403
거	-8.56432
▁북	-8.56502
두	-8.56854
▁다양	-8.57306
키	-8.57313
▁란	-8.57339
▁자리	-8.57349
▁2015	-8.57404
▁저	-8.57593
크	-8.57742
▁상대	-8.57822
감	-8.57883
▁로마	-8.58103
▁끝	-8.58382
코	-8.58516
▁층	-8.58717
런	-8.58953
▁테	-8.59016
각	-8.59197
▁계획	-8.59283
▁정보	-8.5983
▁해서	-8.59908
▁데뷔	-8.60098
▁여자	-8.60121
야	-8.60207
▁몇	-8.60554
론	-8.60615
무	-8.60842
▁생산	-8.60856
▁참가	-8.60874
▁2006	-8.60874
▁인해	-8.61072
▁그룹	-8.61222
▁철도	-8.61258
▁식	-8.61272
▁우	-8.61422
y	-8.61499
령	-8.61853
▁해당	-8.62236
▁이탈리아	-8.62348
▁24	-8.62461
▁여성	-8.62556
▁고려	-8.62606
▁앨범	-8.62814
▁추	-8.63035
류	-8.63084
▁처럼	-8.63111
▁23	-8.63306
란	-8.63499
▁뿐	-8.63502
▁관리	-8.64022
▁사업	-8.64171
▁000	-8.64172
▁D	-8.64306
안	-8.64459
부터	-8.64669
▁아래	-8.647
▁국민	-8.6492
▁출	-8.64989
▁내용	-8.65048
▁전체	-8.65071
▁보이	-8.65134
▁국	-8.6517
영	-8.65722
▁대전	-8.65737
후	-8.65857
▁레	-8.6607
는	-8.66083
나라	-8.66439
▁줄	-8.6669
▁골	-8.66944
▁등장	-8.66987
▁밀	-8.67142
▁지구	-8.67261
존	-8.67289
▁방법	-8.67397
공	-8.67454
▁생활	-8.67516
▁측	-8.67545
목	-8.67635
교	-8.67683
▁최고	-8.67963
▁기관	-8.68016
▁이유	-8.68026
▁주요	-8.68066
▁맞	-8.68081
▁22	-8.68098
급	-8.6836
포	-8.68621
려	-8.68635
▁시리즈	-8.68815
▁온	-8.68864
▁관	-8.68903
처	-8.69029
추	-8.69093
▁성공	-8.69115
▁차지	-8.6913
▁가운데	-8.69562
▁2016	-8.69737
▁회사	-8.69749
▁공식	-8.69805
▁난	-8.69853
▁100	-8.69976
▁T	-8.70113
▁패	-8.70492
▁드라마	-8.70529
▁이루	-8.70606
터	-8.70783
션	-8.71157
주로	-8.71604
▁인민	-8.71854
임	-8.71998
▁몸	-8.72106
▁고등학교	-8.72435
▁유명	-8.72529
▁였으나	-8.72884
▁목	-8.72933
▁석	-8.73517
▁자유	-8.73548
다는	-8.73553
행	-8.73572
▁우리	-8.73619
▁아이	-8.73633
▁제도	-8.73687
▁선거	-8.73935
▁2005	-8.73951
▁시스템	-8.74145
▁인정	-8.74196
▁연합	-8.74377
▁N	-8.74573
발	-8.74721
▁으로써	-8.74924
족	-8.75044
▁2018	-8.75228
▁급	-8.75404
▁과학	-8.75472
▁2004	-8.75501
▁음반	-8.75809
▁교	-8.75932
▁2017	-8.76291
▁방	-8.76297
▁시기	-8.76452
▁역할	-8.76597
▁인간	-8.7665
강	-8.76726
▁억	-8.76953
반	-8.76979
▁군사	-8.76997
▁표현	-8.77149
▁항	-8.77319
▁26	-8.77335
▁대신	-8.77361
▁거의	-8.77366
티	-8.77438
▁출연	-8.77684
▁반대	-8.77743
▁나타	-8.77766
▁제공	-8.7783
▁발전	-8.77865
분	-8.77979
▁각각	-8.7802
연	-8.7814
민	-8.78152
▁G	-8.78172
▁실	-8.78197
왕	-8.78258
▁출전	-8.78309
칭	-8.78508
▁책	-8.78706
카	-8.7874
▁엔	-8.78749
▁기업	-8.79265
▁근	-8.79365
▁목적	-8.79376
▁2000	-8.79647
환	-8.79682
▁여기	-8.79827
▁밖	-8.79867
▁티	-8.79939
▁감	-8.79979
실	-8.80029
▁승리	-8.80134
▁따라서	-8.80175
▁분류	-8.80417
▁시켰	-8.80475
▁")	-8.80479
▁교회	-8.80538
합	-8.8061
▁평가	-8.8064
▁지금	-8.80839
▁유지	-8.80905
▁현대	-8.81231
▁서로	-8.81357
▁먼	-8.81397
▁잡	-8.81438
▁28	-8.81514
▁준	-8.81565
▁공개	-8.81735
▁모습	-8.81877
▁》(	-8.82052
▁민족	-8.82096
병	-8.82407
지막	-8.82425
▁27	-8.82431
주의	-8.82636
▁왔	-8.82654
디	-8.82821
▁조사	-8.82917
권	-8.82959
▁대상	-8.83201
열	-8.83208
▁임명	-8.83218
▁방식	-8.83259
▁르	-8.83358
▁이야기	-8.83388
▁수상	-8.83545
▁절	-8.83635
▁투	-8.83671
▁초기	-8.83686
린	-8.83712
▁연결	-8.83808
▁자연	-8.83857
유	-8.84408
▁기능	-8.84435
▁학	-8.84662
▁알려져	-8.85297
▁단체	-8.85341
퇴	-8.85401
▁활약	-8.85559
롯	-8.85677
심	-8.86002
▁진출	-8.86074
▁산업	-8.86163
▁쇼	-8.86178
▁심	-8.86317
▁29	-8.86723
▁P	-8.86755
▁후보	-8.86977
▁계약	-8.87014
▁졸업	-8.87021
▁형성	-8.8704
▁!	-8.87135
▁허	-8.87563
▁류	-8.87602
형	-8.8777
▁졌	-8.87876
여	-8.88067
▁of	-8.88283
▁공화국	-8.88303
▁기간	-8.88307
▁청	-8.88385
▁이르	-8.88466
▁상황	-8.89027
▁大	-8.89312
▁해야	-8.89448
▁송	-8.89568
▁2002	-8.89686
▁50	-8.89855
▁노래	-8.90072
▁정의	-8.90194
▁표	-8.90222
▁사상	-8.9035
▁추가	-8.90374
▁혹	-8.90586
▁언어	-8.91174
▁존	-8.91252
▁W	-8.91483
머니	-8.91523
▁귀	-8.91637
▁평	-8.91647
원전	-8.91711
▁이론	-8.91826
▁직접	-8.91942
▁E	-8.92107
태	-8.92123
▁동시	-8.92297
▁시장	-8.92513
관한	-8.9255
▁TV	-8.92598
▁시절	-8.92632
▁중학교	-8.92661
언	-8.92696
▁불리	-8.9313
설	-8.93189
▁토	-8.93341
난	-8.93462
▁공간	-8.93566
▁건설	-8.93629
락	-8.93643
▁변경	-8.93686
▁보통	-8.9374
▁색	-8.93744
▁정책	-8.93947
▁개최	-8.94024
▁노선	-8.9434
▁힘	-8.94381
통	-8.94386
▁항공	-8.94882
▁「	-8.95096
손	-8.9518
▁거리	-8.95253
▁악	-8.95386
▁2003	-8.95565
▁애	-8.95576
▁교수	-8.95755
▁열린	-8.95819
▁학생	-8.959
▁실제	-8.95968
▁올	-8.9627
▁우주	-8.96488
▁모델	-8.96663
항	-8.96691
▁실시	-8.97356
▁달리	-8.97433
▁인물	-8.97511
▁」	-8.97515
▁서비스	-8.97607
▁마을	-8.97651
▁핵	-8.97746
▁그리스	-8.97964
▁황	-8.98041
▁31	-8.9824
▁기본	-8.98316
▁중화	-8.98357
▁개인	-8.98436
▁요구	-8.98543
▁운행	-8.98587
▁김	-8.98658
▁가수	-8.98947
▁창	-8.98959
곡	-8.99063
▁사랑	-8.99166
▁金	-8.9919
▁스페인	-8.99376
▁디	-8.99472
▁겠	-8.99559
▁금	-8.99678
▁순	-8.99916
▁거쳐	-8.9994
▁친	-8.99993
▁그러	-9.00425
▁태어났	-9.00429
▁어떤	-9.0043
▁행	-9.00485
대로	-9.0052
▁결혼	-9.00528
▁변화	-9.00576
복	-9.00628
작	-9.00789
▁광	-9.01014
▁승강	-9.01088
▁나이	-9.0118
▁전통	-9.01196
▁소련	-9.01201
▁경기도	-9.01292
▁FC	-9.01316
▁야구	-9.01403
▁전문	-9.01407
루	-9.01467
▁회의	-9.01526
▁완전	-9.0158
▁낮	-9.01741
향	-9.02107
격	-9.02154
▁최대	-9.02229
▁의원	-9.0228
▁I	-9.02321
▁R	-9.02362
▁수도	-9.02439
▁체	-9.02559
본	-9.02566
▁철	-9.02621
레	-9.02701
▁눈	-9.02918
남	-9.02958
▁비판	-9.03342
▁인도	-9.034
▁넘	-9.03564
증	-9.03663
▁s	-9.03739
▁보호	-9.03773
절	-9.03853
▁차이	-9.04234
▁못했	-9.04392
▁U	-9.04556
▁언	-9.04653
▁구역	-9.04857
▁딸	-9.04889
▁소설	-9.05061
▁세력	-9.05253
▁모양	-9.05332
▁H	-9.0545
극	-9.05513
▁놓	-9.05629
▁가진	-9.05919
▁케	-9.05953
▁돌	-9.05974
▁북쪽	-9.06024
▁부르	-9.06253
▁찾	-9.06282
▁바로	-9.06412
▁범	-9.0654
92	-9.06569
압	-9.06647
▁쿠	-9.06865
▁애니메이	-9.06879
스트	-9.06973
▁1990	-9.07062
▁L	-9.07115
명칭	-9.07201
▁열차	-9.07253
▁제외	-9.07473
청	-9.07526
▁환경	-9.07575
▁족	-9.07612
▁아닌	-9.07623
생	-9.07742
▁시설	-9.08
▁The	-9.08126
▁자기	-9.08196
▁자료	-9.08669
득	-9.08738
▁누	-9.0876
▁출시	-9.0901
▁론	-9.09261
▁므로	-9.09363
▁남쪽	-9.09367
러	-9.09455
▁남부	-9.09459
▁설	-9.09536
▁박	-9.09623
▁교황	-9.09984
▁전국	-9.10002
▁복	-9.10235
▁이때	-9.10384
▁글	-9.10522
▁비슷	-9.10674
▁기반	-9.10769
88	-9.10831
▁클럽	-9.11141
▁방향	-9.11186
택	-9.11224
▁도쿄	-9.1125
▁팔	-9.11376
▁높이	-9.11487
넣	-9.11498
▁대해서	-9.11806
▁도입	-9.11835
▁태	-9.1193
▁밴드	-9.11944
93	-9.12103
▁위하	-9.12168
▁목록	-9.12255
▁격	-9.1238
▁암	-9.12394
▁수행	-9.12582
▁싱글	-9.12622
▁분야	-9.12684
온	-9.12864
▁2001	-9.1317
李	-9.13185
▁형식	-9.13324
▁J	-9.13374
▁월드컵	-9.13611
▁연방	-9.13658
a	-9.14079
▁황제	-9.14146
▁기독교	-9.14327
▁차량	-9.14461
공화국	-9.14536
▁과거	-9.14662
업	-9.14673
▁면적	-9.14709
▁전기	-9.14854
▁남자	-9.14857
▁역임	-9.15151
▁탈	-9.15409
▁the	-9.15681
▁만든	-9.15787
▁부대	-9.15833
▁먹	-9.15909
어나	-9.15919
림	-9.15947
피	-9.16147
▁국내	-9.16188
▁의회	-9.16333
▁통합	-9.16403
▁V	-9.16516
▁려	-9.1652
▁종교	-9.16548
▁메	-9.16755
▁업	-9.16923
▁확	-9.17037
▁영어	-9.17089
▁오늘	-9.17097
▁행위	-9.17312
▁크기	-9.1743
▁공동	-9.17473
초	-9.17583
▁센터	-9.17599
봉	-9.17618
▁탄	-9.17653
별	-9.17841
길	-9.17848
▁부산	-9.17908
▁넓	-9.17982
▁겸	-9.18001
▁이미	-9.18014
▁긴	-9.18218
▁태양	-9.18328
▁세포	-9.18361
▁능력	-9.18378
▁운	-9.18421
▁설명	-9.18611
▁지배	-9.18616
▁특징	-9.18874
▁나오	-9.19014
▁지나	-9.19362
▁접	-9.19474
▁변	-9.19588
▁왕국	-9.19597
▁적용	-9.19599
▁봉	-9.19625
▁담	-9.19658
▁작업	-9.19701
60	-9.1984
▁보내	-9.19989
▁도로	-9.20008
▁확인	-9.20055
했	-9.20065
▁군대	-9.20161
▁논	-9.20179
▁예정	-9.20193
▁육군	-9.20278
▁사고	-9.20532
▁달러	-9.20562
▁보여	-9.20621
품	-9.20772
▁민	-9.20895
▁효과	-9.21023
▁혁명	-9.21179
▁방영	-9.21179
▁어느	-9.21329
▁효	-9.21333
▁규정	-9.21375
출	-9.21548
▁판매	-9.21599
건	-9.21737
▁피해	-9.21744
개	-9.21752
▁인기	-9.21762
▁40	-9.22337
▁지지	-9.2236
▁주변	-9.22445
▁공연	-9.22559
▁담당	-9.22735
▁캐나다	-9.2286
▁이적	-9.23367
▁컵	-9.2343
▁연기	-9.23462
▁경찰	-9.23493
▁칸	-9.23678
▁러	-9.23707
브	-9.23927
▁장관	-9.23934
▁차례	-9.24063
▁의한	-9.24145
▁cm	-9.24268
▁뉴욕	-9.24584
▁작용	-9.24612
▁기타	-9.24638
▁작곡	-9.24654
슨	-9.24736
료	-9.24993
▁선정	-9.25099
▁윤	-9.25224
역시	-9.25224
▁증가	-9.25324
승	-9.25392
율	-9.2543
▁브	-9.25454
▁컴퓨터	-9.25577
▁특별	-9.25992
▁극	-9.26156
▁참	-9.26233
▁마다	-9.26379
▁버전	-9.26871
▁협회	-9.26982
▁커	-9.27006
▁위해서	-9.27033
▁사단	-9.27112
▁유일	-9.27267
▁조약	-9.27277
▁완	-9.27286
▁개념	-9.27385
▁연속	-9.27408
▁지휘	-9.27436
▁수록	-9.27439
탄	-9.27599
▁뉴	-9.27612
▁비교	-9.27615
▁증	-9.27617
▁취	-9.27626
▁버스	-9.27687
바	-9.27795
▁위원	-9.27895
▁가족	-9.27949
▁성장	-9.27951
▁빈	-9.28043
범	-9.28161
며	-9.28194
▁헌법	-9.28323
▁정규	-9.28493
천	-9.28607
▁슈	-9.29099
▁실패	-9.29146
BC	-9.29207
양	-9.29227
▁검	-9.29251
▁종류	-9.29356
▁갈	-9.29432
▁2019	-9.2949
▁1996	-9.29674
▁추정	-9.29693
▁독	-9.29716
▁전자	-9.2975
어가	-9.29828
▁명령	-9.29878
▁예술	-9.29887
와	-9.29931
▁정당	-9.30266
IFA	-9.30452
▁철학	-9.30516
▁시민	-9.30525
희	-9.30628
▁행동	-9.30692
자리	-9.30758
▁상당	-9.30917
▁속도	-9.31104
투	-9.31119
▁레이	-9.31396
84	-9.31526
▁1999	-9.3157
▁지명	-9.31571
약	-9.31623
▁동일	-9.31742
▁스타	-9.31818
▁당하	-9.3184
▁개월	-9.31934
헌	-9.31954
▁선언	-9.31984
▁물질	-9.32307
▁지냈	-9.32445
▁문자	-9.32468
테	-9.32491
망	-9.32504
▁시켜	-9.3251
착	-9.32571
▁작전	-9.32946
집	-9.32975
▁공사	-9.33036
작가	-9.33151
98	-9.33184
▁1994	-9.33465
▁교통	-9.33546
▁샤	-9.33586
▁걸	-9.33625
▁주도	-9.3364
▁친구	-9.33804
철	-9.33863
▁특	-9.3392
▁법원	-9.33978
▁경상	-9.34035
▁조정	-9.34297
악	-9.34344
▁대체	-9.34485
박	-9.34676
▁동물	-9.34695
▁곧	-9.3473
▁체제	-9.34841
▁쪽	-9.34919
▁풍	-9.34984
▁민주	-9.35047
▁대하	-9.35186
▁고대	-9.35219
▁편성	-9.35234
▁집단	-9.35259
▁1995	-9.35411
▁선발	-9.35544
▁200	-9.3557
82	-9.35794
▁북부	-9.35855
▁이끌	-9.35867
▁설계	-9.36042
▁부문	-9.3609
▁내부	-9.36303
▁돈	-9.36314
▁머리	-9.36334
▁씩	-9.36373
▁처리	-9.36381
▁획	-9.36435
▁책임	-9.36447
▁이동	-9.36492
▁멤버	-9.36551
▁점령	-9.36818
▁마음	-9.37003
렸	-9.37058
▁폐	-9.37064
▁걸쳐	-9.37096
▁특정	-9.37121
▁개봉	-9.37229
받	-9.37256
암	-9.37258
▁반응	-9.37315
님	-9.37599
▁품	-9.37624
▁최종	-9.3774
▁퇴	-9.37782
▁제품	-9.37965
▁듯	-9.38025
▁공항	-9.38055
▁불교	-9.38065
▁칼	-9.38097
▁문학	-9.38112
▁잉글랜드	-9.38244
▁요소	-9.38262
▁통일	-9.38343
▁현상	-9.38344
랑	-9.38652
▁해군	-9.38671
ing	-9.38675
▁대중	-9.3889
▁아시아	-9.38893
▁가리킨다	-9.39089
▁국립	-9.39153
▁선택	-9.39199
▁분리	-9.3936
▁인데	-9.39399
▁단계	-9.39525
▁자동차	-9.39546
꾸	-9.39609
▁밝혔	-9.39644
▁보인다	-9.39715
▁표준	-9.39755
련	-9.39781
BS	-9.39919
▁1997	-9.39925
▁정신	-9.39968
네	-9.39981
▁신라	-9.40234
▁정권	-9.4025
▁확장	-9.40285
불	-9.40285
▁안정	-9.40361
빈	-9.40742
▁돌아	-9.40799
▁만화	-9.40967
▁땅	-9.41146
▁선출	-9.41206
▁폭	-9.41236
▁후반	-9.41337
▁어야	-9.41354
▁풀	-9.41374
▁출판	-9.41405
▁혼	-9.41561
▁연대	-9.41838
▁팬	-9.41892
▁홈	-9.42067
▁네덜란드	-9.42071
▁데이터	-9.42081
▁밤	-9.42158
▁조건	-9.42329
남도	-9.42354
▁그렇	-9.42464
▁꽃	-9.42638
▁맺	-9.43231
▁갔	-9.43342
궁	-9.43413
▁60	-9.43473
▁연주	-9.43589
▁체계	-9.4363
랜드	-9.43841
▁분석	-9.43927
▁언론	-9.44009
▁실험	-9.44095
▁X	-9.44149
▁평균	-9.44181
▁일제	-9.4423
▁mm	-9.44241
객	-9.4435
▁빛	-9.44464
▁히	-9.44719
▁함수	-9.44909
▁엔진	-9.45031
▁아직	-9.45193
▁1991	-9.4539
츠	-9.45398
▁부족	-9.45473
▁이듬	-9.45555
액	-9.45594
▁개혁	-9.45597
창	-9.45615
▁방어	-9.45656
▁배치	-9.45737
▁장군	-9.45762
o	-9.458
▁북한	-9.45829
▁폐지	-9.45881
▁경험	-9.46128
▁바탕	-9.46164
▁부상	-9.46525
▁외국	-9.46552
▁=	-9.46571
▁으면	-9.46665
▁민주주의	-9.46745
▁서부	-9.46931
더	-9.4698
요	-9.47036
▁흑	-9.47037
▁건축	-9.47075
▁더욱	-9.47187
▁구분	-9.47246
▁디자인	-9.47316
▁려고	-9.47413
▁흔	-9.47423
▁질	-9.47471
▁&	-9.47547
▁시도	-9.47603
▁법률	-9.47743
▁학자	-9.48169
▁홍	-9.48193
커	-9.48307
▁통과	-9.48394
순	-9.48395
▁지속	-9.48522
준	-9.48534
▁경계	-9.48587
▁침	-9.48597
▁500	-9.48609
▁왕조	-9.48653
▁나무	-9.48794
▁터	-9.48797
er	-9.48856
▁다르	-9.48942
▁불구	-9.48985
▁입장	-9.48991
▁입단	-9.49052
▁목표	-9.49142
▁프리	-9.49167
▁파리	-9.49171
▁수준	-9.49185
돌	-9.492
▁합	-9.49313
▁山	-9.4935
▁구단	-9.49411
▁공원	-9.49456
FA	-9.49568
▁가치	-9.49667
▁관심	-9.49771
▁O	-9.49819
패	-9.50021
▁광주	-9.5014
▁환	-9.50145
▁정확	-9.50187
▁강화	-9.503
▁나가	-9.50337
▁웹	-9.50364
▁지도	-9.50421
▁수학	-9.50528
▁발달	-9.50584
책	-9.50779
▁종합	-9.50828
▁맨	-9.50848
67	-9.51032
▁영토	-9.51041
▁투수	-9.51097
능	-9.51108
▁스웨덴	-9.51178
▁요리	-9.51191
▁관할	-9.51195
▁올랐	-9.51197
▁주민	-9.51255
▁뛰	-9.51261
씨	-9.51285
▁소리	-9.51369
졌	-9.51411
▁대구	-9.51552
▁록	-9.51793
us	-9.51804
링	-9.51915
▁도움	-9.5197
i	-9.52017
▁필	-9.52049
▁소재	-9.52141
▁텔레비전	-9.5222
▁경쟁	-9.52226
▁폴란드	-9.52312
▁회장	-9.52353
▁그림	-9.52431
▁파괴	-9.52433
▁값	-9.52536
할	-9.52604
읍	-9.52633
▁려는	-9.52683
80	-9.52804
▁스포츠	-9.52885
그	-9.52908
▁1989	-9.52957
술	-9.5299
▁오래	-9.52993
74	-9.53231
라고	-9.53236
▁인지	-9.53398
73	-9.53521
▁에너지	-9.53531
▁준비	-9.5354
▁대로	-9.53659
▁벌	-9.53741
71	-9.53826
▁버	-9.53827
다고	-9.53832
▁",	-9.53868
▁비행	-9.53998
▁깊	-9.54139
▁사진	-9.54189
▁번호	-9.54205
▁비디오	-9.54338
들	-9.54385
▁추진	-9.54393
▁유사	-9.54423
▁시험	-9.54649
▁동부	-9.54783
▁가정	-9.54836
동생	-9.54888
▁율	-9.55062
백	-9.55075
스탄	-9.55149
▁금지	-9.55221
▁알려진	-9.55395
30	-9.55476
▁문서	-9.556
큼	-9.55627
▁인터넷	-9.55628
▁연맹	-9.55694
규	-9.55703
▁본선	-9.55712
▁정상	-9.55717
▁남성	-9.55767
▁푸	-9.55929
▁비해	-9.56237
▁성적	-9.56396
86	-9.56506
▁행사	-9.56523
76	-9.56558
▁둘	-9.56659
널리	-9.56749
표	-9.56774
▁거주	-9.56775
▁훈련	-9.56785
▁십	-9.56914
▁라디오	-9.5694
▁노력	-9.57066
al	-9.5724
49	-9.57401
데	-9.57435
광	-9.57503
▁밝	-9.57594
▁지난	-9.57664
▁덕	-9.57675
70	-9.57682
▁베트남	-9.57791
▁업무	-9.57846
▁무대	-9.58054
▁주제	-9.58324
▁신문	-9.58386
▁브라질	-9.58494
▁오르	-9.58516
▁대사	-9.58526
애	-9.58602
▁쉽	-9.5866
▁방문	-9.58726
▁로써	-9.58741
▁치료	-9.58747
▁이곳	-9.58811
▁아프리카	-9.59008
송	-9.59051
▁정리	-9.5907
▁결합	-9.59082
▁해석	-9.59184
▁단순	-9.59187
t	-9.59227
▁32	-9.59886
▁보도	-9.60007
▁이해	-9.60117
▁득점	-9.60144
▁즈	-9.60169
▁서울특별시	-9.60211
▁무기	-9.60213
축	-9.60231
▁거두	-9.60428
▁원인	-9.60519
▁행성	-9.60529
▁UE	-9.60606
▁초대	-9.60614
숙	-9.60639
풍	-9.60662
▁부인	-9.60814
▁자주	-9.60831
혀	-9.6087
층	-9.60982
▁》,	-9.6102
▁기사	-9.61049
78	-9.61147
▁통신	-9.61525
▁소유	-9.61556
▁기념	-9.61564
탁	-9.61605
▁님	-9.61696
버	-9.61739
정식	-9.61772
▁프로젝트	-9.61887
▁옆	-9.61889
▁복귀	-9.61893
▁통치	-9.61909
▁1985	-9.61964
독	-9.62013
▁농	-9.62202
▁흐	-9.62216
▁인천	-9.62231
▁용어	-9.62396
66	-9.62416
▁『	-9.62441
머지	-9.62515
많	-9.62546
▁아서	-9.62617
▁사이트	-9.62666
▁표시	-9.62747
▁마리	-9.62811
▁착	-9.62883
▁동맹	-9.62921
▁척	-9.62952
▁술	-9.62975
▁결성	-9.62981
갈	-9.63135
져	-9.63181
▁부여	-9.63185
▁캐릭터	-9.6328
▁회원	-9.63369
▁형제	-9.6368
거리	-9.63721
▁박물관	-9.63752
▁강력	-9.63761
▁박사	-9.63801
▁등록	-9.63821
▁칠	-9.64156
▁파일	-9.64235
▁근거	-9.64275
▁플레이	-9.64314
▁기초	-9.64338
▁좌	-9.64365
▁투표	-9.64473
▁위험	-9.64486
▁스스	-9.64788
▁인식	-9.64844
▁엘	-9.64852
측	-9.64873
▁요청	-9.64968
너	-9.65006
▁제안	-9.65131
▁바뀌	-9.65183
69	-9.65222
아내	-9.65222
40	-9.65304
▁세대	-9.65401
▁총리	-9.65493
말	-9.65543
▁제조	-9.65653
▁체결	-9.65898
▁임시	-9.65918
훈	-9.66018
1987	-9.66024
▁그리	-9.66091
▁소프트웨어	-9.66129
찬가	-9.66129
▁;	-9.66162
▁당했	-9.66197
▁하계	-9.66255
▁아일랜드	-9.66369
62	-9.66655
▁예선	-9.66656
▁계열	-9.66739
▁슬	-9.66799
▁앤	-9.66817
▁는지	-9.66831
▁기계	-9.66838
▁트리	-9.66902
▁본부	-9.66926
▁번역	-9.66962
▁장소	-9.67008
▁상호	-9.67088
▁움직	-9.67199
▁이렇	-9.67202
▁도착	-9.67244
▁지하철	-9.6736
▁연구소	-9.67513
▁여객	-9.67585
▁접근	-9.67628
▁설정	-9.67638
r	-9.6766
때	-9.6772
먼	-9.67725
▁극장	-9.67734
▁경영	-9.6777
협	-9.67807
n	-9.67833
▁조성	-9.67866
함	-9.68085
▁경상북도	-9.68318
▁런던	-9.68319
▁시행	-9.68412
▁궁	-9.68443
▁소장	-9.68447
▁빌	-9.68556
▁이외	-9.68564
▁협력	-9.68586
▁발행	-9.68653
▁지적	-9.68704
우스	-9.68837
▁승격	-9.68861
▁자치	-9.68929
▁오스트리아	-9.6906
▁지하	-9.69112
▁차원	-9.69143
▁조각	-9.69168
▁숙	-9.69281
▁제기	-9.69303
▁권력	-9.69318
▁지대	-9.69361
▁개국	-9.69364
▁고자	-9.69377
움	-9.69461
▁곤	-9.69487
▁양식	-9.69725
▁후기	-9.69726
46	-9.69827
▁육	-9.69913
45	-9.69939
▁세웠	-9.7009
▁예수	-9.70195
▁검사	-9.70222
▁재판	-9.70245
▁중간	-9.70301
▁의견	-9.70368
▁생명	-9.70467
▁으므로	-9.70502
▁평화	-9.70535
▁성격	-9.70549
▁300	-9.70564
▁1950	-9.70608
▁올라	-9.70623
▁순위	-9.70638
▁떠나	-9.70736
▁단어	-9.70824
61	-9.70871
▁축	-9.70998
▁표기	-9.71037
▁부정	-9.71092
▁오후	-9.71253
겪	-9.71314
▁노동	-9.71316
▁병원	-9.71396
▁왜	-9.71526
▁보였	-9.71537
▁기구	-9.71607
▁연장	-9.71608
▁화학	-9.71666
필	-9.7174
▁완성	-9.71887
▁코드	-9.71946
▁로스	-9.71991
▁코치	-9.72018
▁타이틀	-9.7208
▁외교	-9.7211
▁묘사	-9.72171
▁여행	-9.72304
47	-9.72621
인공	-9.72754
▁여름	-9.7278
▁의식	-9.72813
▁얼마	-9.72857
▁경기장	-9.72933
▁판단	-9.72959
▁분포	-9.72981
▁국회	-9.73105
▁오른	-9.73185
▁은행	-9.73197
▁지도자	-9.73302
▁공산	-9.73331
▁원소	-9.73474
▁80	-9.73573
▁달성	-9.73731
▁휘	-9.73764
▁영상	-9.7377
▁밑	-9.73901
▁"(	-9.74026
녀	-9.7409
충	-9.74116
▁습니다	-9.74143
리키	-9.74143
▁》()	-9.74162
▁파견	-9.74163
▁근무	-9.7419
▁성립	-9.74232
▁망	-9.7427
▁해결	-9.74327
▁수용	-9.74349
▁카드	-9.74379
▁집합	-9.7455
배	-9.74636
▁어린	-9.74837
몇	-9.74842
▁상징	-9.74951
48	-9.74976
▁공작	-9.75013
▁文	-9.75154
▁차트	-9.75193
▁량	-9.75195
▁패배	-9.75207
▁투자	-9.75311
ce	-9.75351
▁죽음	-9.75441
▁폴	-9.75464
▁본관	-9.75535
▁서식	-9.75666
▁조지	-9.75677
▁촬영	-9.75719
▁이루어져	-9.75729
채	-9.75741
ed	-9.75788
▁안전	-9.75913
을	-9.75946
▁지상	-9.75995
63	-9.76032
▁바다	-9.76056
▁계승	-9.76077
▁특수	-9.76082
끼	-9.76103
럽	-9.76123
▁콘	-9.76138
▁35	-9.76179
▁맥	-9.7625
달	-9.7634
찬	-9.76409
스타	-9.76479
▁챔피언	-9.76518
▁+	-9.76579
▁',	-9.76678
되	-9.76729
낳	-9.76784
▁홈런	-9.7681
▁뮤직	-9.76829
▁링	-9.76996
19	-9.77162
▁반란	-9.77177
▁a	-9.77313
▁일정	-9.77452
▁다면	-9.77475
▁기자	-9.77489
▁국회의원	-9.77594
▁해안	-9.776
▁소수	-9.77611
▁소송	-9.77678
▁기획	-9.77692
▁부른다	-9.77764
▁보존	-9.77792
▁식물	-9.779
▁대응	-9.77933
▁폰	-9.77933
글	-9.78046
▁시청	-9.78127
▁성우	-9.78139
64	-9.78152
▁소비	-9.78154
▁세상	-9.78182
▁더불	-9.78211
폰	-9.78282
▁보유	-9.78301
월	-9.7834
▁삼성	-9.78404
14	-9.78428
▁계기	-9.78456
▁아무	-9.78559
턴	-9.78677
▁귀족	-9.78739
▁음력	-9.78878
▁체포	-9.78988
▁벤	-9.79268
른	-9.79311
▁종목	-9.79311
▁염	-9.7932
▁못한	-9.79329
▁타이	-9.79352
삼	-9.79394
결	-9.79395
벌	-9.79585
옥	-9.79878
레스	-9.79879
▁공장	-9.8001
▁져	-9.80052
▁입학	-9.8008
▁잔	-9.80175
▁붙	-9.80196
▁문화재	-9.80248
▁지식	-9.8028
▁남북	-9.80369
▁제정	-9.80431
▁배경	-9.8046
예	-9.80499
▁가입	-9.80526
▁90	-9.80598
▁활용	-9.80615
▁알려	-9.80637
▁국방	-9.80747
덕	-9.80876
▁멕시코	-9.80883
▁홍콩	-9.80884
▁전라남도	-9.80884
▁견	-9.80974
머	-9.81057
▁생성	-9.81129
번	-9.81283
▁쓴	-9.8129
▁그린	-9.8136
▁오스트레일리아	-9.81442
980	-9.81479
▁쥐	-9.81504
▁확대	-9.81539
버스	-9.8157
▁단위	-9.81591
▁뉴스	-9.81648
83	-9.81707
▁개통	-9.81717
▁도서관	-9.81774
릴	-9.81855
▁떨어진	-9.81899
▁사회주의	-9.81933
▁이집트	-9.82007
▁수정	-9.8208
▁능	-9.82115
▁헤	-9.82129
▁상업	-9.82131
담	-9.82331
▁감소	-9.82388
▁공부	-9.82438
어지	-9.82492
▁장기	-9.82508
▁강한	-9.8251
▁내려	-9.82594
57	-9.83005
▁미군	-9.83098
▁작성	-9.83105
▁필리핀	-9.8314
▁王	-9.83171
▁소개	-9.83202
▁인사	-9.83296
▁개정	-9.83338
54	-9.83392
묘	-9.83462
▁채널	-9.83462
▁합의	-9.83472
▁헌	-9.83484
▁관찰	-9.83517
센	-9.83702
▁다수	-9.83703
▁잎	-9.83707
▁권리	-9.8371
C	-9.83768
▁아르	-9.83905
느	-9.83961
민주당	-9.83988
▁불린다	-9.84014
▁관측	-9.84021
▁듣	-9.84026
▁너	-9.84061
▁위기	-9.84069
▁잇	-9.84078
▁내각	-9.84218
▁발사	-9.84229
▁방면	-9.8423
▁라이	-9.8429
▁보수	-9.8431
▁하루	-9.84364
▁장애	-9.8437
▁주목	-9.84476
▁70	-9.84494
▁츠	-9.84575
▁국왕	-9.8463
▁마이크	-9.84812
38	-9.84818
▁윈도우	-9.84878
볼	-9.84959
3	-9.85074
▁디지털	-9.85157
▁and	-9.8517
18	-9.85285
블	-9.85293
▁이어	-9.85339
▁무역	-9.8542
▁군주	-9.85444
▁논란	-9.85483
▁나누	-9.85506
▁수사	-9.85796
▁캘리포니아	-9.86034
념	-9.86039
▁따른	-9.86097
례	-9.86123
▁寺	-9.8622
998	-9.86339
▁계급	-9.86511
43	-9.8658
▁해방	-9.86591
싶	-9.86623
▁종료	-9.86677
▁국경	-9.86714
▁전달	-9.86762
촌	-9.86828
▁프	-9.86832
▁죄	-9.86841
▁신경	-9.86878
▁합류	-9.86946
시아	-9.86957
▁』	-9.87016
▁제시	-9.87029
▁b	-9.87099
울	-9.87205
▁시킨	-9.87211
▁터미널	-9.87239
▁학위	-9.87331
▁해외	-9.87379
52	-9.87426
▁출발	-9.87568
▁벨	-9.87679
▁즉위	-9.877
▁슈퍼	-9.87813
▁가까운	-9.87856
▁원자	-9.87874
취	-9.87924
▁비트	-9.87997
리아	-9.88035
황	-9.88041
▁청년	-9.88134
▁페	-9.88174
▁연극	-9.88176
▁물론	-9.88197
골	-9.88317
▁사무	-9.88371
▁식민지	-9.88456
59	-9.88479
▁톤	-9.88545
으면서	-9.88638
75	-9.88719
▁몰	-9.88721
▁합병	-9.88735
36	-9.88737
▁결승전	-9.88748
▁옥	-9.88952
▁기원	-9.88978
A	-9.89192
▁홀	-9.89234
▁월드	-9.89294
▁충돌	-9.89325
를	-9.89335
▁양성	-9.89375
▁전략	-9.89388
▁교체	-9.89476
외	-9.89522
▁표면	-9.89549
22	-9.89553
갑	-9.89609
▁터키	-9.89651
▁태평양	-9.89766
▁유대	-9.8979
▁유리	-9.89814
▁둔	-9.89838
▁다루	-9.8988
▁공주	-9.89956
막	-9.89987
▁오스	-9.90017
▁농업	-9.90074
▁주연	-9.90076
▁부모	-9.90111
살	-9.90114
▁고종	-9.90233
▁강원도	-9.90255
▁지위	-9.90262
▁계산	-9.90269
▁든	-9.90286
▁동계	-9.90432
▁느	-9.90442
▁취임	-9.90539
▁겨울	-9.90569
▁저항	-9.90625
북	-9.90701
▁자동	-9.90763
▁당선	-9.90808
▁도중	-9.90839
▁측정	-9.90952
▁가문	-9.91004
10	-9.91023
▁學	-9.91061
▁관광	-9.91083
▁만약	-9.91138
동안	-9.91165
▁너무	-9.91176
▁강점	-9.91202
▁실행	-9.91206
▁률	-9.91251
▁집중	-9.91256
▁400	-9.91302
째	-9.91346
▁오사카	-9.91562
쿠	-9.91658
28	-9.9166
등	-9.91706
▁전시	-9.91806
▁신학	-9.91818
▁보냈	-9.9187
▁1972	-9.9187
▁자원	-9.91918
21	-9.92039
익	-9.92055
윤	-9.9207
▁신화	-9.9224
▁탑	-9.92287
44	-9.92312
▁준다	-9.92374
▁핀란드	-9.924
▁氏	-9.9245
56	-9.92534
메	-9.92538
▁묘	-9.92576
▁헝가리	-9.92713
▁됨	-9.92753
▁학년	-9.92776
▁미래	-9.93001
▁라운드	-9.9307
▁특성	-9.93103
▁자격	-9.9311
▁건강	-9.93112
▁충	-9.93137
쓰이	-9.93317
▁카이	-9.93362
였	-9.93391
▁공급	-9.93486
▁질량	-9.9352
▁인수	-9.93526
▁여전	-9.93566
▁마리아	-9.93611
라도	-9.93652
▁녹음	-9.93774
▁정착	-9.94033
51	-9.94061
해서	-9.94094
▁읽	-9.94313
▁그래서	-9.9432
▁미술	-9.94365
▁옮겨	-9.94388
▁公	-9.94499
▁명단	-9.94515
▁유로	-9.947
▁전력	-9.94726
58	-9.9477
▁만족	-9.94826
▁고등	-9.94838
▁명예	-9.94863
35	-9.94899
▁얼굴	-9.94938
▁촉	-9.94968
▁주의	-9.95158
▁출생	-9.95159
▁금융	-9.95226
▁東	-9.95232
79	-9.95242
▁현실	-9.95425
▁돼	-9.95458
▁대립	-9.95622
▁CD	-9.95689
▁스키	-9.95753
▁비용	-9.95876
▁불렀	-9.95909
▁강제	-9.95946
▁늘	-9.9597
▁일어난	-9.96132
친	-9.96136
31	-9.96143
33	-9.96318
팅	-9.96443
▁中	-9.96558
▁랑	-9.96569
▁제목	-9.96811
m	-9.96828
州	-9.96854
▁나왔	-9.96985
▁마치	-9.97014
▁사령	-9.97098
▁공업	-9.97123
▁1968	-9.97164
척	-9.97176
▁충청남도	-9.97211
▁숲	-9.97267
▁비밀	-9.97273
07	-9.97289
▁편입	-9.97314
▁노동자	-9.97409
▁잡지	-9.97428
났	-9.97494
▁45	-9.97511
▁붕괴	-9.97538
l	-9.9757
▁제주	-9.97658
▁단지	-9.97683
d	-9.97748
c	-9.97754
▁세종	-9.97807
▁무장	-9.97826
▁가톨릭	-9.97833
▁온도	-9.97855
▁스위스	-9.97877
▁아랍	-9.97917
▁범죄	-9.97932
▁전해	-9.97971
▁퍼	-9.97989
▁전하	-9.98086
▁산맥	-9.98099
▁재산	-9.98151
거부	-9.98173
▁응	-9.98198
▁엔터	-9.98253
▁충분	-9.98257
▁동료	-9.983
철도	-9.98328
▁령	-9.98361
▁싸	-9.98367
▁울산	-9.98473
▁p	-9.98501
24	-9.9853
23	-9.98542
39	-9.98557
▁전사	-9.98597
▁미사일	-9.98603
▁왕위	-9.98605
죄	-9.98664
평	-9.98726
▁증명	-9.9883
▁민간	-9.98955
▁털	-9.98969
베	-9.99002
▁가격	-9.99023
컷	-9.99204
▁전반	-9.99224
▁잠	-9.9923
▁항상	-9.99362
▁다섯	-9.99589
▁원정	-9.9964
▁그곳	-9.99665
▁기회	-9.99668
뉘	-9.99892
▁벽	-9.99962
▁베르	-9.99969
벽	-10.0001
▁궤도	-10.0002
▁냈	-10.0003
▁선고	-10.001
▁외부	-10.0014
▁이슬람	-10.0015
▁음식	-10.0016
▁소프트	-10.0024
▁전역	-10.0032
▁전환	-10.0035
25	-10.0042
(	-10.0044
▁전차	-10.0054
▁이스라엘	-10.0055
▁선조	-10.0056
▁흰	-10.0056
▁노예	-10.0057
▁1920	-10.0067
▁위원장	-10.007
es	-10.0071
▁보급	-10.0083
▁버리	-10.0091
▁공군	-10.0101
▁광고	-10.0134
미지	-10.0135
▁시위	-10.0139
옹	-10.0139
좌	-10.014
▁南	-10.0163
▁라틴	-10.0164
▁평양	-10.0169
제한	-10.017
▁거대	-10.0179
▁근대	-10.0184
▁덴마크	-10.0192
▁포르투갈	-10.0192
▁기후	-10.0198
▁경주	-10.0198
▁선생	-10.0208
▁장식	-10.0208
▁개선	-10.0214
▁무렵	-10.0226
▁천황	-10.0233
▁좀	-10.0235
▁꼬리	-10.0238
17	-10.0242
,	-10.0248
▁강조	-10.0249
혜	-10.0249
▁녹	-10.0253
텐	-10.0257
▁통제	-10.0258
34	-10.026
▁아시안	-10.0261
▁탑재	-10.0263
▁安	-10.0273
▁우수	-10.0274
▁교사	-10.0279
▁박쥐	-10.0285
▁업체	-10.0307
55	-10.0321
▁가졌	-10.0329
▁제임스	-10.033
▁남편	-10.033
▁동의	-10.0331
▁소년	-10.0333
나무	-10.0341
▁끌	-10.0355
▁수원	-10.0359
▁승인	-10.0369
▁확실	-10.0369
▁숨	-10.038
▁물리	-10.0381
폐	-10.0381
슈	-10.0389
즘	-10.039
퍼	-10.0394
▁익	-10.0396
▁고구려	-10.04
▁판결	-10.0403
▁폭발	-10.0403
침	-10.0413
▁미디어	-10.0421
▁말기	-10.0424
▁수입	-10.0426
케	-10.0431
▁네트워크	-10.0435
▁짓	-10.0437
▁알리	-10.0455
겐	-10.046
▁라인	-10.046
▁재정	-10.0462
▁강의	-10.0468
▁'(	-10.0471
▁원칙	-10.0473
▁촌	-10.0485
▁33	-10.0493
▁이번	-10.0495
▁바르	-10.0496
끄	-10.0497
▁틀	-10.0501
▁어떻	-10.0506
▁∼	-10.0508
▁대대	-10.0511
▁토지	-10.0513
06	-10.0513
▁br	-10.0517
▁쓰인다	-10.0519
▁요한	-10.0521
▁대수	-10.0526
▁뇌	-10.0529
▁시티	-10.0532
▁유도	-10.0535
민국	-10.0536
▁전선	-10.0541
▁보고	-10.0551
못	-10.0552
▁보장	-10.0554
▁대형	-10.0559
▁원작	-10.056
▁뛰어난	-10.0578
샤	-10.0581
▁플레이어	-10.0586
▁Z	-10.0593
32	-10.0595
▁라면	-10.0597
▁de	-10.0604
▁살해	-10.0607
en	-10.0609
▁양자	-10.0612
▁바이	-10.0613
▁엄	-10.0615
▁유학	-10.0617
▁창설	-10.0617
▁법칙	-10.0618
▁열렸	-10.0619
▁전개	-10.0642
▁드러	-10.0653
▁세우	-10.0655
▁잠시	-10.0659
▁스카	-10.0662
▁건너	-10.067
▁의사	-10.0671
▁아마	-10.0678
▁편집	-10.0684
▁쌍	-10.0686
▁꿈	-10.0689
▁이란	-10.0691
튼	-10.0694
▁롭	-10.0695
맨	-10.0698
▁대기	-10.0701
▁포도	-10.071
▁주교	-10.0711
▁논리	-10.0732
▁・	-10.0733
53	-10.0739
▁연고	-10.0746
▁혐의	-10.0758
▁총선	-10.0758
▁태어난	-10.0761
▁침공	-10.0761
▁성당	-10.0763
42	-10.077
▁수비	-10.0774
▁공공	-10.0774
▁윌리엄	-10.0784
▁희	-10.0792
▁블랙	-10.0794
▁이루어진	-10.0796
▁허용	-10.0801
▁34	-10.0803
규칙	-10.0804
▁올렸	-10.081
▁바람	-10.081
▁싱	-10.0811
▁보병	-10.0813
▁진화	-10.0824
▁포지션	-10.0831
▁냐	-10.0835
▁신호	-10.0851
▁수출	-10.0857
쳤	-10.0863
▁36	-10.0868
▁봄	-10.0872
▁빠르	-10.0879
▁아메리카	-10.0883
▁욕	-10.0883
▁몽골	-10.0887
▁미치	-10.0889
요일	-10.09
▁대학원	-10.0903
▁센	-10.0903
▁성인	-10.0904
▁갖춘	-10.0906
소드	-10.091
▁회복	-10.0915
▁48	-10.0919
▁아주	-10.0926
▁함대	-10.0926
▁종이	-10.0933
▁in	-10.0938
▁國	-10.0942
▁아르헨티	-10.0942
▁태어	-10.0957
▁앞서	-10.0959
▁시각	-10.0964
매	-10.0972
▁에피	-10.0974
▁독자	-10.0976
▁온라인	-10.0979
▁법인	-10.098
▁협상	-10.0983
▁모르	-10.099
▁1977	-10.0991
▁영업	-10.0993
▁지점	-10.0994
▁해도	-10.0995
on	-10.0997
▁떨어져	-10.102
▁토론	-10.1022
▁찬	-10.1026
▁압	-10.1031
▁고전	-10.1032
▁일으	-10.1034
▁오브	-10.104
변	-10.1047
▁사장	-10.1052
S	-10.1065
▁등급	-10.1068
▁했었	-10.1092
▁찾아	-10.1097
29	-10.1126
널	-10.1129
▁금메달	-10.113
▁레코드	-10.1136
▁교토	-10.1137
81	-10.114
귀	-10.1149
▁세운	-10.115
▁天	-10.1152
▁덴	-10.116
▁섭	-10.1181
이징	-10.1183
▁시리아	-10.1184
▁자세	-10.1185
37	-10.1186
▁나온	-10.1195
▁종종	-10.1197
탈	-10.1201
▁kg	-10.1206
▁플	-10.121
▁재단	-10.1216
▁투어	-10.1227
가와	-10.1241
▁탄생	-10.1246
▁맹	-10.128
▁추측	-10.1284
▁주위	-10.1296
던	-10.13
▁바라	-10.1306
▁II	-10.1313
씬	-10.132
▁몬	-10.1322
▁구체	-10.1324
▁예상	-10.1326
▁죽이	-10.1331
▁짐	-10.1339
▁암살	-10.1344
▁자금	-10.1344
▁간주	-10.1355
▁중부	-10.1355
▁들어갔	-10.1359
▁육상	-10.1366
▁이래	-10.1366
굴	-10.1367
야마	-10.1368
컬	-10.1393
.	-10.1398
▁요새	-10.1399
▁깨	-10.1406
풀	-10.1408
▁마이	-10.1411
▁전용	-10.1423
▁조치	-10.1438
▁메인	-10.1439
▁물리학	-10.1446
▁지시	-10.1448
▁전화	-10.1451
▁항성	-10.1452
11	-10.1466
▁공학	-10.1475
▁스튜디오	-10.1475
▁인권	-10.1498
▁우선	-10.1499
▁기대	-10.15
쓰	-10.15
95	-10.1508
스터	-10.1512
▁모스크바	-10.1515
▁태풍	-10.1516
▁SBS	-10.1519
핵	-10.1526
▁대륙	-10.1527
▁차별	-10.1531
▁성경	-10.1534
▁사전	-10.1536
총	-10.1551
▁LG	-10.156
▁띠	-10.1572
970	-10.1576
▁북동	-10.1577
▁경력	-10.1581
▁이루어	-10.1581
▁모리	-10.1592
▁일어났	-10.1593
▁참석	-10.1598
▁내렸	-10.1599
▁클	-10.1601
견	-10.1606
▁알려졌	-10.1617
▁38	-10.1619
▁역대	-10.1622
▁사법	-10.1631
▁감염	-10.1634
▁서양	-10.1636
▁관료	-10.1638
▁집행	-10.1645
▁논문	-10.1661
었	-10.1666
놓	-10.1666
▁북서	-10.1668
이드	-10.1674
니아	-10.1679
논	-10.1686
▁비율	-10.1691
15	-10.1702
▁지진	-10.1709
▁맛	-10.1712
▁마드리드	-10.1713
▁복잡	-10.1713
▁메이	-10.1713
▁앙	-10.1715
▁하늘	-10.1715
▁유적	-10.1737
▁c	-10.1737
▁지키	-10.1739
엽	-10.1742
▁g	-10.1742
▁렌	-10.1746
▁불렸	-10.1748
▁건국	-10.1752
▁전라북도	-10.1753
▁굴	-10.1755
페	-10.1759
▁마크	-10.1759
▁은하	-10.1765
▁감정	-10.1766
▁신설	-10.1766
▁남동	-10.1771
▁n	-10.1785
▁나치	-10.1787
▁붉	-10.1794
▁증거	-10.1798
▁보컬	-10.18
칠	-10.1807
▁수여	-10.1808
▁태국	-10.181
왔	-10.1811
롭	-10.1812
山	-10.1816
비난	-10.1818
h	-10.1819
▁i	-10.1821
▁괴	-10.1834
▁충청북도	-10.1834
▁원리	-10.1834
▁위성	-10.1835
▁공기	-10.1835
▁간단	-10.1835
▁광역시	-10.1842
k	-10.1849
▁순서	-10.1869
▁한국어	-10.1871
를린	-10.1874
▁인상	-10.1874
▁스코틀랜드	-10.1875
▁형사	-10.1875
▁지낸	-10.1876
▁오픈	-10.1877
▁전설	-10.1878
▁취급	-10.1879
▁나와	-10.188
▁기억	-10.1884
▁어린이	-10.1896
▁150	-10.1902
▁공무원	-10.1918
▁학회	-10.1927
▁스리	-10.1953
▁경성	-10.1957
▁멸망	-10.1957
▁平	-10.1964
▁사례	-10.1967
▁칭	-10.1969
▁신성	-10.1979
▁컨	-10.1984
▁소식	-10.1985
▁그리스도	-10.1986
▁루이	-10.1987
스턴	-10.1992
▁울	-10.1992
▁캠퍼	-10.2002
▁블	-10.2024
▁권한	-10.204
▁불러	-10.2047
▁스타일	-10.2062
▁군수	-10.2084
B	-10.2092
16	-10.2096
in	-10.2097
균	-10.2102
▁시킬	-10.2105
▁1965	-10.2109
▁플레이오프	-10.2122
▁빅	-10.2125
▁항복	-10.2127
▁선수단	-10.213
▁정원	-10.2136
▁제자	-10.2139
▁분자	-10.2164
▁가스	-10.2166
▁〉,	-10.2166
▁일원	-10.2166
▁라이브	-10.2167
▁소스	-10.2168
이티	-10.2169
▁대비	-10.217
▁지니	-10.2172
▁가까	-10.2172
▁해상	-10.2178
▁城	-10.2202
▁백제	-10.2205
▁장비	-10.2211
▁경향	-10.2214
▁집안	-10.2218
▁솔	-10.2219
▁공유	-10.2222
▁단일	-10.2222
▁상품	-10.2224
1	-10.2225
플	-10.2226
▁멸	-10.2233
환자	-10.2242
▁1941	-10.225
▁심각	-10.2255
▁중세	-10.2256
▁공동체	-10.2262
▁진다	-10.2265
▁공산주의	-10.2267
▁건립	-10.2269
▁메이저	-10.2296
▁구속	-10.2306
▁메시	-10.2309
▁절대	-10.2311
▁스러	-10.232
▁합성	-10.232
▁징	-10.2332
▁부활	-10.2334
▁낙	-10.2336
요시	-10.2339
▁테러	-10.2339
▁아침	-10.235
▁군단	-10.2352
▁쉬	-10.2357
▁사항	-10.2361
▁동음이의	-10.2376
▁그런데	-10.2376
▁州	-10.2379
▁말레이	-10.2379
틴	-10.2386
▁인조	-10.2386
▁내리	-10.2388
▁명성	-10.2391
▁낸	-10.2391
▁三	-10.2396
▁셀	-10.2404
멸	-10.2413
▁변호사	-10.2423
▁시킨다	-10.2427
▁마쓰	-10.2444
리스트	-10.2449
▁폭력	-10.246
▁청소년	-10.2463
▁융	-10.2465
▁중반	-10.2466
▁채용	-10.2473
08	-10.2474
▁복합	-10.2479
효	-10.2479
▁공포	-10.2481
▁속한다	-10.2482
▁아야	-10.2491
▁다리	-10.2505
▁PC	-10.2506
▁코미디	-10.2507
▁공화	-10.2511
▁강하	-10.2514
▁무리	-10.2524
사후	-10.2524
▁건조	-10.2529
▁주전	-10.2529
▁의료	-10.2531
▁조합	-10.2534
▁t	-10.2536
새	-10.2539
▁통한	-10.2541
WE	-10.2542
▁방송국	-10.255
▁협정	-10.2551
▁창조	-10.2558
▁창립	-10.2559
▁전후	-10.2567
▁살아	-10.2579
▁킹	-10.2583
티브	-10.2585
▁모아	-10.2588
▁이익	-10.2588
▁직전	-10.2592
▁어렵	-10.2596
▁신앙	-10.2596
떠	-10.2597
▁다니	-10.2597
▁연출	-10.2599
▁상륙	-10.2602
딩	-10.2606
▁유전자	-10.2609
밀	-10.261
▁기지	-10.2611
▁머	-10.2617
▁소녀	-10.262
▁전철	-10.2624
▁미니	-10.2626
▁SK	-10.2629
▁저장	-10.263
▁액	-10.2632
▁훨	-10.2636
▁오랜	-10.2637
▁올리	-10.2643
메달	-10.2645
릭	-10.2648
▁탐	-10.2649
원군	-10.2659
▁팝	-10.2667
▁워싱턴	-10.268
▁빠른	-10.2681
▁성질	-10.2681
▁삭	-10.2681
▁취득	-10.2683
▁혼란	-10.2684
▁교류	-10.2688
▁린	-10.2695
▁39	-10.2695
▁운전	-10.2698
▁코스	-10.2705
▁습	-10.2711
답	-10.2711
▁즐	-10.2715
▁보안	-10.2718
▁가사	-10.2722
▁편지	-10.2723
얼	-10.2723
▁나들목	-10.2724
▁단백질	-10.2724
▁친일	-10.2732
룡	-10.2732
校	-10.2736
▁그런	-10.2739
엄	-10.274
04	-10.2741
▁회전	-10.2766
▁검찰	-10.2768
▁숫자	-10.2771
▁방출	-10.2773
人	-10.2781
혼	-10.2783
▁임금	-10.2784
94	-10.2784
▁연료	-10.2786
▁해졌	-10.2795
▁元	-10.2796
▁출장	-10.2801
휘	-10.2805
▁Y	-10.2808
▁개시	-10.2814
▁유엔	-10.2816
▁주기	-10.2818
▁사라	-10.2818
학자	-10.2835
▁구축	-10.2841
▁포위	-10.2841
▁답	-10.2847
▁학부	-10.2848
▁독립운동	-10.2859
▁제출	-10.286
▁생물	-10.2863
▁직업	-10.2868
▁관직	-10.2871
g	-10.2871
▁x	-10.2872
▁진입	-10.2887
▁광장	-10.289
▁결승	-10.2906
▁중대	-10.2907
▁%,	-10.2907
▁불상	-10.2909
▁견해	-10.2909
▁대항	-10.2916
▁재료	-10.2925
렌	-10.2931
▁전파	-10.2941
▁太	-10.2943
▁폼	-10.2946
▁세르비아	-10.2949
▁–	-10.2949
▁선전	-10.2951
▁西	-10.2967
▁무덤	-10.2968
▁아우	-10.2974
▁금속	-10.2975
승만	-10.2994
▁37	-10.2997
▁청나라	-10.3001
▁터널	-10.3003
▁듀	-10.3005
▁실질	-10.3006
▁h	-10.3022
▁나아	-10.3024
▁자살	-10.3026
▁연관	-10.3029
▁거래	-10.303
▁거기	-10.3036
▁플랫	-10.304
▁이사	-10.3051
▁베이	-10.3052
▁모드	-10.3057
모토	-10.3068
특	-10.3078
▁정체	-10.3085
▁논쟁	-10.3086
▁투쟁	-10.3086
▁델	-10.3088
▁워	-10.3096
▁수술	-10.3097
BO	-10.3097
▁지붕	-10.3103
빌	-10.3109
▁천체	-10.312
▁협	-10.3128
▁혈	-10.3128
▁장교	-10.3128
▁브랜	-10.3131
▁롯데	-10.3132
▁활발	-10.3133
▁라도	-10.3149
▁전주	-10.3153
▁파크	-10.3153
▁활성	-10.3154
▁세이	-10.3157
슬	-10.316
▁도달	-10.3164
99	-10.3172
▁합격	-10.3181
▁내전	-10.3182
몰	-10.3187
▁연재	-10.3193
▁당한	-10.3197
데스	-10.3204
검	-10.3209
▁불법	-10.321
▁현장	-10.3214
▁미터	-10.3217
름	-10.322
터리	-10.3223
▁보관	-10.3224
▁동원	-10.3226
▁손자	-10.323
▁메모리	-10.3232
▁배출	-10.3233
▁포로	-10.3236
▁성과	-10.3236
▁호텔	-10.3242
▁교차	-10.3242
▁고정	-10.3249
▁안타	-10.3249
▁실수	-10.3255
▁약속	-10.327
▁변형	-10.3276
▁縣	-10.3276
or	-10.3286
▁흥	-10.3294
ion	-10.3296
▁서기	-10.3298
▁가리	-10.3306
▁혜	-10.3307
▁국장	-10.3311
▁고유	-10.3313
▁인터뷰	-10.3318
▁高	-10.3322
▁복무	-10.3324
▁탈출	-10.3327
리오	-10.3327
▁임진	-10.3329
945	-10.3333
▁반복	-10.3333
▁공통	-10.3335
▁살인	-10.3342
▁1000	-10.3345
▁연안	-10.335
▁텐	-10.335
▁임대	-10.335
▁찍	-10.3362
▁폴리	-10.3364
▁떠났	-10.3366
▁식품	-10.3371
▁흡수	-10.3374
▁취소	-10.3376
87	-10.3377
▁화물	-10.3382
▁동작	-10.3384
▁항구	-10.3392
스키	-10.3396
▁허가	-10.3407
▁유전	-10.342
89	-10.3421
▁판서	-10.3431
▁신분	-10.3432
▁학원	-10.3434
▁의학	-10.3435
▁정비	-10.3438
▁옷	-10.3438
▁짜	-10.3439
틀	-10.3443
에트	-10.3455
습	-10.346
▁마법	-10.3464
▁전공	-10.3466
▁콘서트	-10.3468
▁보낸	-10.3495
▁개체	-10.3496
▁김영	-10.3499
▁시내	-10.35
▁800	-10.3503
▁長	-10.3504
▁데이	-10.3504
▁뿌리	-10.3508
▁주식회사	-10.3508
▁국도	-10.351
▁유나	-10.3519
▁장수	-10.3519
▁트랙	-10.3524
냈	-10.3527
▁마침	-10.3528
▁후원	-10.3528
아시아	-10.353
▁신체	-10.3536
▁포기	-10.3544
▁셋	-10.3556
▁카메라	-10.3559
▁출범	-10.3561
▁콜	-10.3568
▁사령부	-10.3569
▁조절	-10.3578
▁정지	-10.358
b	-10.3586
로스	-10.3587
▁법정	-10.3592
미터	-10.3595
▁캐	-10.3596
is	-10.3597
13	-10.3601
▁희망	-10.3606
▁이룬다	-10.3607
▁희생	-10.3608
▁벡터	-10.3609
▁주둔	-10.361
▁끼	-10.361
▁망명	-10.3611
▁보조	-10.3611
▁축제	-10.3613
▁케이	-10.3614
▁한반도	-10.3614
▁우려	-10.3617
틀러	-10.3626
▁상승	-10.3633
허	-10.3637
곤	-10.3638
▁몽	-10.3642
▁대리	-10.3643
▁제어	-10.3644
▁55	-10.3644
▁대화	-10.3659
▁버렸	-10.3662
▁블루	-10.3662
▁부사	-10.3666
▁주간	-10.3667
▁주관	-10.3674
▁생기	-10.3677
90	-10.3679
▁청주	-10.3684
97	-10.3695
▁인도네시아	-10.3702
▁수송	-10.371
▁事	-10.371
▁방지	-10.3722
섬	-10.3724
▁전신	-10.373
▁신부	-10.3741
▁입자	-10.3747
▁노벨	-10.3753
▁일찍	-10.3753
▁응용	-10.3754
▁백작	-10.3759
▁오히	-10.376
형문화재	-10.377
▁끝내	-10.3771
▁지닌	-10.3779
아버지	-10.3782
an	-10.3797
▁43	-10.3804
▁날개	-10.3808
▁여겨	-10.3811
▁반발	-10.3821
앤젤	-10.3842
릉	-10.3851
▁평등	-10.3852
▁체육	-10.3857
▁민법	-10.3859
▁참전	-10.3865
라크	-10.3881
왜	-10.3883
▁포트	-10.3886
▁창원	-10.3888
▁세리	-10.3889
▁부장	-10.3898
▁벨기에	-10.3899
▁녹색	-10.3902
▁고속	-10.3904
▁64	-10.3906
▁솔로	-10.3908
▁민중	-10.3909
▁신청	-10.3918
▁히데	-10.3919
▁출력	-10.3923
▁수집	-10.3925
▁남서	-10.3946
▁노르웨이	-10.395
▁의무	-10.3956
폴레	-10.3956
L	-10.3959
▁악기	-10.3969
▁正	-10.397
률	-10.3974
려움	-10.3977
▁모여	-10.3977
▁75	-10.398
▁42	-10.3986
▁예산	-10.3998
▁학술	-10.3998
▁무엇	-10.4
학교	-10.4002
테네	-10.4003
▁전형	-10.4007
▁해산	-10.4008
▁정복	-10.4012
겼	-10.4013
▁저서	-10.4015
창단	-10.4016
▁헨리	-10.4023
▁청구	-10.4025
▁상하	-10.4035
▁구하	-10.4036
다가	-10.4041
▁成	-10.4047
▁프로듀서	-10.405
▁엄청	-10.4052
완	-10.4057
▁삼국	-10.406
앙	-10.406
▁인종	-10.4063
▁작사	-10.4071
▁一	-10.408
▁반도	-10.4083
▁명명	-10.4089
▁~)	-10.4102
▁마이클	-10.4104
▁압력	-10.4107
▁절차	-10.4111
▁경로	-10.4113
수록	-10.4118
▁처형	-10.412
▁김정	-10.4124
▁반영	-10.4124
▁도구	-10.4125
▁서원	-10.4125
▁이온	-10.4128
▁성분	-10.4134
書	-10.4139
쇼	-10.414
▁활	-10.414
▁갈등	-10.4153
▁떨어	-10.4155
▁넷	-10.4159
▁교환	-10.4159
▁쌀	-10.4161
▁집권	-10.4164
▁태종	-10.4167
곽	-10.4189
▁法	-10.4199
▁학습	-10.4205
▁나타났	-10.4206
▁트레이드	-10.4206
▁유니	-10.4207
▁道	-10.4215
▁문장	-10.4216
▁타격	-10.4217
▁체코	-10.4221
▁마르	-10.4225
▁닌	-10.4242
▁갑	-10.4246
칸	-10.4255
▁타이완	-10.4255
▁주택	-10.4259
▁남겼	-10.426
▁자라	-10.4265
렬	-10.4269
▁유물	-10.4271
▁순환	-10.4272
▁인류	-10.4277
▁to	-10.4278
▁f	-10.4284
▁통상	-10.4288
끔	-10.4307
▁전원	-10.4312
▁농민	-10.4313
▁홍보	-10.4316
▁생존	-10.4318
▁대장	-10.4329
▁영화제	-10.4331
▁기호	-10.4333
▁41	-10.4343
춘	-10.436
▁수영	-10.436
▁仁	-10.4365
▁정기	-10.4371
▁자본	-10.4372
▁교구	-10.4375
▁농구	-10.4379
▁임의	-10.4382
▁최소	-10.4382
▁맞이	-10.4391
▁부임	-10.4395
▁께	-10.4412
▁훈	-10.4413
▁데이비드	-10.4413
▁고용	-10.4415
▁장악	-10.4425
▁뛰어	-10.443
▁일으켰	-10.4432
▁펜	-10.444
▁레드	-10.444
▁처분	-10.4443
▁오토	-10.445
▁등지	-10.4453
國	-10.4455
▁멜	-10.4455
▁카르	-10.4459
um	-10.446
▁효소	-10.4463
▁세인트	-10.4464
▁e	-10.4464
▁대공	-10.4465
▁분쟁	-10.4466
▁숙종	-10.4469
▁문헌	-10.4472
▁광복	-10.4475
▁新	-10.4478
▁대략	-10.448
▁서버	-10.4483
▁특별시	-10.449
▁최다	-10.4492
▁일치	-10.4493
▁府	-10.4494
▁나갔	-10.4501
넷	-10.4509
▁스토리	-10.4513
▁인가	-10.4514
▁아파트	-10.4517
▁석유	-10.4525
▁石	-10.4528
▁끝나	-10.453
▁셰	-10.4534
▁심판	-10.4535
▁화산	-10.4546
▁바닥	-10.4554
어들	-10.4562
잉	-10.4565
▁유형	-10.4568
▁국제공항	-10.457
▁|	-10.4571
저우	-10.4577
▁좌우	-10.4578
▁처벌	-10.4578
▁핀	-10.4582
▁이제	-10.4584
子	-10.4584
▁가을	-10.4584
▁써	-10.4586
▁순간	-10.4587
▁00	-10.459
▁영지	-10.4592
▁관점	-10.4597
▁서구	-10.4598
ia	-10.4602
▁세워	-10.4604
▁서명	-10.4616
▁전면	-10.4622
▁기체	-10.4625
▁늦	-10.4626
이다	-10.4631
▁재배	-10.4632
▁접한	-10.464
▁선박	-10.4642
▁현지	-10.4646
▁明	-10.4646
▁심사	-10.4655
▁인공	-10.4656
▁기도	-10.4657
▁자녀	-10.4657
▁모임	-10.4658
▁아카데미	-10.4672
▁끊	-10.4676
▁조작	-10.4676
▁뽑	-10.4677
▁오랫	-10.4678
▁사운드	-10.4678
략	-10.468
▁빙	-10.4687
하라	-10.4697
▁영조	-10.4701
le	-10.4707
▁모형	-10.4707
▁수도원	-10.4709
▁주인	-10.4713
▁정수	-10.4713
▁읍	-10.4713
▁향해	-10.4714
▁일대	-10.4715
▁구성원	-10.4722
/	-10.4728
무늬	-10.473
륨	-10.473
염	-10.4731
▁끝난	-10.4735
맥	-10.4735
▁김일	-10.4741
▁멀	-10.4749
▁郡	-10.475
▁후속	-10.4755
▁계통	-10.4757
▁승부	-10.4764
z	-10.4771
▁빨	-10.4773
▁위반	-10.4777
T	-10.4789
▁싸움	-10.4804
▁로버트	-10.4819
▁에선	-10.4825
탑	-10.483
▁라이트	-10.4832
▁변환	-10.4846
젠	-10.4847
▁제일	-10.4854
▁국정	-10.486
ic	-10.4862
▁600	-10.4867
▁휴	-10.4868
▁상위	-10.4878
▁총독	-10.4885
▁요시	-10.4891
▁보험	-10.4898
▁DNA	-10.4899
▁천연	-10.491
▁실력	-10.4918
▁만주	-10.492
▁44	-10.4936
먼트	-10.4943
훈장	-10.4944
▁성향	-10.4949
000	-10.4949
里	-10.495
▁오페라	-10.4951
▁박정희	-10.4951
▁선교	-10.4951
▁침략	-10.4951
▁프리미어	-10.4951
▁천주교	-10.4955
▁회담	-10.4957
▁타임	-10.4959
홍	-10.4962
▁武	-10.4973
▁리더	-10.4973
▁급제	-10.4976
▁고속도로	-10.4994
▁수업	-10.4996
▁수익	-10.4997
▁가담	-10.5001
▁주최	-10.5006
▁바이러스	-10.501
▁뮤지	-10.5011
돈	-10.5013
▁심리	-10.5013
▁분할	-10.5016
▁당초	-10.5029
▁부부	-10.5033
▁대량	-10.5033
▁찰스	-10.5037
▁속한	-10.5038
▁줄기	-10.5042
▁혼인	-10.5043
▁진보	-10.5048
▁d	-10.5057
u	-10.506
깝	-10.5062
▁수소	-10.5062
▁시카고	-10.5062
▁연예	-10.5067
배우	-10.5071
▁codi	-10.5076
▁일본어	-10.5079
▁진주	-10.51
N	-10.51
▁보물	-10.5109
▁크로아티아	-10.5118
▁반드시	-10.5118
▁둘째	-10.5119
▁분열	-10.5121
유럽	-10.5124
▁단독	-10.5125
▁지급	-10.5128
하여	-10.5137
켓	-10.5144
02	-10.5153
릿	-10.5159
▁얼	-10.516
컴	-10.5172
▁DVD	-10.5174
▁알렉산더	-10.5175
▁벌였	-10.5176
▁구원	-10.5177
▁화재	-10.5178
▁평론	-10.5183
▁황금	-10.5186
▁탄소	-10.5188
▁언제	-10.5194
▁폭탄	-10.5195
986	-10.5195
▁겐	-10.5196
▁로켓	-10.5197
▁단편	-10.5207
▁가진다	-10.5222
▁꼭	-10.5223
▁신인	-10.5225
▁川	-10.5228
다리	-10.5229
城	-10.5236
▁탈락	-10.5236
▁노출	-10.5239
▁태조	-10.5241
▁출입	-10.5251
▁후지	-10.5266
▁물체	-10.5276
▁타자	-10.5279
▁무시	-10.5288
▁완료	-10.5292
▁방정식	-10.5292
▁65	-10.5298
▁프라	-10.5299
▁앉	-10.53
▁각본	-10.5307
▁컴	-10.5324
▁기온	-10.5324
▁정교	-10.5328
▁義	-10.533
▁공정	-10.5335
▁진정	-10.534
▁콩	-10.5341
▁타워	-10.5352
▁저작	-10.5353
▁참조	-10.5355
▁無	-10.5358
▁학과	-10.5361
▁춘	-10.5362
▁世	-10.5377
▁도와	-10.5385
▁화성	-10.5386
▁日	-10.5393
▁47	-10.5394
▁복지	-10.5395
▁붙여	-10.5396
▁벗어	-10.5397
▁멘	-10.5401
▁나타난다	-10.5402
▁바깥	-10.5404
▁피아노	-10.5405
▁충격	-10.5406
▁포인트	-10.541
▁테마	-10.542
▁매장	-10.5422
▁목소	-10.5428
▁천만	-10.5428
▁분명	-10.5433
▁수석	-10.5436
f	-10.5438
▁루이스	-10.5442
▁여단	-10.5444
롱	-10.5462
▁흐름	-10.5463
▁자식	-10.5482
▁명확	-10.5483
▁위상	-10.5496
▁경제학	-10.5504
▁헬	-10.551
▁방사	-10.5515
▁가공	-10.5516
▁어려운	-10.5521
▁낭	-10.5522
▁현역	-10.5522
▁휴대	-10.5526
▁추천	-10.5527
▁여야	-10.5529
▁영주	-10.553
▁司	-10.5534
▁사제	-10.554
닝	-10.5541
▁종사	-10.5543
▁사도	-10.5548
▁바위	-10.5551
▁校	-10.5564
▁46	-10.5566
▁브레	-10.5569
▁페르시아	-10.558
▁子	-10.5586
▁빠	-10.5586
▁개칭	-10.5588
▁국토	-10.5593
▁적절	-10.5594
▁옹	-10.5599
▁놀이	-10.5599
▁光	-10.56
▁베이스	-10.5603
일본	-10.5604
▁北	-10.5614
▁김대	-10.5614
▁페르	-10.5617
▁l	-10.5624
981	-10.5628
▁미국인	-10.5631
▁까	-10.5634
욱	-10.5635
▁田	-10.5636
▁AFC	-10.5639
▁신뢰	-10.5641
▁근본	-10.5644
▁변수	-10.5647
▁닛	-10.5651
주민	-10.5658
el	-10.5658
▁소득	-10.5659
▁51	-10.5666
▁수요	-10.5668
▁사형	-10.5674
▁神	-10.568
▁밝혀	-10.5683
▁인용	-10.5684
▁부하	-10.5686
혔	-10.5692
▁묻	-10.5693
▁확률	-10.5699
▁돌아와	-10.5701
▁질병	-10.5702
▁간행	-10.5723
▁洞	-10.5723
▁聖	-10.5723
의정	-10.5728
▁순수	-10.5729
▁지형	-10.5734
▁개조	-10.5753
회사	-10.5756
▁홋카이도	-10.5758
▁학살	-10.576
▁생물학	-10.5762
▁편찬	-10.5763
학생	-10.5763
▁징역	-10.5763
▁갈색	-10.577
▁재건	-10.5775
▁로드	-10.5783
M	-10.5785
▁예비	-10.5785
▁우스	-10.5786
▁한계	-10.5786
▁입법	-10.5791
▁원형	-10.5792
▁유행	-10.5795
▁아라	-10.5798
▁上	-10.5801
병대	-10.5804
▁정하	-10.5806
▁에드워드	-10.5818
▁분위	-10.5818
▁이른다	-10.5821
▁아이돌	-10.5823
킹	-10.5825
)	-10.5829
▁구현	-10.583
979	-10.5831
▁증상	-10.5836
▁생긴	-10.5842
닌	-10.5847
▁유기	-10.5854
▁일식	-10.586
▁나타낸다	-10.5862
비아	-10.5862
▁션	-10.5864
▁동명	-10.587
▁영웅	-10.5875
▁하위	-10.5875
▁페이	-10.5875
▁여왕	-10.5877
▁후쿠오카	-10.5879
▁불가리아	-10.5879
▁글자	-10.5885
▁리가	-10.5886
▁올려	-10.5889
▁으려	-10.5889
▁인접	-10.5898
▁조항	-10.5908
▁Me	-10.5908
▁엑스	-10.591
▁호주	-10.5918
▁해양	-10.5922
▁신자	-10.5939
▁공로	-10.5941
▁>,	-10.5944
▁멀리	-10.5951
▁통계	-10.5954
▁탐사	-10.5955
▁×	-10.5957
▁동서	-10.5959
65	-10.5961
▁방해	-10.5962
▁水	-10.597
▁히로	-10.5977
응	-10.5982
▁기둥	-10.5984
▁곽	-10.5989
▁한다면	-10.5991
▁놀	-10.5992
▁감시	-10.5993
▁루마니아	-10.6001
▁균형	-10.6002
카와	-10.6006
▁디스크	-10.6011
▁폭격	-10.6013
▁1926	-10.6013
▁히트	-10.6018
▁실현	-10.6019
▁宗	-10.602
▁이닝	-10.6023
▁왕실	-10.6025
은행	-10.6028
ch	-10.6032
學	-10.6036
▁비서	-10.6058
▁유한	-10.606
▁52	-10.6062
▁朴	-10.6064
▁입니다	-10.6064
▁95	-10.6066
▁아웃	-10.6068
▁패션	-10.6074
▁나온다	-10.6075
총독	-10.6083
무라	-10.6085
갔	-10.609
▁묵	-10.6092
▁De	-10.6095
한다	-10.6098
▁54	-10.6099
▁문명	-10.6101
쳐	-10.6116
우드	-10.6119
▁콘스탄티노	-10.6125
▁빌딩	-10.6126
▁로봇	-10.6131
▁침입	-10.6131
▁인디언	-10.6132
▁사정	-10.6137
▁황후	-10.6137
▁리스	-10.6139
▁참고	-10.6141
▁한자	-10.6142
▁海	-10.6143
짐	-10.6145
▁빠져	-10.6146
▁동기	-10.615
▁정차	-10.6151
▁축구단	-10.6165
▁아스	-10.6176
▁부산광역시	-10.6188
▁파이	-10.6191
▁진영	-10.6197
▁관여	-10.6197
▁감각	-10.6199
▁확립	-10.62
▁하우스	-10.62
셜	-10.6202
▁닉	-10.6214
▁저지	-10.6218
▁동방	-10.6227
▁늘어	-10.6227
▁原	-10.6239
▁감사	-10.6254
엘	-10.6255
▁독재	-10.6257
▁밝혀졌	-10.6258
▁재학	-10.6264
▁고양이	-10.6266
▁베네	-10.6275
▁복수	-10.628
▁본다	-10.6285
▁임기	-10.6289
▁롤	-10.6295
▁여섯	-10.6314
▁교리	-10.6315
▁브라운	-10.6318
▁쓸	-10.632
軍	-10.6321
짜	-10.6321
▁여론	-10.6323
의원	-10.6324
▁리버	-10.6325
▁대책	-10.6331
▁보살	-10.6335
▁for	-10.6336
긴	-10.6338
소리	-10.6338
힌	-10.6339
▁유통	-10.6339
▁아동	-10.6341
▁그리스어	-10.6344
▁〉(	-10.6349
▁권위	-10.6353
룬	-10.6354
▁불만	-10.6355
▁무한	-10.6357
▁700	-10.636
▁호수	-10.636
▁점수	-10.6361
덴	-10.6372
▁왕자	-10.6374
▁야마	-10.6375
▁먹이	-10.6377
▁가설	-10.6382
▁저술	-10.6383
▁어깨	-10.6383
▁추방	-10.6392
▁계층	-10.6393
▁갑자	-10.6393
▁개막	-10.6398
▁마사	-10.6399
▁웨이	-10.6401
▁녀	-10.6401
▁국기	-10.6402
▁아이디	-10.6405
▁이혼	-10.6406
▁120	-10.6415
▁당국	-10.6416
▁중력	-10.6421
▁택	-10.6431
20	-10.6436
▁레스	-10.644
▁미드필더	-10.6441
▁마무리	-10.6441
네스	-10.6442
▁한국인	-10.6445
▁일상	-10.6454
루스	-10.6454
▁돌아왔	-10.6455
▁중기	-10.6459
▁시조	-10.646
▁춤	-10.6465
▁동양	-10.6467
▁스테이	-10.6467
▁아나	-10.6468
9	-10.6471
▁범주	-10.6471
▁고급	-10.6476
유산	-10.6476
섭	-10.6486
▁의존	-10.649
▁매치	-10.6498
▁FA	-10.6499
▁나뉜다	-10.6506
▁벼슬	-10.6506
▁아름다운	-10.6506
▁치렀	-10.6506
▁브라	-10.651
▁사냥	-10.6511
▁프로세서	-10.6512
▁이주	-10.6512
▁前	-10.6514
▁생태	-10.6515
▁가톨릭교	-10.6517
▁확산	-10.6518
▁바둑	-10.652
▁종로	-10.6534
▁보건	-10.6534
혹	-10.654
▁방위	-10.654
머리	-10.6541
▁후계	-10.6542
▁피부	-10.6542
▁발음	-10.6558
▁58	-10.6567
尹	-10.6571
▁났	-10.6574
▁주석	-10.658
▁세자	-10.658
▁가져	-10.6581
▁소형	-10.659
라비아	-10.6602
▁軍	-10.6611
▁위대	-10.6612
누	-10.6613
▁SS	-10.6615
▁백만	-10.6619
▁당해	-10.6622
▁랜드	-10.6624
▁거치	-10.6625
▁모바일	-10.6636
▁폐쇄	-10.6636
▁="	-10.6637
▁53	-10.6638
제국	-10.6639
▁행렬	-10.6648
▁페이지	-10.6651
▁JR	-10.6652
▁심지	-10.6653
▁모토	-10.6655
▁김종	-10.6657
▁院	-10.666
톤	-10.666
▁장남	-10.6669
▁백인	-10.6676
▁졌으며	-10.6678
▁상주	-10.6682
▁공중	-10.6684
▁인생	-10.6688
▁조카	-10.6688
▁클래식	-10.6702
▁주식	-10.6703
▁돕	-10.6706
큐	-10.6706
▁보상	-10.6706
▁테스트	-10.6714
▁Le	-10.6716
▁참모	-10.6717
▁개방	-10.672
싱	-10.6727
▁프랑스어	-10.6728
▁진학	-10.6745
▁기에	-10.6746
리히	-10.6747
▁창작	-10.6758
▁음성	-10.6762
성군	-10.6764
▁항공사	-10.6766
趙	-10.6768
컫	-10.6768
▁전동차	-10.6768
▁헤이	-10.6768
▁1900	-10.6769
▁조차	-10.6769
▁개신교	-10.6769
▁동남	-10.677
▁속해	-10.6777
▁풍속	-10.678
▁白	-10.6782
▁무료	-10.6782
▁일시	-10.6784
▁자극	-10.6785
▁철거	-10.6787
▁총회	-10.6787
▁남극	-10.6792
털	-10.6794
▁뼈	-10.6794
▁디스	-10.6794
빛	-10.6799
▁힐	-10.6802
▁통화	-10.6802
▁백성	-10.6804
▁십자	-10.6804
▁龍	-10.681
▁메리	-10.6815
탕	-10.6818
무실	-10.6826
시마	-10.6828
▁인증	-10.6829
▁주력	-10.6834
▁혁신	-10.6835
▁액션	-10.6837
2	-10.6838
▁총장	-10.6839
▁德	-10.684
▁설득	-10.684
▁개성	-10.6841
▁검색	-10.6843
▁구매	-10.6846
▁발명	-10.6848
▁엠	-10.6849
▁법안	-10.6854
▁1912	-10.6857
▁메이지	-10.6857
▁가슴	-10.6859
▁도덕	-10.6863
▁정조	-10.6868
므로	-10.687
▁타이거	-10.687
▁ᆞ	-10.6889
▁작동	-10.689
▁국군	-10.6897
▁아이스	-10.6898
▁보여준다	-10.6903
▁양산	-10.6903
▁검토	-10.691
▁옮	-10.6915
▁유역	-10.6921
▁56	-10.6923
▁흘러	-10.6928
▁주소	-10.693
▁크리스	-10.6934
▁웨	-10.6939
▁따로	-10.6939
▁한글	-10.6944
▁총재	-10.6946
▁음악가	-10.6947
▁조종	-10.6951
▁사기	-10.6951
세포	-10.6952
낼	-10.6956
리스	-10.696
▁사원	-10.6964
▁합쳐	-10.6969
▁프레	-10.6971
▁쿠데	-10.6973
▁그래픽	-10.6973
▁니시	-10.6973
▁방언	-10.6979
▁조지아	-10.6982
▁레알	-10.6991
▁전북	-10.6997
▁목성	-10.7002
람	-10.7005
使	-10.7007
푸	-10.701
▁상원	-10.701
▁꾸	-10.7017
▁밥	-10.7018
라스	-10.7022
▁시마	-10.703
▁저녁	-10.7037
▁분해	-10.7038
▁나섰	-10.7039
▁쇠	-10.7039
▁코어	-10.7043
▁실천	-10.7044
▁니콜라	-10.705
▁궁전	-10.7052
▁부담	-10.7053
▁성남	-10.7059
▁일체	-10.7063
▁서술	-10.7064
▁골든	-10.7068
▁특별히	-10.7068
▁기소	-10.7073
▁전송	-10.7076
983	-10.7077
▁수리	-10.7098
▁세부	-10.7102
▁왕후	-10.7106
TV	-10.7116
▁포스	-10.7118
▁베스트	-10.7119
▁부친	-10.712
▁연락	-10.7121
▁벌어진	-10.7123
세이	-10.7127
▁첨	-10.7129
▁항해	-10.7134
▁성서	-10.7135
▁코파	-10.714
▁떠	-10.7143
▁미쓰	-10.7149
▁아키	-10.7152
▁간부	-10.7158
▁특이	-10.7159
▁받아들	-10.7162
▁계곡	-10.7163
▁롱	-10.7165
▁스타디움	-10.7175
▁법학	-10.7176
▁성직자	-10.7179
▁걸친	-10.7182
▁유배	-10.7187
▁재능	-10.719
▁나카	-10.719
▁사자	-10.7193
▁62	-10.7196
▁복원	-10.7198
아메리카	-10.7212
▁가상	-10.7218
왕비	-10.7219
▁다운	-10.7222
▁오류	-10.7229
▁의혹	-10.7233
▁발간	-10.7238
▁한정	-10.7239
▁경남	-10.7245
▁생겼	-10.7247
▁연구원	-10.7247
▁연습	-10.7248
▁여겨진다	-10.7252
첩	-10.7253
▁원자력	-10.7254
베네치아	-10.7257
▁글로	-10.7266
▁누리	-10.7269
▁신사	-10.7279
▁곱	-10.7283
▁49	-10.7285
깔	-10.7287
▁사촌	-10.7289
▁’(	-10.73
▁고리	-10.7307
0	-10.7309
▁화합물	-10.7315
▁스마트	-10.7316
▁타원	-10.7316
▁소멸	-10.732
▁마시	-10.7321
▁노동당	-10.7325
G	-10.7325
▁全	-10.7325
혁	-10.733
▁법무	-10.7335
▁1927	-10.7336
▁당대	-10.734
▁소비자	-10.7354
▁비상	-10.7354
▁선임	-10.7361
▁빼앗	-10.7361
▁무사	-10.7365
▁안동	-10.7365
필드	-10.7372
▁가와	-10.738
▁테이	-10.7383
▁싱가포르	-10.7385
▁닥터	-10.7385
▁천문학	-10.7385
징	-10.7388
이센	-10.7392
▁지사	-10.7395
▁타운	-10.7396
흐	-10.7397
▁노트	-10.7397
의회	-10.7401
▁매일	-10.7405
웨어	-10.7408
▁君	-10.7417
▁학사	-10.7419
싼	-10.7428
▁기기	-10.7429
▁마저	-10.7434
▁암호	-10.7441
▁찬성	-10.7441
▁메달	-10.7443
▁평면	-10.7448
▁시사	-10.7452
▁데이터베이스	-10.7456
▁OS	-10.7457
▁→	-10.7465
둥	-10.7469
▁소문	-10.7475
▁노부	-10.7482
▁마루	-10.7486
찰	-10.7493
핑	-10.7495
슈타인	-10.7496
팀	-10.7499
▁대우	-10.7501
아프리카	-10.7502
▁부위	-10.7506
▁어도	-10.7507
▁막대	-10.7508
▁조상	-10.7512
▁받아들여	-10.7516
▁공신	-10.7519
▁도쿠	-10.7522
▁사마	-10.7523
▁빚	-10.7523
▁거듭	-10.7527
劉	-10.7527
▁일으켜	-10.7531
▁기관차	-10.7544
▁72	-10.7549
▁불안	-10.7557
▁댄스	-10.7559
▁노스	-10.7566
셀	-10.7567
宗	-10.7577
12	-10.7577
▁소위	-10.7589
▁韓	-10.7595
▁카라	-10.7595
▁가요	-10.7596
▁언덕	-10.7602
▁중지	-10.7605
▁행복	-10.7606
85	-10.7608
▁비평	-10.7615
딘	-10.762
▁플라	-10.7622
▁해리	-10.7624
▁인쇄	-10.7626
▁펠	-10.7626
빠	-10.7627
man	-10.7629
▁호소	-10.7636
납	-10.7643
▁빌보	-10.7645
려져	-10.7647
▁경고	-10.7648
웠	-10.7651
▁人	-10.7652
▁都	-10.7652
▁동경	-10.7658
▁In	-10.7663
▁트라	-10.7667
▁느낌	-10.7671
▁대법원	-10.7672
▁느냐	-10.7672
▁드래프트	-10.7673
▁락	-10.7674
▁운송	-10.7675
▁영혼	-10.7676
▁바이에른	-10.7676
▁忠	-10.768
▁숭	-10.7681
▁평안	-10.7683
▁입사	-10.7684
▁합동	-10.7686
▁會	-10.7687
▁스테이션	-10.769
▁애플	-10.7691
▁동해	-10.7695
▁慶	-10.7695
▁둘러	-10.7696
▁昌	-10.7702
▁빵	-10.7702
▁My	-10.7707
▁문법	-10.771
ity	-10.7711
▁경사	-10.7734
▁전한	-10.7735
▁정류장	-10.7746
▁닮	-10.7746
래프트	-10.7746
▁배웠	-10.7747
▁환승	-10.7748
x	-10.7755
▁북극	-10.7755
▁所	-10.7756
▁정면	-10.7759
조선	-10.776
▁상인	-10.7761
▁역학	-10.7764
▁데스	-10.7766
▁고문	-10.7769
▁사과	-10.7777
▁소집	-10.7782
▁질문	-10.7785
▁질서	-10.7785
▁심장	-10.7792
▁유치	-10.7793
▁선물	-10.7797
▁자랑	-10.781
▁플로리다	-10.7818
▁대왕	-10.7821
▁커피	-10.7823
▁달라	-10.7823
▁興	-10.7826
▁미술관	-10.7828
▁거느	-10.7831
쟁	-10.7833
▁신장	-10.7834
▁후임	-10.7836
▁빌리	-10.784
▁k	-10.7845
우리	-10.7846
이스	-10.7849
▁전적	-10.7859
72	-10.7866
▁영원	-10.7872
▁윗	-10.788
클	-10.7885
▁펼쳐	-10.7886
▁고객	-10.7887
▁요코하마	-10.7892
▁관객	-10.7899
▁급격	-10.7901
▁일곱	-10.7903
▁사찰	-10.7903
해진다	-10.791
▁화폐	-10.791
▁디비	-10.7919
▁아메리칸	-10.7922
▁포르	-10.7926
▁사양	-10.7927
▁家	-10.7935
▁63	-10.7936
道	-10.7946
닛	-10.7949
▁구로	-10.7951
▁개량	-10.7955
크린	-10.7957
쉬	-10.7958
바라	-10.796
▁개명	-10.796
▁레벨	-10.7967
▁빅토리아	-10.7968
▁구사	-10.797
▁라이프	-10.7974
로드	-10.7985
▁메탈	-10.7986
▁FM	-10.7986
셔	-10.7989
래밍	-10.7996
▁프로그	-10.8
▁박스	-10.8001
▁재임	-10.8003
▁렀다	-10.8004
▁원수	-10.8007
▁사유	-10.8008
▁루스	-10.8009
사임	-10.8013
킨	-10.8014
▁불화	-10.8018
멘	-10.8025
겨	-10.8025
▁둘러싸	-10.8029
▁냉	-10.8033
세대	-10.8034
▁HD	-10.8037
▁옮겼	-10.8042
▁스탈린	-10.8042
▁잭슨	-10.8043
▁완벽	-10.8044
카드	-10.8047
▁화이트	-10.8049
77	-10.805
▁예외	-10.8051
▁무용	-10.8053
사키	-10.8056
▁최후	-10.8061
▁파워	-10.8063
▁독일어	-10.8065
▁결론	-10.8066
어오	-10.8067
▁윙	-10.8067
▁튜	-10.8072
▁세워졌	-10.8072
▁원주	-10.808
▁밀려	-10.8081
▁필드	-10.8086
▁La	-10.8088
▁누르	-10.8088
▁도전	-10.8088
▁보스	-10.8091
▁선포	-10.8094
▁""	-10.8094
랐	-10.8096
▁재개	-10.8099
숨	-10.8103
▁혼자	-10.8104
▁룸	-10.8104
냥	-10.811
나가	-10.811
▁프리드리히	-10.8118
▁내셔널	-10.8119
▁쓰였	-10.8123
▁’,	-10.8125
▁넘어	-10.8125
▁민속	-10.8125
▁팔레	-10.8127
▁축소	-10.8128
물건	-10.8132
▁광범	-10.8133
▁河	-10.8136
▁친정	-10.8136
▁제사	-10.8139
▁동지	-10.8145
▁발레	-10.8149
▁톰	-10.8152
▁달려	-10.8152
▁포항	-10.8157
▁마일	-10.816
▁상실	-10.8166
▁톱	-10.8169
▁조선인	-10.8175
事	-10.818
▁대결	-10.8182
▁강남	-10.8193
▁혼합	-10.8198
▁감옥	-10.8198
▁주니어	-10.8199
O	-10.82
▁좌석	-10.8201
▁웨스트	-10.8202
▁화석	-10.8203
▁전당	-10.8208
▁치르	-10.8218
잔	-10.8224
▁투구	-10.8235
▁크로스	-10.8236
▁본토	-10.8237
▁해발	-10.8246
▁개별	-10.8253
▁텔	-10.8258
벤트	-10.8261
▁저자	-10.8264
▁힘들	-10.8277
▁집필	-10.8279
▁수치	-10.8279
▁수직	-10.8283
▁영양	-10.829
▁홀로	-10.8291
▁쳐	-10.8294
▁산지	-10.8298
▁모음	-10.8299
▁재판소	-10.8306
▁용인	-10.8313
▁결의	-10.8314
▁더블	-10.8317
▁전승	-10.8331
it	-10.8337
▁쓴다	-10.8337
▁의심	-10.8338
▁진실	-10.8339
▁틴	-10.8339
▁85	-10.834
▁복사	-10.834
▁동화	-10.8343
▁뚜렷	-10.8348
▁박근혜	-10.8348
▁생겨	-10.8348
▁우크라	-10.8349
▁주문	-10.835
랄	-10.835
▁엄격	-10.8351
▁250	-10.8353
▁랩	-10.8367
▁수십	-10.8369
▁켄	-10.8372
▁창당	-10.8373
▁세트	-10.8374
▁으니	-10.8377
▁부속	-10.8377
른바	-10.8379
각형	-10.8384
▁부서	-10.8385
▁漢	-10.8389
▁라우	-10.8389
팔	-10.8391
▁노리	-10.8403
▁IC	-10.8412
▁이중	-10.8419
▁중동	-10.8423
▁부호	-10.8425
▁바르셀로나	-10.8426
▁챔피언십	-10.8427
▁접촉	-10.8427
▁구상	-10.8427
▁쏘	-10.8434
▁지리	-10.8434
▁깃	-10.8442
▁필리	-10.8443
▁사면	-10.8447
▁스미스	-10.8449
▁배포	-10.8451
▁손실	-10.8453
▁차단	-10.8454
냐	-10.8454
흥	-10.8456
줄	-10.8457
▁필라	-10.8462
王	-10.8468
콘	-10.8471
▁이민	-10.8473
사관	-10.8476
몬	-10.8484
▁가르	-10.8491
▁政	-10.8492
▁균	-10.8496
탓	-10.8505
▁추기경	-10.8505
▁흙	-10.8506
▁시가	-10.8508
▁원조	-10.8508
▁아트	-10.851
▁林	-10.8514
▁後	-10.8514
▁도요	-10.8522
▁일어난다	-10.8529
참	-10.8542
▁실업	-10.8545
▁골드	-10.8545
▁190	-10.8556
▁덮	-10.8557
▁중종	-10.8566
▁새겨	-10.8578
▁시내버스	-10.8585
▁돌려	-10.8589
▁후퇴	-10.8591
▁유효	-10.8593
▁동북	-10.8594
▁혜성	-10.8596
▁좌상	-10.8601
▁원시	-10.8604
▁형상	-10.8606
▁자산	-10.8606
▁독점	-10.8606
ly	-10.8608
▁淸	-10.861
▁99	-10.861
▁98	-10.8613
▁천안	-10.8615
▁本	-10.8615
▁보편	-10.8618
디아	-10.863
▁하드	-10.8631
▁자매	-10.8636
렉	-10.8637
킬	-10.8641
▁꼽	-10.8646
▁하여	-10.8649
힐	-10.8658
▁의장	-10.866
▁알바니아	-10.8665
▁턴	-10.8672
▁개찰	-10.8677
▁%)	-10.868
▁기병	-10.868
▁브리	-10.8681
▁라스	-10.8684
▁마주	-10.8684
▁기울	-10.8686
레이션	-10.8686
▁구름	-10.8687
륙	-10.8691
▁시신	-10.8692
▁미스	-10.8692
▁간격	-10.8695
▁그래프	-10.8695
고기	-10.8707
▁Q	-10.8708
니스	-10.8708
스크	-10.8719
으	-10.8723
▁분화	-10.8723
▁자국	-10.8725
▁베어	-10.8727
릭스	-10.8731
▁간다	-10.8731
시오	-10.8732
짓	-10.8734
어도	-10.8737
▁음모	-10.8737
▁조문	-10.874
광역시	-10.874
崔	-10.8745
▁남아프리카	-10.8751
▁곡선	-10.8751
▁가난	-10.8753
▁그만	-10.8757
▁줄여	-10.8758
▁순조	-10.8762
▁좋아	-10.8763
▁1905	-10.8763
▁국적	-10.8764
▁관중	-10.8771
▁조명	-10.8771
▁개척	-10.8774
▁우루	-10.8775
é	-10.8776
▁회색	-10.8781
러스	-10.8786
▁페리	-10.8788
▁부유	-10.8795
▁전투기	-10.8802
p	-10.8802
▁선거구	-10.8803
룰	-10.8822
▁흉	-10.8827
▁기하학	-10.8828
▁대승	-10.8829
▁협의회	-10.8829
▁폭풍	-10.8829
체스터	-10.8831
91	-10.8833
랭킹	-10.8836
▁덜	-10.8837
▁댄	-10.8837
▁뤼	-10.8846
27	-10.885
▁식량	-10.885
▁요금	-10.885
D	-10.8856
▁쿠바	-10.8857
▁연호	-10.8858
▁사신	-10.886
▁스카이	-10.8861
ne	-10.8866
▁時	-10.8866
▁소화	-10.8868
ation	-10.8868
▁和	-10.8873
▁정통	-10.8874
워	-10.8883
▁재무	-10.8883
웨이	-10.8885
▁큐	-10.8886
▁해협	-10.8893
▁김성	-10.8896
▁島	-10.8898
▁장사	-10.89
▁부지	-10.8906
文	-10.8907
▁진단	-10.8907
눅	-10.8908
▁뮌헨	-10.8908
▁1909	-10.8909
▁새벽	-10.8914
▁57	-10.8914
▁코너	-10.8916
▁블록	-10.8916
▁피터	-10.8921
▁잭	-10.8923
▁구장	-10.8929
▁書	-10.893
텔	-10.8932
▁모순	-10.8933
▁파티	-10.8935
▁도망	-10.8941
▁미리	-10.8948
몽	-10.8957
▁무인	-10.8971
▁기압	-10.8974
ry	-10.8987
대부	-10.899
▁긍정	-10.8992
▁파운드	-10.8992
평균	-10.8993
▁거짓	-10.8996
▁동굴	-10.9002
▁물러	-10.9002
"	-10.9008
▁베리	-10.9013
▁물려	-10.9013
▁딘	-10.9016
▁상하이	-10.9016
▁당원	-10.9017
▁다소	-10.9017
▁급행	-10.9019
▁판정	-10.9021
▁양주	-10.9023
▁연산	-10.9025
▁상속	-10.9029
▁구멍	-10.9031
▁드리	-10.9031
▁손해	-10.9032
▁픽	-10.9035
▁돔	-10.9037
미야	-10.9037
▁선형	-10.9038
▁160	-10.904
누스	-10.9042
▁샘	-10.9044
투스	-10.9049
다수	-10.9054
▁단종	-10.9054
▁타인	-10.9056
▁유아	-10.9059
▁아인	-10.9059
빙	-10.9069
잎	-10.9074
▁교향곡	-10.9074
▁지중해	-10.9075
▁습격	-10.9077
▁조화	-10.9083
▁십자가	-10.9088
베르	-10.9088
▁수비수	-10.9089
▁초청	-10.9099
▁칭하	-10.9106
레이드	-10.911
▁교원	-10.9115
▁유산	-10.9115
▁최우	-10.9116
다른	-10.9116
▁호남	-10.9118
▁도모	-10.9121
▁퀸	-10.9123
무네	-10.9124
▁Be	-10.9132
▁마감	-10.9132
▁朝	-10.9132
입구	-10.9133
▁타입	-10.9143
▁안내	-10.9158
▁아마추어	-10.9158
▁인터페이스	-10.9158
▁티베트	-10.9159
▁삽입	-10.9159
▁봉해졌	-10.916
陽	-10.9161
▁그랜드	-10.9161
▁윈도	-10.9163
▁남아메리카	-10.9164
▁시트	-10.9165
▁산화	-10.9165
▁특급	-10.9167
▁영광	-10.9168
▁철저	-10.9171
베이	-10.9173
▁설비	-10.9176
▁77	-10.9179
▁운명	-10.918
▁릭	-10.9183
▁핑	-10.9184
▁You	-10.9186
▁善	-10.9188
ar	-10.9192
▁고도	-10.9196
▁使	-10.9196
▁강도	-10.9198
▁콜롬비	-10.9208
▁지켜	-10.921
▁메르	-10.9213
VP	-10.9222
▁관리자	-10.9223
▁인민군	-10.9229
▁단선	-10.9233
웅	-10.9234
▁텍사스	-10.9237
▁영구	-10.924
핀	-10.9241
寧	-10.9243
쯤	-10.9243
▁파르	-10.9244
高等	-10.9247
▁규슈	-10.9249
▁비잔	-10.9251
▁과일	-10.9253
▁、	-10.9255
▁상영	-10.9255
▁사무소	-10.9269
▁江	-10.927
▁카페	-10.9271
디션	-10.9271
▁공용	-10.9288
v	-10.9289
▁던지	-10.9301
▁왕가	-10.9303
크리	-10.9303
▁국어	-10.9304
▁멀티	-10.9304
▁동인	-10.9311
어서	-10.9316
▁유인	-10.932
▁전제	-10.9321
▁언스	-10.9323
라노	-10.9323
▁알파	-10.9325
▁청동	-10.9327
▁펼쳤	-10.9329
像	-10.9329
▁우크라이나	-10.9329
▁콘텐츠	-10.9329
▁디즈니	-10.9329
▁잉	-10.9329
▁서적	-10.9331
▁시나	-10.9332
▁토벌	-10.9333
川	-10.9334
▁張	-10.9335
▁토착	-10.9335
▁공룡	-10.9337
▁오염	-10.9339
▁뱀	-10.9341
▁반사	-10.9343
▁런	-10.9344
▁대선	-10.9348
▁오버	-10.9349
▁커버	-10.9349
▁제주도	-10.9352
▁라마	-10.9352
▁기부	-10.9354
中學	-10.9367
▁86	-10.9368
▁관해	-10.9374
▁皇	-10.9377
사전	-10.9379
▁김구	-10.9382
▁130	-10.9387
▁상수	-10.9387
▁번뇌	-10.9391
▁68	-10.9394
▁화장	-10.9401
▁주체	-10.9402
▁명문	-10.9411
▁이명	-10.9413
▁히로시마	-10.9413
▁똑같	-10.9415
▁트윈	-10.9416
▁압축	-10.9416
▁담배	-10.9418
▁인터	-10.9419
4	-10.942
툰	-10.9421
▁...	-10.9421
▁킬로	-10.9421
▁주일	-10.9421
法	-10.9422
▁물고기	-10.9426
▁소요	-10.9429
▁經	-10.9432
▁악마	-10.9432
▁이어졌	-10.9434
id	-10.9434
▁일단	-10.9434
▁안드로	-10.9435
▁웃	-10.9438
▁약물	-10.9438
▁넥	-10.9439
▁유력	-10.944
▁성종	-10.9447
▁세워진	-10.9449
▁시외	-10.9453
▁공국	-10.9459
폭	-10.9459
▁門	-10.946
야스	-10.9467
▁윤치	-10.9469
▁주재	-10.9478
궐	-10.9486
st	-10.9486
▁매니	-10.9486
▁셔	-10.9489
68	-10.9495
▁전남	-10.95
▁홈페이지	-10.9502
▁몬테	-10.9504
▁不	-10.9504
▁자본주의	-10.9506
▁토너	-10.9507
▁將	-10.9507
E	-10.9511
▁오가	-10.9512
▁약탈	-10.9512
▁촉진	-10.9513
▁둥	-10.9514
▁안보	-10.9517
▁변신	-10.9518
▁필름	-10.9519
▁코리아	-10.9519
▁접속	-10.952
▁중시	-10.9523
▁개장	-10.9523
▁역전	-10.9526
▁오리	-10.9527
라이	-10.9528
▁필수	-10.9529
▁소방	-10.9531
▁급속	-10.9531
▁외계	-10.9539
▁부품	-10.9539
▁96	-10.9542
▁집회	-10.9547
▁졸	-10.955
▁점프	-10.9554
▁봉사	-10.9569
▁봉기	-10.9569
▁61	-10.9573
▁해제	-10.9573
▁陽	-10.9587
▁화가	-10.9589
▁자유주의	-10.9589
▁디자이너	-10.959
▁스케이팅	-10.959
▁나고야	-10.959
▁DJ	-10.9591
▁혈액	-10.9591
▁글씨	-10.9594
▁이루어진다	-10.9594
▁납	-10.9595
마르	-10.9597
▁동아시아	-10.9599
▁묘소	-10.96
▁취재	-10.96
▁알고리	-10.9603
▁수감	-10.9608
▁同	-10.9608
▁뚫	-10.9608
800	-10.961
▁문인	-10.961
▁신고	-10.9611
▁람	-10.9615
▁웅	-10.9617
▁증권	-10.9618
▁조기	-10.9619
BA	-10.9621
▁카를	-10.9627
▁대변	-10.9628
▁굽	-10.9635
괄	-10.9639
▁97	-10.964
▁사당	-10.9641
▁66	-10.9642
▁이웃	-10.9643
▁정사	-10.9645
륜	-10.9651
▁신용	-10.9651
▁주류	-10.9655
▁병역	-10.966
▁산소	-10.9667
▁분산	-10.9672
▁수호	-10.9673
▁전향	-10.9677
▁게이	-10.9677
▁극복	-10.9685
▁열매	-10.9685
▁마틴	-10.969
▁육성	-10.9693
▁단장	-10.9702
▁으	-10.9703
▁직선	-10.9704
▁떼	-10.9704
▁연령	-10.9705
▁일련	-10.9706
HK	-10.9707
슬리	-10.9708
▁직무	-10.971
▁경비	-10.9713
▁두산	-10.9713
▁파란	-10.9717
▁호평	-10.9721
▁의정부	-10.9724
▁역명	-10.9728
▁걸려	-10.9733
▁중립	-10.9734
▁사격	-10.9734
▁크림	-10.9737
▁사바	-10.9739
▁미분	-10.9742
▁낸다	-10.9745
▁웨일스	-10.9764
TC	-10.9765
▁무릎	-10.9767
▁스페셜	-10.9767
▁아이템	-10.9767
▁현종	-10.9773
▁빨간	-10.9774
▁낱	-10.9774
▁태자	-10.9777
▁액체	-10.9778
▁못한다	-10.9779
▁칼리지	-10.9779
臣	-10.9779
▁주거	-10.9783
▁古	-10.9791
▁좌파	-10.9792
▁삼각형	-10.9795
▁윈	-10.981
고슬	-10.9816
▁펑	-10.9817
▁회로	-10.9827
▁여신	-10.9829
▁no	-10.9839
▁노비	-10.9844
▁비치	-10.9848
之	-10.9857
▁리듬	-10.9857
▁드라이브	-10.9858
▁늑대	-10.9858
▁싸웠	-10.9858
버그	-10.9861
픽	-10.9863
▁올린	-10.9864
▁캠프	-10.9865
▁번지	-10.9866
et	-10.9866
w	-10.9869
▁클라	-10.9872
찾	-10.9873
▁객	-10.9875
▁퍼시	-10.988
▁포드	-10.9897
공사	-10.99
▁부작	-10.9905
로운	-10.9906
K	-10.9913
▁바티	-10.9913
▁나이트	-10.9918
▁華	-10.9921
▁진동	-10.9922
▁교장	-10.9924
▁야당	-10.9927
킴	-10.9933
스틱	-10.9942
▁제약	-10.9943
▁맞춰	-10.9948
▁76	-10.9951
▁탑승	-10.9951
▁든다	-10.9952
▁흥미	-10.9953
▁칭호	-10.9954
▁강릉	-10.9956
▁스쿨	-10.9956
▁생애	-10.9956
▁리처드	-10.9957
▁쿼	-10.996
콤	-10.9964
▁존스	-10.9965
▁보좌	-10.9966
▁연설	-10.9968
▁양국	-10.997
▁호흡	-10.9972
▁김해	-10.9975
▁구미	-10.9977
▁지표	-10.9977
▁우편	-10.9979
▁발전소	-10.9981
▁대원	-10.9984
▁전례	-10.9987
▁젠	-10.9988
▁IP	-10.9992
os	-10.9997
▁지불	-10.9998
▁수천	-11.0001
▁헤르	-11.0004
▁지바	-11.0011
식물	-11.0011
▁성명	-11.0021
▁복음	-11.0022
▁디아	-11.0022
▁무산	-11.0026
▁차관	-11.0027
ur	-11.0029
▁민족주의	-11.0035
▁대칭	-11.0036
H	-11.004
▁마케팅	-11.004
▁잠수함	-11.004
▁아티스트	-11.0042
▁좌익	-11.0042
▁알아	-11.0043
▁석탑	-11.0043
▁옹호	-11.0044
▁실내	-11.0045
th	-11.0046
판사	-11.0047
▁자전거	-11.0048
▁존슨	-11.0048
▁체육관	-11.0049
▁콩고	-11.0049
▁곤충	-11.0055
▁준공	-11.0055
▁우연	-11.0057
▁모시	-11.0058
▁강요	-11.0058
▁극단	-11.0059
▁돌파	-11.0065
▁켈	-11.007
▁닫	-11.0076
il	-11.0087
▁토리	-11.0088
▁전두	-11.0091
▁모터	-11.0092
닐	-11.0093
▁권유	-11.0094
바로	-11.0094
▁섬유	-11.0096
스타인	-11.0098
▁84	-11.0099
▁대가	-11.0102
▁세조	-11.0107
▁훼	-11.0108
▁비하	-11.0109
▁세로	-11.0112
▁제후	-11.0117
▁연소	-11.012
▁고위	-11.0123
▁하천	-11.0124
▁선호	-11.0127
▁대령	-11.0127
▁아르메니아	-11.0133
陵	-11.0133
▁등장인물	-11.0133
▁합니다	-11.0133
▁自	-11.0134
▁꾸준	-11.0134
항공	-11.0136
▁Go	-11.0136
▁놀라	-11.0137
▁주어졌	-11.0137
ment	-11.0138
▁더라	-11.0147
▁매출	-11.0148
▁진술	-11.0153
▁포유	-11.0153
으므로	-11.0153
▁수백	-11.0156
▁정계	-11.017
▁목포	-11.0172
▁모래	-11.0183
▁밀리	-11.0196
te	-11.0198
▁형법	-11.0206
▁관장	-11.0208
▁모집	-11.0214
▁성주	-11.0222
▁폐기	-11.0223
▁노동조합	-11.0226
▁탐험	-11.0226
▁자이언츠	-11.0226
▁흥행	-11.0229
▁시계	-11.0231
▁小	-11.0235
▁딴	-11.0236
▁벌어	-11.0237
▁키스	-11.0238
▁강등	-11.0238
밍	-11.024
주의자	-11.0241
올	-11.0241
▁마스터	-11.0246
▁權	-11.0249
▁심한	-11.0253
▁87	-11.0255
▁꾼	-11.0257
혈	-11.0263
("	-11.0266
▁마산	-11.027
▁자바	-11.0276
▁소총	-11.0277
▁신하	-11.0278
▁일으킨	-11.0279
▁정자	-11.028
마치	-11.0282
엘라	-11.0291
▁춘천	-11.0293
▁가시	-11.0295
▁선제	-11.0302
▁심리학	-11.0309
▁인과	-11.0309
▁사이드	-11.0318
펜	-11.0319
▁구동	-11.0319
▁World	-11.032
영상	-11.0325
▁교과서	-11.0325
▁민국	-11.0325
▁경북	-11.0328
▁면역	-11.0331
▁기종	-11.0332
▁엽	-11.0334
오카	-11.0334
▁추락	-11.0335
▁다녔	-11.0336
▁基	-11.0337
▁줬	-11.0337
▁오리지	-11.0337
▁죠	-11.0339
▁사직	-11.0344
▁동위	-11.0347
▁성공회	-11.0352
▁순천	-11.0354
▁뷰	-11.0356
스톤	-11.0357
▁점유	-11.0358
▁반환	-11.0358
▁Love	-11.0359
▁당연	-11.0362
▁소지	-11.0363
▁지각	-11.0366
▁가로	-11.0366
),	-11.0369
▁相	-11.0371
▁도어	-11.0371
▁클리	-11.0372
고속도로	-11.0377
▁들어서	-11.0378
▁파키	-11.0381
▁서서	-11.0383
▁남원	-11.0386
▁피고	-11.0389
▁원산	-11.0391
▁파라	-11.0391
▁러브	-11.0403
▁기념물	-11.0413
侯	-11.0416
▁체험	-11.0416
▁No	-11.0417
▁리드	-11.0417
▁모험	-11.0418
▁희극	-11.0419
▁110	-11.0421
▁군부	-11.0422
▁칩	-11.0423
▁놓여	-11.0426
▁삿	-11.0428
자키	-11.043
천군	-11.0431
▁남녀	-11.0433
▁프레임	-11.044
▁사막	-11.0441
義	-11.0441
▁하버드	-11.0443
▁요미	-11.0444
▁끈	-11.0452
▁식사	-11.0452
리우스	-11.0461
▁합리	-11.0464
6	-11.0464
▁하원	-11.0473
▁후일	-11.0476
▁공직	-11.0478
▁선진	-11.0481
▁전장	-11.0483
▁동치	-11.0484
▁性	-11.0487
05	-11.0487
렴	-11.0495
레이블	-11.0499
없	-11.0506
▁孝	-11.0512
▁||	-11.0512
▁소관	-11.0512
▁농촌	-11.0514
▁토마스	-11.0519
▁공자	-11.0519
라이터	-11.0519
▁宣	-11.0519
▁心	-11.0519
hPa	-11.0528
▁틈	-11.053
오스	-11.0532
▁사라졌	-11.0533
▁계단	-11.0533
▁펄	-11.0535
▁비례	-11.0536
▁데려	-11.0539
▁첩	-11.0547
▁の	-11.0553
▁청사	-11.056
▁공세	-11.0572
▁대행	-11.0583
▁사명	-11.0589
▁다룬	-11.0601
ra	-11.0602
▁Ch	-11.0603
뇌	-11.0603
▁ISO	-11.0609
▁토머스	-11.0609
▁앨런	-11.061
▁겨우	-11.061
▁69	-11.061
십	-11.0611
▁충족	-11.0614
▁합작	-11.0615
▁긴급	-11.062
톱	-11.062
▁靑	-11.0621
▁기름	-11.0622
▁자문	-11.0624
▁기생	-11.0628
▁88	-11.0628
▁원장	-11.0629
▁主	-11.063
▁운반	-11.063
▁추적	-11.0631
▁입증	-11.0631
963	-11.0636
▁木	-11.0636
울러	-11.0637
▁료	-11.0638
▁78	-11.0639
▁빗	-11.0645
▁判	-11.065
▁미사	-11.0651
▁서경	-11.0653
OS	-11.0656
▁松	-11.0659
▁소금	-11.0662
▁行	-11.0664
▁아과	-11.0669
▁신전	-11.0669
▁시드	-11.0672
사헌	-11.0685
해졌	-11.0687
이트	-11.0688
▁조류	-11.0694
▁파생	-11.0696
뢰	-11.0698
▁New	-11.0704
▁대만	-11.0706
▁입문	-11.0707
者	-11.0707
▁머물렀	-11.0707
▁포맷	-11.0707
▁인천광역시	-11.0708
▁버지니아	-11.0709
▁자율	-11.071
▁중추원	-11.0711
▁몰락	-11.0711
▁렌즈	-11.0713
▁허브	-11.0716
▁스타크	-11.0718
▁협약	-11.0718
▁목격	-11.072
▁협의	-11.0721
시스	-11.0726
▁표지	-11.0728
▁강전	-11.0737
▁애국	-11.0738
▁이탈	-11.0743
▁사우스	-11.0746
▁교역	-11.0749
곳	-11.0752
▁탕	-11.0755
▁유발	-11.0756
▁넘겨	-11.0763
▁고교	-11.0766
▁동전	-11.0768
▁09	-11.0778
▁Co	-11.0785
▁코트	-11.0791
▁토르	-11.0798
▁Man	-11.0799
▁김동	-11.0802
▁아프가니	-11.0806
▁에스토니아	-11.0806
▁퍼져	-11.0808
▁하와이	-11.0808
▁충청	-11.0809
▁밴	-11.081
▁거둔	-11.081
▁그쳤	-11.081
▁五	-11.0812
▁2020	-11.0812
보였	-11.0812
▁히라	-11.0813
얀마	-11.0817
▁《》	-11.0817
son	-11.082
▁램	-11.082
▁코르	-11.0822
▁방안	-11.0824
▁북구	-11.0832
▁83	-11.0834
▁비즈니	-11.0835
▁농장	-11.0836
데이	-11.0838
▁블루스	-11.0841
▁뜨	-11.0847
▁색상	-11.0848
▁근육	-11.0848
▁편의	-11.0848
운서	-11.0848
▁틱	-11.0849
ine	-11.0851
▁낼	-11.0852
▁빼	-11.0853
▁기리	-11.086
▁인원	-11.0862
▁가게	-11.0862
▁랜	-11.0864
▁01	-11.0865
▁유키	-11.0867
▁제수	-11.0874
▁부도	-11.0875
▁대조	-11.088
▁馬	-11.0889
키아	-11.0902
연상	-11.0905
▁훌륭	-11.0906
알	-11.0907
▁쇠퇴	-11.0908
문과	-11.0909
▁무선	-11.0914
▁내륙	-11.0914
▁착용	-11.0915
▁퇴각	-11.0917
▁유성	-11.0923
▁푼	-11.0923
▁멈	-11.0924
▁루수	-11.0925
at	-11.0925
▁장인	-11.0926
▁움	-11.0928
이벌	-11.0928
▁출토	-11.0929
▁보충	-11.0932
▁와서	-11.0933
경기	-11.0934
니다	-11.0934
▁부탁	-11.0935
▁햄	-11.0935
▁谷	-11.0936
▁배급	-11.0938
콧	-11.094
▁대사관	-11.0948
▁예방	-11.0955
▁부패	-11.0957
지마	-11.0959
▁실린	-11.0965
▁윤리	-11.0967
▁유용	-11.0968
▁플로	-11.0977
▁돼지	-11.0978
▁들어간	-11.0979
▁동구	-11.0983
▁사사	-11.0985
▁주자	-11.0986
▁宮	-11.0986
▁남인	-11.0991
▁번식	-11.0995
▁무력	-11.0998
쇄	-11.0998
▁유비	-11.1004
▁서북	-11.1005
▁중구	-11.1005
▁컨트롤	-11.1007
▁쇼핑	-11.1009
▁레닌	-11.101
▁四	-11.1012
▁정서	-11.1013
I	-11.1013
▁톨	-11.1015
▁겹	-11.1016
플러	-11.1018
▁康	-11.102
▁th	-11.1022
▁103	-11.1028
농	-11.1028
▁春	-11.1029
▁포스트	-11.1032
▁有	-11.1033
▁EP	-11.1034
▁인디	-11.1037
▁美	-11.1037
▁광산	-11.1042
▁노조	-11.1042
▁발족	-11.1043
▁킬	-11.1052
▁김수	-11.1056
▁패전	-11.1063
▁워크	-11.1067
▁갈라	-11.107
▁계수	-11.1073
▁신비	-11.1082
▁com	-11.1084
▁상무	-11.1085
르치	-11.1087
▁08	-11.1088
▁개업	-11.1089
896	-11.109
▁남긴	-11.1094
▁타르	-11.1094
▁지휘자	-11.1102
▁골키퍼	-11.1109
▁애플리케이션	-11.1109
▁배구	-11.111
▁부리	-11.1113
▁미나미	-11.1116
▁驛	-11.1119
▁버튼	-11.1124
▁모노	-11.1126
▁도심	-11.1126
▁예능	-11.1128
▁카스	-11.1131
▁여동생	-11.1133
▁브루	-11.1133
▁향토	-11.1136
엔	-11.1137
그마	-11.114
소년	-11.1146
▁r	-11.1147
▁테르	-11.115
Y	-11.115
▁연수	-11.1154
▁地	-11.1157
▁사카	-11.1158
▁신임	-11.1163
▁다카	-11.1163
▁브로	-11.1164
▁通	-11.1169
▁비전	-11.1171
▁험	-11.1172
▁묘지	-11.1173
▁파이어	-11.1177
▁장학	-11.1177
▁知	-11.1185
▁내무	-11.1186
▁1500	-11.1188
가지	-11.1191
▁어항	-11.1194
▁워드	-11.1198
▁데리	-11.1201
DP	-11.1206
MS	-11.1211
的	-11.1212
▁광해군	-11.1212
▁모듈	-11.1212
▁얀	-11.1212
▁許	-11.1218
▁부동산	-11.1218
▁브라우	-11.1219
▁연인	-11.122
▁간섭	-11.122
▁착공	-11.122
▁黃	-11.122
▁팽창	-11.1222
▁구리	-11.1223
▁멋	-11.1225
▁야스	-11.1226
▁드림	-11.1228
▁어릴	-11.1233
▁존경	-11.1236
▁스피드	-11.1239
▁북미	-11.124
▁호조	-11.1242
▁종족	-11.1243
▁소니	-11.1246
▁140	-11.1246
▁시공	-11.1246
▁사거리	-11.1247
넘	-11.1249
▁진상	-11.1254
▁信	-11.1255
▁노르	-11.1256
벤	-11.1258
▁수상자	-11.126
▁900	-11.126
▁광역	-11.1265
▁링크	-11.1267
▁꼴	-11.1268
▁짝	-11.1271
▁재생	-11.1277
서독	-11.1281
▁과제	-11.1282
▁서인	-11.1286
늘	-11.1287
▁누스	-11.1294
▁틸	-11.1314
▁엘리베이터	-11.1316
▁당사자	-11.1321
▁3000	-11.1325
▁텍스트	-11.1326
폴리스	-11.1327
▁쿠스	-11.133
▁봤	-11.1331
▁리아	-11.1332
▁캡	-11.1333
▁뮤	-11.1334
▁토스	-11.1336
휴	-11.1336
▁자치구	-11.134
▁증기	-11.1347
▁릴리	-11.1349
▁측근	-11.135
▁노무	-11.1353
▁용기	-11.1353
▁인텔	-11.1354
▁대주교	-11.1357
府	-11.136
家	-11.136
▁孫	-11.1362
▁部	-11.1362
▁아도	-11.1364
데이트	-11.1365
도사	-11.1366
▁홍수	-11.1366
방송	-11.1367
▁반감	-11.1368
▁비극	-11.1374
▁시라	-11.1378
죽	-11.1379
▁PD	-11.138
▁횡	-11.1384
▁공과	-11.1395
▁시집	-11.1397
▁佛	-11.1401
▁참가자	-11.1403
▁야구장	-11.1403
▁베드	-11.1403
▁198	-11.1403
96	-11.1404
▁구제	-11.1408
▁롬	-11.1412
▁지수	-11.1412
▁칼리	-11.1413
▁상관	-11.1413
▁함경	-11.1413
▁못해	-11.1421
▁마케도니아	-11.1422
▁저기압	-11.1422
▁샌프란시스코	-11.1422
▁동성애	-11.1422
▁定	-11.1423
▁무관	-11.1423
▁충실	-11.1427
멘트	-11.1428
▁시아	-11.1428
▁우익	-11.1428
▁질환	-11.143
▁금강	-11.1432
▁풋	-11.1434
▁참판	-11.1436
▁나선	-11.1438
▁리스트	-11.1441
▁연루	-11.1443
▁돌아갔	-11.1444
▁소닉	-11.1445
▁피난	-11.1446
▁귀중	-11.1447
▁노란	-11.1449
통령	-11.145
▁석조	-11.1451
▁국무	-11.1451
▁市	-11.1457
짝	-11.1461
▁모스	-11.1462
▁임신	-11.1462
▁명목	-11.1463
▁분교	-11.1467
行	-11.1467
니즘	-11.1479
▁경전	-11.1481
▁비단	-11.1481
▁갱	-11.1491
▁부시	-11.1493
과이	-11.1494
▁다양체	-11.1496
▁달린	-11.1499
▁전망	-11.1499
▁탁	-11.1504
▁지름	-11.1504
클래스	-11.1512
X	-11.1513
▁이행	-11.1513
▁이른	-11.152
럼	-11.1521
▁상상	-11.1528
▁리투아니아	-11.1528
▁베이스볼	-11.1529
▁케이블	-11.1529
▁초상화	-11.153
▁투스	-11.1531
▁라오	-11.1532
델피	-11.1534
▁둘레	-11.1534
▁가득	-11.1536
▁회견	-11.1537
▁순교	-11.1545
▁유가	-11.1549
▁루트	-11.1549
▁건축물	-11.1552
뉴	-11.1553
▁경유	-11.1553
▁연애	-11.1556
▁內	-11.1556
▁영감	-11.1563
▁그럼	-11.1566
▁유언	-11.1573
▁추모	-11.1576
▁억제	-11.1576
▁크루	-11.1579
▁배정	-11.159
▁명사	-11.1592
▁부른	-11.1593
▁오피스	-11.1595
총장	-11.1595
▁분지	-11.16
▁UN	-11.1603
▁돌아온	-11.1608
쇠	-11.161
▁내장	-11.1621
▁지연	-11.1622
▁스티븐	-11.1624
▁여수	-11.1631
▁수신	-11.1633
▁닭	-11.1633
▁폭스	-11.1634
▁기단	-11.1635
얇	-11.1635
▁프로토콜	-11.1635
▁누군가	-11.1636
▁캐스팅	-11.1636
▁자책점	-11.1636
▁밀접	-11.1637
▁압박	-11.1638
▁김태	-11.164
▁廣	-11.1642
▁납치	-11.1642
▁주가	-11.165
▁떨어졌	-11.1654
이치	-11.1657
▁신칸	-11.1659
▁중장	-11.1664
▁타마	-11.1666
븐	-11.167
▁변동	-11.167
▁창간	-11.1671
▁파업	-11.1676
▁AC	-11.1677
▁주권	-11.1682
▁칙	-11.1685
옷	-11.1686
▁헤드	-11.1694
▁김진	-11.1699
as	-11.1702
▁170	-11.1705
▁선원	-11.1713
▁민사	-11.1718
▁근로	-11.172
▁장난	-11.1721
▁이성	-11.1723
▁마하	-11.1724
코프	-11.1724
▁SF	-11.1725
▁기아	-11.1726
▁수장	-11.1731
▁게시	-11.1737
▁공격수	-11.1737
▁창업	-11.1739
▁득표	-11.1744
郞	-11.1744
▁비틀즈	-11.1745
re	-11.1748
▁페루	-11.1749
▁泰	-11.1749
▁급진	-11.1751
▁이어져	-11.1751
▁무효	-11.1753
▁석탄	-11.1755
▁평생	-11.1755
▁거친	-11.1757
▁제휴	-11.1761
▁저널	-11.1761
▁고시	-11.1763
ton	-11.1769
▁셨	-11.1769
▁산림	-11.1773
룩	-11.1781
TP	-11.1781
▁중국어	-11.1782
▁들여	-11.1784
▁101	-11.1785
▁연금	-11.1788
▁아비	-11.1789
▁베타	-11.1793
▁솜	-11.1795
門	-11.1797
값	-11.1798
▁07	-11.1798
▁받침	-11.18
▁서브	-11.1802
집합	-11.1807
▁충주	-11.1808
▁오이	-11.1809
▁적응	-11.1812
▁개수	-11.1816
▁Re	-11.1816
▁경찰서	-11.1817
▁곰	-11.1819
▁노드	-11.1819
차례	-11.1826
ol	-11.1837
▁부천	-11.1839
▁스피	-11.1848
▁흡	-11.1848
드니	-11.1852
▁진지	-11.1853
975	-11.1854
▁매사추세츠	-11.1854
▁믿음	-11.1854
짙	-11.1854
▁들어와	-11.1855
▁다큐멘	-11.1855
▁통행	-11.1861
▁조용	-11.1862
▁부흥	-11.1863
▁환영	-11.1864
▁記	-11.1864
▁레바	-11.1866
▁크로	-11.1866
▁景	-11.1868
▁구릉	-11.1869
▁분배	-11.187
▁어워드	-11.1871
▁매개	-11.1872
▁문양	-11.1872
▁사물	-11.1874
▁암석	-11.1878
▁클로	-11.1879
▁그려	-11.1882
▁경연	-11.1882
▁소환	-11.1891
▁마스	-11.1893
▁제의	-11.1894
▁합법	-11.1905
린다	-11.1907
▁禮	-11.1909
▁81	-11.1912
▁교전	-11.1913
▁전함	-11.1925
▁부처	-11.1934
lo	-11.1936
수량	-11.1938
▁유신	-11.1947
▁v	-11.1948
▁흔들	-11.195
▁대안	-11.1953
▁고안	-11.1954
타르	-11.1954
▁걷	-11.196
▁보드	-11.196
다이라	-11.196
▁만난	-11.1962
셉	-11.1964
슘	-11.1965
▁센트럴	-11.1965
▁오케스트	-11.1966
▁가져왔	-11.1966
▁CPU	-11.1966
▁숭배	-11.1966
▁디오	-11.1967
▁문화방송	-11.1968
to	-11.197
▁US	-11.1971
▁취약	-11.1971
▁라이온	-11.1971
▁堂	-11.1974
▁서방	-11.1974
▁판타지	-11.1976
26	-11.1984
▁망원경	-11.1985
▁젤	-11.1985
▁이슬람교	-11.1986
▁자랐	-11.199
▁항일	-11.199
▁로즈	-11.199
인명	-11.1998
▁91	-11.1998
▁법조	-11.2
▁마약	-11.2002
師	-11.2002
▁전임	-11.2003
▁세례	-11.2005
▁方	-11.2006
▁금성	-11.2009
▁회수	-11.201
▁자고	-11.2012
un	-11.2019
▁궤	-11.202
▁김상	-11.2021
▁미야	-11.2021
地	-11.2023
▁유교	-11.2025
BM	-11.2031
▁신학자	-11.2033
▁360	-11.2036
▁계절	-11.2038
가스	-11.2044
사르	-11.2044
▁게이트	-11.2046
▁닐	-11.2046
▁붙이	-11.2046
▁삼진	-11.2049
V	-11.2053
▁중계	-11.2056
▁미즈	-11.2061
석사	-11.2064
▁물러났	-11.2078
▁나가사키	-11.2079
▁분기점	-11.2082
▁양상	-11.2082
8	-11.2089
▁79	-11.2093
▁조국	-11.2094
▁넬	-11.2094
▁히가시	-11.2094
▁나타난	-11.2097
▁완화	-11.2098
▁몰아	-11.2098
▁장갑	-11.2099
우트	-11.2101
스케	-11.2106
▁71	-11.2107
▁커다	-11.2107
회의	-11.2108
▁전대	-11.211
▁김용	-11.2112
▁on	-11.2113
▁공인	-11.2114
▁눈물	-11.2115
▁개미	-11.2116
잡	-11.2116
ie	-11.212
칙	-11.2121
▁180	-11.2127
ies	-11.2129
▁67	-11.213
눌	-11.2135
▁二	-11.2136
君	-11.2138
中	-11.2138
부르크	-11.2139
▁마친	-11.2142
▁04	-11.2143
▁수평	-11.2144
다니	-11.2145
▁튼	-11.2145
▁발현	-11.215
50	-11.2151
▁수산	-11.2154
▁5000	-11.2154
▁동아	-11.2166
▁취지	-11.2172
▁분기	-11.2172
▁전한다	-11.2174
베리	-11.2175
▁비아	-11.2176
ir	-11.2181
▁붙잡	-11.2184
씀	-11.2191
▁갤럭	-11.2191
르트	-11.2191
▁보스니아	-11.2192
▁특허	-11.2193
▁敎	-11.2194
▁전문학교	-11.2194
▁정찰	-11.2196
공업	-11.2197
▁엘리자베	-11.2199
▁샬	-11.2202
▁강변	-11.2203
▁교섭	-11.2205
▁鎭	-11.2206
▁추격	-11.2208
▁주어진	-11.2209
▁킨	-11.2209
버트	-11.2211
▁야생	-11.2212
▁고립	-11.2213
걸	-11.2213
▁실용	-11.2214
▁59	-11.2214
ro	-11.2218
▁벼	-11.2218
▁페어	-11.2221
▁관구	-11.2224
▁닷	-11.2229
▁투명	-11.2229
▁일기	-11.2231
▁尙	-11.2233
▁붓	-11.2235
▁달아	-11.2235
▁물자	-11.2235
P	-11.2236
▁코프	-11.2242
욕	-11.2242
켄	-11.2245
▁서신	-11.2245
▁긴장	-11.2245
▁사관	-11.2245
닫	-11.2254
▁건의	-11.2255
맞	-11.2255
▁그레고리	-11.2258
▁쇄	-11.2259
▁루프	-11.2259
▁우지	-11.2265
▁프로세	-11.2268
▁상장	-11.2268
▁고무	-11.2272
▁그라	-11.2274
▁w	-11.2276
▁전자기	-11.2277
우승	-11.2279
▁기동	-11.2292
▁사지	-11.2302
▁살펴	-11.2305
▁뱅크	-11.2307
▁커뮤니티	-11.2307
▁드럼	-11.2308
▁쓰여	-11.2309
▁延	-11.2309
▁발원	-11.231
▁八	-11.2311
▁협조	-11.2313
마쿠라	-11.2313
▁전진	-11.2315
▁태생	-11.2316
트비히	-11.2317
육	-11.2318
▁유로파	-11.2319
▁民	-11.232
▁우드	-11.2328
주시	-11.233
▁해진	-11.2332
▁통영	-11.2333
비스	-11.2338
▁탐지	-11.2342
▁뿔	-11.2342
▁피에르	-11.2342
▁유출	-11.2342
▁雲	-11.2342
▁공전	-11.2347
▁대군	-11.2348
▁殿	-11.2348
▁용산	-11.235
▁헨	-11.2351
▁守	-11.2354
ung	-11.2357
明	-11.2359
▁상소	-11.2363
▁배신	-11.2366
▁평창	-11.237
그라드	-11.237
官	-11.2372
生	-11.2372
部	-11.2372
▁현금	-11.2378
▁재미	-11.2379
▁열도	-11.2382
▁찰	-11.2383
ny	-11.2385
▁무명	-11.2396
▁중도	-11.2396
▁스터	-11.2398
▁메가	-11.24
▁콜로	-11.2403
tion	-11.2406
틱	-11.2406
▁여주	-11.241
예프	-11.2416
▁컬	-11.2417
▁대지	-11.2419
▁상세	-11.2419
리온	-11.2421
▁챔피	-11.2421
둠	-11.2422
▁국무총리	-11.2422
▁디젤	-11.2423
▁주파수	-11.2424
▁둥근	-11.2426
▁충남	-11.2427
셰	-11.2428
史	-11.2429
▁지질	-11.2429
▁敬	-11.2431
▁단기	-11.2432
▁빔	-11.2433
▁吉	-11.2433
▁합계	-11.2435
▁적대	-11.2435
▁建	-11.2435
▁판매량	-11.244
지사	-11.2441
▁종결	-11.2445
▁얼음	-11.2449
리그	-11.2453
▁밭	-11.2453
▁연산자	-11.2455
▁외무	-11.2457
트니	-11.2459
▁귀환	-11.2461
▁順	-11.2461
▁내외	-11.2465
▁목조	-11.2466
▁자손	-11.2469
솔	-11.247
▁月	-11.2472
▁官	-11.2472
▁개관	-11.2473
▁파트	-11.2474
도르	-11.2477
▁말라	-11.2478
se	-11.2482
▁개그	-11.2486
토대	-11.2487
▁진도	-11.2489
마자	-11.249
理	-11.249
▁社	-11.2491
正	-11.2491
▁지부	-11.2492
▁유동	-11.2496
▁아기	-11.2499
기니	-11.2501
▁매력	-11.2501
▁스테	-11.2502
브스	-11.2507
▁레인	-11.2507
▁튀	-11.2507
평야	-11.2512
리카	-11.2514
릇	-11.2515
▁제트	-11.2519
▁수면	-11.2529
▁라트비아	-11.254
▁보헤미	-11.254
▁벌어졌	-11.2541
▁근접	-11.2542
▁바오로	-11.2543
▁副	-11.2543
▁한성부	-11.2545
▁패턴	-11.2547
▁발효	-11.2549
▁承	-11.2551
▁196	-11.2555
▁유해	-11.2555
▁고고학	-11.2555
▁관통	-11.2558
▁툴	-11.2559
▁館	-11.2561
리코	-11.2564
▁품종	-11.2568
▁채무	-11.2568
▁선구	-11.2571
▁重	-11.2571
▁천사	-11.2572
▁각기	-11.2578
▁난다	-11.258
▁유격	-11.258
▁스와	-11.2584
▁위안	-11.2584
▁통근	-11.2586
▁강원	-11.2587
▁生	-11.2591
▁천문	-11.2595
▁식당	-11.2597
▁윌	-11.2599
튜	-11.2604
海	-11.2612
▁St	-11.2615
태후	-11.2619
▁중순	-11.2621
▁민영	-11.2624
간다	-11.2627
▁요코	-11.2629
성기	-11.2632
에도	-11.2635
▁자면	-11.2645
▁양도	-11.2647
▁피렌체	-11.2659
▁크리스마스	-11.2659
접	-11.2659
▁푸른	-11.2662
끼리	-11.2663
▁柳	-11.2666
▁머물	-11.267
▁휴전	-11.267
▁테이블	-11.2672
▁겸임	-11.2672
J	-11.2674
▁첨가	-11.2677
뼈	-11.2679
▁포크	-11.2682
▁환상	-11.2688
리타	-11.2692
▁마쳤	-11.2695
▁반격	-11.2697
▁호랑	-11.2702
▁이스트	-11.2703
▁동반	-11.2703
▁어업	-11.2703
▁셈	-11.2703
시티	-11.2703
▁친선	-11.2706
▁사인	-11.271
랭	-11.2715
즌	-11.2716
▁알렉산드	-11.2732
本	-11.2733
대주교	-11.2734
▁부르크	-11.2735
▁원반	-11.2735
▁걸리	-11.2743
▁승차	-11.2744
942	-11.2744
▁중재	-11.2748
▁안양	-11.2751
스트레스	-11.2753
▁03	-11.2757
▁음원	-11.2759
▁풀려	-11.2759
▁결선	-11.2761
▁전이	-11.2769
▁부수	-11.2779
▁빌헬름	-11.278
▁페스티벌	-11.278
令	-11.278
▁황태자	-11.278
▁우정	-11.2782
▁대전광역시	-11.2782
▁左	-11.2783
▁아사히	-11.2784
▁성균관	-11.2785
비치	-11.2785
▁빠졌	-11.2787
▁쥬	-11.2795
▁상부	-11.2796
헤	-11.28
▁동정	-11.28
▁고개	-11.2801
▁장례	-11.2803
▁궁정	-11.2805
리학	-11.2805
▁한강	-11.2809
▁탱크	-11.2811
▁상표	-11.2815
▁대교	-11.2816
▁교외	-11.282
▁박영	-11.2823
▁엉	-11.2825
▁SM	-11.2829
▁圖	-11.283
▁史	-11.2832
▁드래곤	-11.2832
▁해설	-11.2833
▁아예	-11.2842
▁복장	-11.2843
사장	-11.2843
녕	-11.2844
▁해인	-11.2847
쥐	-11.2848
▁참의	-11.2853
▁중위	-11.2854
業	-11.2855
셈	-11.2857
院	-11.2857
安	-11.2857
▁회화	-11.2857
《	-11.2858
▁강경	-11.2859
이즈	-11.2861
▁원고	-11.2861
▁73	-11.2868
▁06	-11.2871
▁루타	-11.2874
줄기	-11.2875
▁부재	-11.288
▁지평	-11.2886
축구	-11.2887
▁입상	-11.2891
▁나주	-11.2899
▁감리	-11.2901
▁위키백과	-11.2901
▁University	-11.2902
▁카리브	-11.2902
▁오렌지	-11.2903
▁`	-11.2905
▁관습	-11.2906
▁토요일	-11.2907
▁객관	-11.2908
▁변호	-11.2909
▁불가	-11.2914
▁온천	-11.2916
▁배수	-11.2918
▁英	-11.2919
▁포병	-11.2919
▁버린	-11.2924
▁眞	-11.2932
결심	-11.2932
▁派	-11.2934
▁정전	-11.2935
▁트루	-11.2938
▁파이터	-11.294
▁신도	-11.2942
▁집계	-11.2944
▁껍질	-11.2945
▁장미	-11.2949
▁05	-11.295
ve	-11.2958
▁알레	-11.2974
▁羅	-11.2979
약품	-11.298
란다	-11.2981
뜻	-11.2982
▁그렸	-11.2987
야수	-11.2987
▁스코	-11.2988
▁82	-11.2993
▁고조	-11.2995
▁경선	-11.3
포로	-11.3002
▁단점	-11.3002
▁야기	-11.3006
▁기금	-11.3015
▁안토니	-11.3016
▁진리	-11.3017
▁서울대	-11.3018
로그	-11.3024
▁덧붙여	-11.3026
▁트럭	-11.3026
▁파트너	-11.3026
▁테일러	-11.3027
▁세이브	-11.3028
▁박탈	-11.3029
▁번영	-11.3031
▁샌	-11.3033
▁Pro	-11.3033
▁테스	-11.3033
▁금호	-11.3049
▁버린다	-11.3054
▁동당	-11.3055
▁존중	-11.3055
▁트랜스	-11.3058
▁사쿠라	-11.3059
▁처녀	-11.306
▁사다	-11.3062
▁결혼식	-11.3064
▁위장	-11.3065
▁토성	-11.307
▁부착	-11.3072
vs	-11.3073
▁스트리트	-11.3074
▁최신	-11.3074
▁SC	-11.3077
▁일족	-11.3078
▁실종	-11.3078
▁막내	-11.3079
▁흘	-11.3079
▁저명	-11.3079
▁관음	-11.3079
▁한화	-11.308
▁내지	-11.3092
▁EC	-11.3098
▁입지	-11.3099
祖	-11.3107
▁동력	-11.3107
▁생전	-11.3107
렛	-11.3108
트랙	-11.3111
▁상임	-11.3111
▁스톤	-11.3116
▁저주	-11.3122
문학	-11.3133
들리	-11.3136
▁김기	-11.3142
▁술탄	-11.3149
▁베네딕	-11.315
▁블랙홀	-11.315
▁응답	-11.3151
▁히어로즈	-11.3151
▁$	-11.3155
▁검증	-11.3159
▁창건	-11.316
▁방사선	-11.316
▁하얀	-11.3161
▁오로	-11.3161
▁중량	-11.3161
▁추출	-11.3165
▁憲	-11.3168
▁신학교	-11.3169
▁간접	-11.3171
▁아케	-11.3173
▁한데	-11.3174
▁익산	-11.3175
▁맘	-11.3177
▁가속	-11.3178
▁발트	-11.3183
▁베니	-11.3187
▁보르	-11.3195
▁반해	-11.3195
▁루터	-11.3195
토모	-11.3196
▁강연	-11.32
▁미션	-11.32
▁떠난	-11.3203
리콘	-11.3205
▁리오	-11.3205
▁立	-11.3207
▁레오	-11.3209
▁스페인어	-11.321
▁오타	-11.3211
▁동상	-11.3215
▁원숭이	-11.3216
호쿠	-11.3221
켈	-11.3225
융	-11.323
▁열대	-11.323
▁야간	-11.3232
진다	-11.3233
▁선종	-11.324
천시	-11.324
▁기상	-11.324
▁195	-11.3241
▁상용	-11.3242
▁정한	-11.3242
▁룡	-11.3245
라이더	-11.3245
▁상류	-11.3245
▁Se	-11.325
▁모방	-11.3251
▁딩	-11.3251
대교	-11.3253
▁버그	-11.3265
▁샤를	-11.3272
▁문하	-11.3274
▁스튜어트	-11.3277
토미	-11.3277
▁받아들였	-11.3277
▁기상청	-11.3278
살렘	-11.3278
▁쾌속	-11.3278
▁아리스토	-11.328
▁여서	-11.3281
▁휴식	-11.3284
▁사리	-11.3285
▁정밀	-11.3285
▁헤비	-11.3289
▁가미	-11.3295
▁히메	-11.3297
▁공습	-11.3297
▁한양	-11.3298
▁士	-11.3302
land	-11.3303
▁웰	-11.3304
▁마녀	-11.3304
▁산악	-11.3304
▁동사	-11.3306
▁*	-11.3309
▁빠진	-11.3309
▁수렴	-11.3311
카스	-11.3313
▁네이	-11.3317
▁친위	-11.3318
▁행진	-11.332
▁성벽	-11.3323
▁전산	-11.3324
▁캐시	-11.3337
즉시	-11.3338
▁심의	-11.3338
프로스	-11.3342
▁마비	-11.3353
▁94	-11.3358
가루	-11.3359
▁성단	-11.3362
▁어요	-11.3366
夫	-11.3366
팬	-11.3367
있	-11.3367
me	-11.3371
▁김재	-11.3373
▁캄	-11.3377
▁이뤄	-11.338
▁단원	-11.3384
▁식민	-11.3384
▁승무	-11.3386
▁프랑크	-11.3388
▁배상	-11.3389
▁청원	-11.3389
▁위임	-11.3391
▁여우	-11.3399
▁깔	-11.3403
▁International	-11.3405
▁항공모함	-11.3405
놈	-11.3405
▁브라이언	-11.3405
▁어두운	-11.3405
▁굉장	-11.3406
▁옵션	-11.3406
▁조선일보	-11.3408
▁나폴리	-11.3408
▁최소한	-11.3412
▁응우옌	-11.3412
나카	-11.3413
▁도메인	-11.3413
구장	-11.3414
▁돌격	-11.3417
까	-11.3417
▁여진	-11.3418
▁지선	-11.3418
▁일화	-11.3419
▁기사단	-11.3425
▁공백	-11.3429
▁운동장	-11.343
▁조달	-11.3432
▁우라	-11.3437
▁병기	-11.3437
▁박해	-11.3439
▁로프	-11.3441
▁갓	-11.3445
▁몰래	-11.3449
▁후한	-11.3449
▁랭	-11.3451
램	-11.3455
▁공민	-11.3457
Z	-11.3459
▁오카	-11.3465
▁바퀴	-11.3466
▁프랑	-11.3474
곡리	-11.3479
▁딜	-11.3485
콕	-11.3485
▁동년	-11.349
▁공수	-11.3496
▁중독	-11.3499
▁꺼	-11.3503
▁가죽	-11.3506
▁쿄	-11.351
▁뜨거	-11.3517
홀	-11.3521
▁내린	-11.3524
▁쿨	-11.3529
▁랄	-11.3534
▁아이슬란드	-11.3535
豊	-11.3535
▁Korea	-11.3535
▁들어왔	-11.3535
▁開	-11.3536
▁토기	-11.3536
▁정무	-11.3536
▁붙였	-11.3537
▁격렬	-11.3537
▁貞	-11.3538
▁관람	-11.3538
▁구축함	-11.3539
▁태그	-11.3542
고쿠	-11.3542
▁공략	-11.3545
▁피스	-11.3546
▁우라늄	-11.3549
구치	-11.3549
▁충성	-11.3552
▁택시	-11.3552
리올	-11.3559
▁思	-11.356
▁맵	-11.356
▁스파이	-11.3561
ers	-11.3561
▁환원	-11.3565
▁목판	-11.3565
▁마리오	-11.3566
▁대장군	-11.3567
디어	-11.357
▁최저	-11.3571
939	-11.3573
▁복제	-11.3574
▁벗	-11.3577
▁배후	-11.3578
▁샹	-11.358
▁승계	-11.358
▁함유	-11.3582
▁직장	-11.3584
▁상사	-11.3584
▁굿	-11.3585
교단	-11.3587
에이	-11.3588
▁크리스토	-11.3588
▁연도	-11.3593
▁강사	-11.3599
▁반지	-11.3599
팡	-11.36
▁내주	-11.3604
▁集	-11.3605
▁알라	-11.361
멜	-11.3613
年	-11.3614
▁유년	-11.362
코스	-11.3621
▁리어	-11.3621
▁논산	-11.3623
꽃	-11.3624
▁194	-11.3625
밭	-11.3631
▁장안	-11.3631
▁버려	-11.3633
▁주행	-11.3633
▁누나	-11.3635
▁즈음	-11.3642
▁面	-11.3645
▁시스	-11.3659
▁니스	-11.3665
디스	-11.3666
▁스파르타	-11.3666
▁스펙트럼	-11.3666
▁오키나와	-11.3666
▁다이아몬드	-11.3666
▁바꿔	-11.3666
▁벽돌	-11.3669
▁제곱	-11.3674
▁신흥	-11.3674
▁중성자	-11.3678
▁교양	-11.3679
▁팅	-11.368
▁宋	-11.3688
▁왜성	-11.3688
▁구이	-11.369
co	-11.3692
▁고기	-11.3694
▁신규	-11.3696
▁맥주	-11.3697
▁花	-11.3699
▁토니	-11.3699
▁톈	-11.3701
▁삼각	-11.3703
▁무어	-11.3706
▁봐	-11.3708
▁트레이	-11.3719
▁태평	-11.3721
▁쇼트	-11.3727
▁청산	-11.3732
▁레이스	-11.3732
▁To	-11.3733
▁진공	-11.3734
▁홍문	-11.3735
▁지주	-11.3736
▁쓰인	-11.3738
▁육지	-11.3738
타이	-11.3739
▁옌	-11.374
▁서초	-11.3741
둔	-11.3741
▁단식	-11.3742
▁미소	-11.3743
교육	-11.3744
▁로렌	-11.3744
▁역설	-11.3745
▁92	-11.3746
ta	-11.375
르타	-11.3755
촉	-11.3757
▁실장	-11.3761
▁정주	-11.3761
▁첸	-11.3762
카타	-11.3762
동물	-11.3763
▁DC	-11.3763
ist	-11.3763
京	-11.3766
힘	-11.3767
된	-11.3767
▁향한	-11.3773
▁바이오	-11.3773
피아	-11.3775
▁득	-11.3776
레이	-11.3778
지붕	-11.3778
보살	-11.3781
▁스탠	-11.3784
업자	-11.3784
▁미노	-11.3786
▁명의	-11.3787
▁국사	-11.3793
픈	-11.3793
▁진흥	-11.3796
슭	-11.38
앓	-11.38
▁캠페인	-11.38
▁창고	-11.38
▁이글스	-11.3801
▁최상위	-11.3801
▁몬스터	-11.3802
▁총괄	-11.3805
모어	-11.3806
▁코믹스	-11.3808
▁KT	-11.3812
▁책봉	-11.3814
▁萬	-11.3814
▁네이버	-11.3814
▁이날	-11.3815
▁포격	-11.3824
▁스티	-11.3826
▁무라	-11.3827
▁오다	-11.3842
▁청하	-11.3842
▁후안	-11.3845
▁설화	-11.3849
▁바리	-11.3849
려서	-11.3854
▁論	-11.3862
▁여겼	-11.387
io	-11.3873
▁륜	-11.3875
퍼드	-11.3876
▁발기	-11.3879
▁차장	-11.3881
▁선사	-11.3881
▁첼	-11.3882
▁발라	-11.3884
▁흠	-11.389
▁성숙	-11.389
▁숨겨	-11.3891
▁Bo	-11.3897
▁후쿠	-11.3901
物	-11.3903
代	-11.3903
빗	-11.3904
빨	-11.3904
그룹	-11.3904
▁동국	-11.3908
하르트	-11.3915
▁비문	-11.3921
▁워터	-11.3928
▁신기	-11.3929
R	-11.3929
▁폴리스	-11.3931
▁九	-11.3934
▁익스프레스	-11.3935
▁제주특별자치도	-11.3935
梁	-11.3935
꽤	-11.3935
찮	-11.3935
▁걱정	-11.3935
TX	-11.3935
▁이순신	-11.3935
▁컨셉	-11.3935
▁블로그	-11.3935
▁吳	-11.3936
▁下	-11.3936
▁오디오	-11.3936
▁시칠리아	-11.3937
자와	-11.3937
▁거슬러	-11.3937
▁嘉	-11.3938
▁혈통	-11.3939
▁관념	-11.3941
▁특집	-11.3942
▁인력	-11.3948
▁연산군	-11.3948
▁흥선	-11.3949
▁정벌	-11.395
▁점성	-11.3952
▁보완	-11.3953
▁거쳤	-11.3954
▁스폰	-11.3957
▁검정	-11.396
會	-11.3962
▁어른	-11.3966
▁귀신	-11.3967
브라	-11.3972
▁인테르	-11.3973
▁侍	-11.3975
▁93	-11.3977
▁마츠	-11.3977
▁감지	-11.3984
▁197	-11.3987
▁안장	-11.3988
▁수련	-11.3992
pa	-11.3998
▁조언	-11.4004
▁주사	-11.4004
▁樂	-11.4005
▁카나	-11.4013
▁자유당	-11.4017
▁사본	-11.402
▁피아	-11.402
▁공리	-11.4023
▁잘라	-11.4024
키지	-11.4034
아이	-11.4034
主	-11.4035
▁백색	-11.4035
▁호위	-11.4035
닥	-11.4037
▁콤	-11.4038
꿀	-11.4041
겁	-11.4041
石	-11.4043
▁팩	-11.4049
▁모른다	-11.4053
▁남미	-11.4054
▁벨리	-11.4054
▁두루	-11.4054
j	-11.406
▁인격	-11.4068
스코	-11.4069
▁구호	-11.4069
서리	-11.407
▁계몽	-11.4071
뚝	-11.4072
▁준결승	-11.4072
▁총사령	-11.4072
▁가르쳤	-11.4073
▁무상	-11.4079
▁성전	-11.4081
▁격투	-11.4081
▁설탕	-11.4084
▁알제	-11.4087
▁良	-11.4092
▁유죄	-11.4092
▁도카이	-11.4092
피스	-11.4093
▁흐른	-11.4095
EO	-11.4095
▁게이지	-11.4097
▁野	-11.4099
▁신탁	-11.4101
▁탈환	-11.4101
▁京	-11.4106
▁몬트	-11.4107
▁몰려	-11.4108
▁최적	-11.411
▁모의	-11.411
▁기요	-11.411
▁플레	-11.4116
▁속했	-11.4116
▁89	-11.4117
펠	-11.4126
겔	-11.4129
▁보트	-11.4132
ca	-11.4136
ive	-11.4136
▁피신	-11.4138
▁서민	-11.414
아르	-11.414
행위	-11.4145
ism	-11.4152
▁열정	-11.4152
▁함양	-11.4163
▁도리	-11.4173
낭	-11.4177
▁예술가	-11.4179
▁비시	-11.418
툼	-11.4181
운동	-11.4183
士	-11.4183
經	-11.4184
平	-11.4184
혁명	-11.4186
▁쿠르	-11.4186
받침	-11.4187
▁지능	-11.4187
▁트레	-11.4188
▁빌려	-11.4189
▁나트	-11.4191
▁제대	-11.4206
▁르네상스	-11.4211
▁부르고뉴	-11.4211
▁엔지니어	-11.4211
▁인터내셔널	-11.4211
国	-11.4211
▁모니터	-11.4211
▁점성술	-11.4211
▁왜냐	-11.4212
▁오프	-11.4214
▁74	-11.4216
▁플래	-11.4216
▁지옥	-11.4217
▁서재	-11.4217
▁성사	-11.4222
▁유네스	-11.4223
▁평택	-11.4224
▁학기	-11.4225
▁일컬	-11.4226
▁월간	-11.4226
졸	-11.4226
▁정유	-11.4226
▁뇌물	-11.4227
▁연봉	-11.4235
함수	-11.4237
샤바	-11.4238
▁목재	-11.424
▁福	-11.4243
▁동래	-11.4243
▁서진	-11.4243
▁레인저	-11.4249
▁임용	-11.4249
▁터치	-11.4249
웰	-11.4256
▁寶	-11.4257
▁대위	-11.4257
▁공모	-11.426
▁레이저	-11.426
테르	-11.4261
타운	-11.4267
▁퍼스	-11.4269
▁니콜	-11.4269
▁회계	-11.4274
▁카메	-11.4276
▁부자	-11.4277
▁영문	-11.4278
스로	-11.4281
▁상해	-11.4282
▁김경	-11.4284
▁검찰청	-11.4285
▁Al	-11.4286
▁서사	-11.4291
▁John	-11.4299
▁팽	-11.4304
▁바흐	-11.4304
▁당일	-11.4304
▁구도	-11.4306
▁군정	-11.4309
▁원종	-11.431
▁춘추	-11.431
南	-11.4312
눈	-11.4313
▁남겨	-11.4316
▁시의	-11.4318
▁불편	-11.4319
▁가면	-11.4323
民	-11.4326
所	-11.4326
▁신중	-11.4333
▁백악	-11.4336
치현	-11.4345
▁비자	-11.4348
중국	-11.4351
▁증후군	-11.4351
▁송시열	-11.4351
▁벨라루스	-11.4352
▁제네바	-11.4352
▁생겨났	-11.4352
사기	-11.4352
▁쟈	-11.4353
▁프로레슬링	-11.4353
▁게르만	-11.4353
▁투르크	-11.4354
▁문재인	-11.4354
▁스위치	-11.4355
▁모았	-11.4356
▁갑작스	-11.4357
▁시베리아	-11.4358
▁파이프	-11.436
▁채권	-11.436
▁잔류	-11.4361
▁리틀	-11.4361
▁해석학	-11.4368
▁유연	-11.4368
▁너비	-11.4368
▁규범	-11.4372
▁모친	-11.4378
▁周	-11.4389
▁렀	-11.4389
▁평정	-11.439
▁엘리	-11.4398
▁커리	-11.44
델	-11.4406
▁토크	-11.4409
▁상자	-11.4411
클리	-11.4414
▁누가	-11.4414
▁해변	-11.4415
▁세균	-11.4416
▁추산	-11.442
▁누이	-11.4424
ate	-11.4425
▁트위	-11.4425
공신	-11.4426
▁쉬운	-11.4427
▁이재	-11.4427
ad	-11.4427
▁크리	-11.4428
▁가맹	-11.4428
▁대외	-11.4429
양함	-11.4431
▁기하	-11.4434
▁450	-11.4436
보드	-11.444
▁띤다	-11.4441
▁아베	-11.4447
▁영리	-11.4453
▁군산	-11.4454
▁It	-11.4459
▁파동	-11.446
삭스	-11.446
▁기습	-11.4463
后	-11.4465
싸	-11.4469
▁울리	-11.4469
▁소모	-11.447
토리	-11.447
▁할리	-11.4473
대장	-11.4476
츠키	-11.4482
▁사우	-11.4482
지름	-11.4484
▁링컨	-11.4491
▁카자흐	-11.4494
錄	-11.4494
▁휠	-11.4494
ri	-11.4495
▁둥글	-11.4495
▁시상식	-11.4496
▁陳	-11.4498
▁테니스	-11.4499
▁성모	-11.4499
▁아랫	-11.45
▁통틀	-11.4501
텔레스	-11.4502
▁언더	-11.4503
▁진짜	-11.4505
▁쌍둥이	-11.4505
▁원로	-11.4506
▁꼬	-11.4507
▁벽화	-11.4507
▁수령	-11.4507
럴	-11.4516
▁시흥	-11.4519
▁사이버	-11.4519
무기	-11.4521
▁극한	-11.4523
▁초창	-11.4523
▁무승	-11.4525
▁리라	-11.4526
▁극동	-11.4527
▁강희	-11.4528
▁정해진	-11.4528
▁증진	-11.4531
▁클린	-11.4533
▁기관총	-11.4536
▁모용	-11.4536
▁1592	-11.4536
▁출산	-11.4543
▁복선	-11.4546
▁돌리	-11.4556
대신	-11.4558
TF	-11.4559
▁근원	-11.4562
▁킥	-11.4564
nd	-11.4568
SL	-11.4571
▁신선	-11.4574
▁장로	-11.4574
▁앵	-11.458
▁서남	-11.4588
▁1868	-11.459
쿠스	-11.4591
대기	-11.4592
▁때때	-11.4593
▁사르	-11.4595
▁실려	-11.4607
▁두려워	-11.4611
바르	-11.4611
탱	-11.4615
CD	-11.4623
▁CJ	-11.4623
▁베스	-11.4626
▁외관	-11.463
▁릴	-11.4631
▁마르크스	-11.4633
▁대동	-11.4636
▁베르크	-11.4637
▁with	-11.4639
▁애틀랜	-11.4639
▁컴퍼니	-11.4639
▁느꼈	-11.4639
▁나눠	-11.4639
▁플랜	-11.4639
▁프랭크	-11.464
▁요르단	-11.464
▁KIA	-11.464
▁덩	-11.4641
▁1901	-11.4641
▁슬로	-11.4642
▁줄무늬	-11.4644
▁뉴턴	-11.4644
▁센티	-11.4645
▁평원	-11.4645
▁여겨졌	-11.4648
▁경찰청	-11.465
▁건담	-11.4653
▁선비	-11.4655
▁징계	-11.4657
▁교도	-11.4658
▁손가락	-11.4659
▁니아	-11.466
▁매매	-11.4663
▁종착	-11.4664
▁벨트	-11.4666
GC	-11.4668
▁면허	-11.4669
948	-11.4671
획	-11.4671
▁十	-11.4675
▁튀니	-11.4677
▁바울	-11.4679
닉	-11.4681
▁북방	-11.4682
▁아부	-11.4684
▁교통국	-11.4687
▁생식	-11.4699
▁상서	-11.4699
▁레온	-11.4701
▁보증	-11.4702
▁익스	-11.4703
▁모자	-11.4705
▁닿	-11.4715
▁당한다	-11.4717
롤	-11.4722
▁이마	-11.4726
▁무신	-11.4726
▁105	-11.4728
▁CF	-11.4728
▁고백	-11.4729
▁켈리	-11.4731
데르	-11.4733
▁청장	-11.4733
▁창시	-11.4736
바지	-11.4737
▁정말	-11.4738
산동	-11.4738
▁수성	-11.474
▁스프링	-11.4741
▁노인	-11.4756
▁크레	-11.4763
▁장성	-11.4767
▁렉	-11.4767
▁오바	-11.4769
≪	-11.4786
▁펜실베이니아	-11.4786
▁프랑수아	-11.4786
▁캔자스	-11.4786
▁동아일보	-11.4786
▁al	-11.4788
▁난징	-11.479
용소	-11.479
▁달한다	-11.4792
▁방침	-11.4793
▁초빙	-11.4793
▁발리	-11.4794
▁정렬	-11.4795
▁축적	-11.4798
▁증손	-11.4798
▁탤	-11.4799
▁극심	-11.48
▁伯	-11.48
▁시오	-11.4801
넬	-11.4805
▁치러진	-11.4807
▁음료	-11.4812
▁개구리	-11.4812
▁MS	-11.4813
▁#	-11.4815
▁던져	-11.4815
▁클라이	-11.4816
▁영장	-11.4817
콰도	-11.4817
▁블라디미	-11.4818
▁프란	-11.4818
민자	-11.4819
▁무제	-11.4821
▁One	-11.4821
▁림	-11.4823
▁요크	-11.4823
▁중형	-11.4824
▁조리	-11.4824
▁마오	-11.4825
▁문학상	-11.4825
▁사토	-11.483
▁주주	-11.483
▁마이어	-11.4833
▁왕복	-11.4834
해안	-11.4834
▁먼지	-11.4834
회장	-11.4839
▁들어간다	-11.484
▁사슬	-11.484
▁위탁	-11.4841
우치	-11.4841
▁전도	-11.4843
평평	-11.4843
▁도청	-11.4852
▁Ho	-11.4854
▁현저	-11.4859
벨	-11.4859
▁양호	-11.4862
▁스토	-11.4864
▁경보	-11.4871
▁룬	-11.4872
▁명백	-11.4873
▁세계관	-11.4873
▁드라	-11.4877
ul	-11.4877
▁수색	-11.4879
▁曹	-11.4891
▁원내	-11.4896
▁과도	-11.4896
▁후세	-11.4899
킷	-11.4903
칼	-11.4907
PS	-11.4908
▁밀양	-11.4909
▁닝	-11.4911
럿	-11.4914
▁350	-11.4915
林	-11.4919
興	-11.4919
▁해져	-11.4919
꿈	-11.4919
▁타카	-11.4924
▁무거운	-11.4936
▁컴파일	-11.4936
▁듀얼	-11.4937
▁좌표	-11.4938
▁콜레	-11.4939
▁불꽃	-11.494
▁잠재	-11.494
W	-11.4942
▁多	-11.4944
▁검출	-11.4945
▁방패	-11.4947
▁폭포	-11.4949
▁붐	-11.4952
▁표기법	-11.4953
▁봉안	-11.4953
▁풍경	-11.4955
▁공익	-11.4955
▁김포	-11.4956
총리	-11.4957
▁연승	-11.496
▁언어학	-11.496
▁난민	-11.4961
▁스틸	-11.4965
▁카디	-11.4966
▁민회	-11.4967
▁트리오	-11.497
▁합천	-11.4978
▁둔다	-11.4979
▁夫	-11.4981
▁널	-11.4982
▁觀	-11.4985
▁소실	-11.4986
▁향교	-11.4986
▁마천	-11.4987
▁항소	-11.499
▁센서	-11.4997
▁폭행	-11.5001
마드	-11.5002
▁문예	-11.5002
▁정인	-11.5003
▁헬리	-11.5007
▁그려진	-11.5011
▁고양	-11.5017
▁담겨	-11.5021
▁유체	-11.5022
▁승자	-11.5024
▁조반	-11.5025
우라	-11.5025
▁총무	-11.5028
▁장로교	-11.5029
▁시종	-11.503
▁나르	-11.5035
▁지질학	-11.5035
ak	-11.5038
▁미토	-11.5039
▁할지	-11.5041
잡이	-11.5043
주쿠	-11.5044
▁어휘	-11.5051
산면	-11.5051
▁김민	-11.5052
▁결제	-11.5053
F	-11.5057
얀	-11.5057
▁공단	-11.507
記	-11.5073
▁MC	-11.5073
넓	-11.5073
매매	-11.5074
▁가마	-11.5075
▁오세	-11.508
▁02	-11.5082
▁마찰	-11.5086
▁사우디아라비아	-11.5087
알코올	-11.5087
▁마운트	-11.5087
▁올림피아	-11.5087
▁구해	-11.5088
▁컬러	-11.5089
▁구마모토	-11.509
갈색	-11.5092
▁징병	-11.5092
▁농림	-11.5094
▁센트	-11.5095
▁총선거	-11.5095
▁김규	-11.5096
메이크	-11.5097
모리	-11.5097
▁륙	-11.5098
▁唐	-11.5099
▁낙선	-11.5105
▁묘역	-11.5107
▁급수	-11.5109
▁경희	-11.511
▁견제	-11.5112
▁심야	-11.5113
▁헬기	-11.5117
▁육체	-11.5118
▁예언	-11.5122
▁만일	-11.5125
▁플러스	-11.5125
맹	-11.5126
▁효고	-11.5128
▁신약	-11.5131
테스	-11.5132
▁미루	-11.5132
▁청소	-11.5135
▁보이스	-11.5136
가미	-11.514
▁兵	-11.514
ma	-11.514
▁허위	-11.5144
▁부드러	-11.5144
먼스	-11.5144
▁村	-11.5151
▁담보	-11.5152
▁RNA	-11.516
▁플라이	-11.5164
▁193	-11.5165
수단	-11.5165
▁El	-11.5166
▁크리스티	-11.5168
잠	-11.5174
▁차기	-11.5174
▁축하	-11.5176
▁드로	-11.5178
▁일자	-11.5179
▁사절	-11.5182
▁파산	-11.5182
비나	-11.5191
▁대강	-11.5191
▁우르	-11.5194
▁監	-11.5195
주말	-11.5197
▁연합회	-11.5198
▁경관	-11.5203
▁산다	-11.5204
▁경부	-11.521
뇨	-11.5217
帝	-11.5228
名	-11.5229
堂	-11.5229
心	-11.5229
原	-11.5229
德	-11.5229
달리	-11.5231
▁용암	-11.5231
콜	-11.5232
▁티스	-11.5234
▁와인	-11.5234
▁뉘	-11.5237
▁신한	-11.5238
▁바이올린	-11.5241
▁프로덕션	-11.5241
▁미시시피	-11.5241
▁나란히	-11.5241
▁칼뱅	-11.5242
▁금요일	-11.5247
▁鳳	-11.5247
▁포장	-11.525
▁수확	-11.5251
▁名	-11.5253
▁도왔	-11.5259
▁앨	-11.5261
▁타협	-11.5263
▁황해	-11.5264
▁申	-11.5269
▁김윤	-11.527
▁확신	-11.527
▁평일	-11.527
▁토마	-11.527
▁노태	-11.5271
▁살리	-11.5272
▁코카	-11.5275
▁체중	-11.5277
▁분출	-11.528
▁우세	-11.5285
▁법령	-11.5286
시로	-11.529
▁주름	-11.5291
▁直	-11.5295
▁개소	-11.5301
▁자음	-11.5303
▁상공	-11.5303
▁An	-11.5309
ge	-11.5311
▁경신	-11.5311
▁문경	-11.5312
먹	-11.532
제프	-11.532
리비아	-11.5325
ae	-11.5327
▁알프레	-11.5333
▁악장	-11.5334
▁임원	-11.5342
▁化	-11.5359
▁애니	-11.5364
▁수지	-11.5374
鮮	-11.5386
將	-11.5388
▁바른	-11.5391
▁125	-11.5393
ern	-11.5395
wiki	-11.5397
▁프랑크푸르트	-11.5397
▁에스파냐	-11.5397
▁일어날	-11.5398
▁카운티	-11.5398
▁복소수	-11.5401
▁젖	-11.5401
▁지켰	-11.5401
▁로고	-11.5401
▁좌측	-11.5401
문화	-11.5402
▁철폐	-11.5403
아웃	-11.5403
황후	-11.5403
▁게릴라	-11.5404
▁玉	-11.5404
▁So	-11.5404
▁스핀	-11.5405
두리	-11.5406
▁탄약	-11.5407
▁퍼센	-11.5408
로소	-11.5409
▁스톡	-11.541
▁검열	-11.5411
▁메트로	-11.5412
▁사슴	-11.5413
▁반도체	-11.5413
ow	-11.5417
▁드레스	-11.5417
▁평민	-11.5418
▁la	-11.5419
레슬링	-11.5421
▁저격	-11.5421
▁시모	-11.5421
▁분광	-11.5422
▁친왕	-11.5426
▁레일	-11.5427
ut	-11.5428
▁그레이	-11.5429
▁우에	-11.5437
▁화살	-11.5441
▁일산	-11.5446
▁사학	-11.5446
▁교정	-11.5448
▁천도	-11.5448
▁낙하	-11.545
▁어뢰	-11.5452
▁간사	-11.5455
▁캉	-11.5455
▁경호	-11.5457
스리	-11.5458
▁원했	-11.5462
▁아키타	-11.5466
▁제이	-11.5467
ard	-11.5468
CAF	-11.547
▁리얼	-11.5476
제학	-11.5477
▁구절	-11.5477
▁엑	-11.5478
▁황실	-11.5482
▁그래	-11.5482
▁감자	-11.5483
산리	-11.5486
▁트라이	-11.5486
one	-11.5487
▁주부	-11.549
▁단단	-11.5493
▁본국	-11.5496
▁전속	-11.5498
FC	-11.5499
▁시에	-11.5501
▁이긴	-11.5505
▁들어온	-11.5516
화물	-11.5518
▁나미	-11.5521
카미	-11.5525
▁외야	-11.5534
way	-11.5535
뒀	-11.5543
▁그대	-11.5543
▁온대	-11.5548
馬	-11.5549
▁수동	-11.5549
▁字	-11.555
▁기인	-11.5552
▁농사	-11.5552
池	-11.5556
▁스릴러	-11.5556
▁옥스퍼드	-11.5556
▁School	-11.5556
▁제퍼슨	-11.5557
▁아미타	-11.5558
▁코끼리	-11.5559
마이오	-11.5559
▁가구	-11.556
▁유닉스	-11.556
▁제재	-11.5562
▁카타르	-11.5563
▁좌절	-11.5564
▁척추	-11.5567
▁소방서	-11.5575
▁염소	-11.5577
▁토모	-11.5578
▁후진	-11.5579
▁예배	-11.5579
▁고속도	-11.5579
▁행해	-11.5579
▁달했	-11.5581
▁실재	-11.5586
리드	-11.5586
▁Pa	-11.5591
▁수군	-11.5592
▁국악	-11.5592
▁부스	-11.5593
▁출석	-11.5594
▁충전	-11.5595
▁순회	-11.5596
다지	-11.5598
▁페이스	-11.5598
▁군중	-11.5608
대군	-11.5612
▁돌연	-11.5613
피트	-11.5618
▁대역	-11.5622
▁歌	-11.5623
▁퍼지	-11.5623
▁세르	-11.5623
▁만세	-11.5624
▁壽	-11.5625
▁떨	-11.5626
▁시골	-11.5627
▁산란	-11.5627
▁도장	-11.5629
법인	-11.563
aw	-11.5634
로프	-11.5635
▁col	-11.5635
▁우위	-11.5635
▁신생	-11.5637
▁DS	-11.5638
▁우물	-11.5639
▁아미	-11.5639
▁고쳐	-11.5643
▁세네	-11.5645
▁추상	-11.5647
▁파나	-11.5648
렐	-11.5652
▁마디	-11.5652
러미	-11.5652
▁턱	-11.5655
켜	-11.566
▁공무	-11.566
▁장려	-11.5665
▁황도	-11.5671
나리	-11.5672
▁초과	-11.5672
나마	-11.5673
억	-11.5674
리크	-11.5677
▁호세	-11.5678
▁사로잡	-11.5678
▁보위	-11.5679
im	-11.5681
▁프라이	-11.5686
▁동조	-11.5687
▁은데	-11.5688
▁고베	-11.5691
▁끌려	-11.5692
▁』(	-11.5692
▁영국인	-11.5694
age	-11.5697
敎	-11.5699
은이	-11.5708
▁계시	-11.5709
께	-11.5709
▁이슈	-11.571
양시	-11.5712
슬로바키아	-11.5712
▁슬로베니아	-11.5717
▁프랭클린	-11.5717
▁라이브러리	-11.5717
▁평안북도	-11.5717
▁멜로디	-11.5717
▁페르디난	-11.5717
▁다항식	-11.5718
▁스타리그	-11.5718
▁玄	-11.5719
즈카	-11.5719
▁충북	-11.572
▁옵	-11.5721
▁슬로바키아	-11.5722
▁천문대	-11.5724
▁우울	-11.5727
▁판례	-11.5728
▁연못	-11.5729
▁서산	-11.573
▁토양	-11.573
▁경영학	-11.5731
▁사위	-11.5731
▁벌금	-11.5736
▁계정	-11.5737
▁거울	-11.5746
▁옥천	-11.5746
▁타임스	-11.5749
▁御	-11.5749
▁源	-11.5749
▁교육청	-11.5749
▁반박	-11.5755
▁김현	-11.5755
▁공약	-11.5756
▁잦	-11.5757
▁바치	-11.5757
▁침체	-11.5758
▁삼국지	-11.5761
▁미르	-11.5763
▁허정	-11.5763
▁개교	-11.5764
▁해남	-11.5767
여래	-11.577
▁국유	-11.5774
▁발령	-11.5784
▁성취	-11.5785
▁인형	-11.5785
HL	-11.579
▁정변	-11.579
▁캔	-11.5791
▁오비	-11.5793
▁김창	-11.5793
▁이어진다	-11.5794
▁광물	-11.5797
▁간호	-11.5799
▁카우	-11.58
▁미카	-11.58
▁실체	-11.5801
▁co	-11.5801
▁의뢰	-11.5806
la	-11.5807
▁필사	-11.5807
▁1892	-11.5807
▁몰리	-11.5808
▁부설	-11.581
▁암시	-11.5812
ix	-11.5818
▁가축	-11.5823
▁내정	-11.5824
네그로	-11.5833
▁후사	-11.584
노스	-11.5842
▁함정	-11.5843
레이터	-11.5847
라인	-11.5847
▁카롤	-11.5847
▁해명	-11.5848
▁나간다	-11.585
ent	-11.585
FL	-11.5851
▁지침	-11.5851
▁조인	-11.5852
라과이	-11.5858
▁동학	-11.5863
▁포터	-11.5867
▁키워	-11.5872
▁무너	-11.5875
흘	-11.5879
下	-11.5879
定	-11.5879
▁느껴	-11.588
셋	-11.588
▁허리케인	-11.5881
▁삼성전자	-11.5881
▁넘어갔	-11.5882
▁합스부르크	-11.5882
▁헬싱	-11.5882
▁혼혈	-11.5882
▁답변	-11.5883
▁先	-11.5883
▁아미노	-11.5883
▁덮여	-11.5884
벨트	-11.5885
▁니혼	-11.5889
▁마이너	-11.589
▁천장	-11.5892
▁머신	-11.5892
▁발칸	-11.5892
▁우체국	-11.5894
▁보리	-11.5895
교회	-11.5896
▁학설	-11.5902
▁한테	-11.5904
▁甲	-11.5905
▁초월	-11.5905
▁JT	-11.591
▁세속	-11.591
▁댐	-11.5913
▁페니	-11.5915
▁아벨	-11.5919
▁응시	-11.5922
▁배틀	-11.5925
大學	-11.5928
▁이조	-11.5943
▁賢	-11.5945
▁파인	-11.5952
개미	-11.5956
▁떡	-11.5959
▁러시	-11.5965
▁슈트	-11.5965
ng	-11.5966
겨져	-11.5967
▁루시	-11.597
사회	-11.5973
▁불타	-11.5985
▁시정	-11.5987
▁이산화	-11.5989
ian	-11.5989
ary	-11.5991
▁마당	-11.5991
▁머무	-11.5994
▁상급	-11.6
▁AS	-11.6
▁거제	-11.601
▁정해	-11.6017
이라	-11.6019
▁게스트	-11.6026
꺼	-11.6039
▁He	-11.604
▁신정	-11.6042
ti	-11.6042
늄	-11.6043
콥	-11.6044
▁결사	-11.6044
▁아키텍처	-11.6048
▁특별자치시	-11.6048
▁후지와라	-11.6048
▁브라더스	-11.6049
케이션	-11.6049
▁크리스티안	-11.605
▁왕세자	-11.6052
▁평행	-11.6055
▁朱	-11.6058
▁보인	-11.6059
▁우측	-11.6061
▁스트로	-11.6063
▁미쳤	-11.6065
▁약혼	-11.6065
▁사탕	-11.6068
▁탱	-11.6068
▁受	-11.6069
ap	-11.607
▁키우	-11.6072
조건	-11.6078
▁인질	-11.6078
▁be	-11.6079
▁섹	-11.6082
▁부를	-11.6084
▁윤보	-11.6084
▁음향	-11.6085
ot	-11.6086
▁감마	-11.6088
▁정적	-11.609
▁Ma	-11.6092
▁확고	-11.6095
아지	-11.6096
▁공소	-11.6101
956	-11.6105
▁미나	-11.6112
ong	-11.6114
ance	-11.6116
마루	-11.6118
▁선명	-11.6119
▁국소	-11.612
▁Do	-11.612
▁대서양	-11.6121
▁습지	-11.6123
▁스파	-11.6124
▁송신	-11.6126
▁위키	-11.6132
▁성운	-11.6134
타민	-11.6136
▁쳤	-11.6137
▁산타	-11.6148
블린	-11.615
▁난이	-11.6152
▁붙인	-11.6152
▁치명	-11.6154
▁사우루스	-11.6156
타임	-11.6156
▁종파	-11.6159
▁根	-11.6161
▁전년	-11.6165
▁보수주의	-11.6166
▁빌라	-11.6168
▁적당	-11.6171
▁김병	-11.6171
▁영동	-11.6171
▁상고	-11.6171
▁語	-11.6173
로코	-11.6173
▁신원	-11.6178
▁블리	-11.6181
▁중추	-11.6185
▁대처	-11.6186
▁대폭	-11.6191
딜	-11.6191
▁운수	-11.6196
▁체스	-11.6202
▁끄	-11.6203
부인	-11.6206
▁믹	-11.6206
▁리치	-11.6207
ren	-11.6208
▁예시	-11.6212
▁re	-11.6213
▁믹스	-11.6215
700	-11.6216
天	-11.6217
▁http	-11.6217
▁노르망디	-11.6217
▁땃쥐	-11.6217
▁케임브리지	-11.6217
▁퀘벡	-11.6217
르바이잔	-11.6217
▁도마뱀붙이	-11.6217
▁끊임없	-11.6217
▁손꼽	-11.6217
▁후쿠시마	-11.6217
▁Black	-11.6218
▁용이	-11.6218
▁힌두	-11.6219
▁챌린지	-11.6219
▁드러났	-11.6219
▁만료	-11.622
▁광둥	-11.622
▁재활	-11.622
▁협박	-11.6221
▁얹	-11.6221
닭	-11.6221
▁연쇄	-11.6222
▁캄보	-11.6222
맛	-11.6222
갖	-11.6222
▁신속	-11.6222
▁소행성	-11.6223
▁상반	-11.6224
반기	-11.6225
나미	-11.6226
▁갤러	-11.6227
▁끝났	-11.6227
▁대거	-11.6228
▁위촉	-11.6228
▁낫	-11.623
▁모셔	-11.6231
▁장흥	-11.6231
▁마르크스주의	-11.6232
▁조지프	-11.6232
▁오지	-11.6232
▁반정	-11.6233
▁실망	-11.6233
▁아제	-11.6237
▁살려	-11.6241
▁뷔	-11.6247
▁奉	-11.6248
▁실무	-11.6249
▁碑	-11.6251
na	-11.6254
▁벌인	-11.6257
▁메타	-11.6258
▁골프	-11.626
▁保	-11.6262
▁齋	-11.6262
▁치안	-11.6272
▁車	-11.6277
▁여인	-11.6289
보내	-11.6291
일보	-11.6293
no	-11.6296
미아	-11.631
▁수습	-11.6312
▁쉐	-11.6315
▁IT	-11.6321
추세	-11.6322
▁공감	-11.6329
▁서정	-11.6331
▁비유	-11.6334
▁분비	-11.6335
▁Na	-11.6338
▁마니	-11.634
▁전단	-11.634
▁맥스	-11.6341
▁미라	-11.6342
▁보성	-11.6351
바이	-11.6355
축조	-11.6356
▁패한	-11.6359
▁Am	-11.636
▁대명	-11.636
▁주화	-11.6361
▁지출	-11.6367
▁장원	-11.6377
▁상담	-11.6377
▁앤드	-11.6384
광학	-11.6385
▁탐색	-11.6385
▁전지	-11.6386
▁문구	-11.6389
▁북아일랜드	-11.639
▁알루미늄	-11.639
津	-11.639
▁다람쥐	-11.639
▁알파벳	-11.639
▁THE	-11.639
▁옥수수	-11.639
▁야마구치	-11.639
▁반기	-11.6391
▁윌슨	-11.6391
▁정반	-11.6391
▁惠	-11.6391
았	-11.6391
▁시에라	-11.6393
▁헤센	-11.6393
게이머	-11.6394
얄	-11.6394
▁냉각	-11.6394
▁장례식	-11.6394
▁뮤지션	-11.6395
태수	-11.6395
字	-11.6396
프톨레	-11.6397
폼	-11.6397
▁佐	-11.6397
田	-11.6397
▁안드레아	-11.6399
▁경인	-11.6399
▁ro	-11.6399
▁델타	-11.6399
▁井	-11.64
▁鐵	-11.64
▁후유	-11.6406
▁브리튼	-11.6407
▁소나무	-11.6407
▁왈	-11.6409
▁작센	-11.641
홀름	-11.641
▁알프스	-11.641
▁熙	-11.6412
▁리비아	-11.6412
▁나올	-11.6414
▁응원	-11.6414
▁우치	-11.6414
▁愛	-11.6415
▁투르	-11.6415
▁물리치	-11.6418
▁참사	-11.6419
▁益	-11.6421
원수	-11.6423
▁평지	-11.6423
▁起	-11.6424
ci	-11.6425
▁니카	-11.6426
▁達	-11.6427
▁도루	-11.6429
▁소대	-11.6431
▁부채	-11.6433
▁소생	-11.6433
▁年	-11.6436
▁OB	-11.6436
de	-11.6438
▁밀러	-11.6438
▁아름	-11.6438
▁헌병	-11.6442
▁군함	-11.6443
▁극대	-11.6443
▁색소	-11.6444
ty	-11.6445
불교	-11.6446
▁볼프	-11.6447
▁리터	-11.6449
▁그루	-11.6453
▁꼽힌	-11.6453
▁臺	-11.6453
▁功	-11.6456
▁주심	-11.6456
ig	-11.6463
▁理	-11.6463
▁外	-11.6468
학계	-11.6468
디나	-11.6469
▁타석	-11.647
ter	-11.647
▁Part	-11.6481
▁두꺼	-11.6484
정부	-11.6484
▁USS	-11.6491
▁레전	-11.6491
▁법관	-11.6492
트릭	-11.6496
에다	-11.6497
▁우파	-11.6499
마쓰	-11.6501
▁상연	-11.6503
ana	-11.6505
▁코코	-11.6518
▁안티	-11.6521
자루	-11.6522
▁이윤	-11.6524
▁증인	-11.6526
▁治	-11.6528
쩌	-11.653
▁대패	-11.6531
▁아카	-11.6532
▁호프	-11.6535
▁공영	-11.6536
▁파도	-11.6536
▁적분	-11.6539
▁장제	-11.6539
▁보석	-11.654
▁나스	-11.6542
▁교대	-11.6543
▁풍자	-11.6544
▁일조	-11.6546
▁따른다	-11.6547
▁보일	-11.6553
▁1600	-11.6556
▁III	-11.6556
▁릿	-11.6557
폴	-11.6557
▁안성	-11.6559
쁘	-11.6561
▁브르타뉴	-11.6565
▁협주곡	-11.6565
▁온타리오	-11.6565
▁동대문	-11.6565
▁들어갈	-11.6566
▁스크립트	-11.6566
▁늘어났	-11.6566
▁라이언	-11.6568
▁과실	-11.6571
▁패널	-11.6573
첨	-11.6574
體	-11.6574
韓	-11.6575
成	-11.6576
겸	-11.6576
▁필립	-11.658
▁해적	-11.6581
▁끓	-11.6582
▁세븐	-11.6582
▁괴물	-11.6584
▁。	-11.6585
▁쿤	-11.6588
▁대피	-11.6588
▁오노	-11.6592
▁무로	-11.6593
▁z	-11.6595
▁만년	-11.6596
테이션	-11.6598
▁네스	-11.6603
▁체조	-11.6603
▁기차	-11.6605
▁신축	-11.6606
▁선배	-11.6607
틀리	-11.6613
▁우호	-11.6615
MA	-11.6626
▁공손	-11.6627
▁戰	-11.6627
▁기수	-11.6628
▁밸	-11.663
▁傳	-11.6633
▁구약	-11.6633
▁마블	-11.6636
풀이	-11.6637
▁화순	-11.664
▁이토	-11.664
▁常	-11.6642
▁후배	-11.6644
▁일방	-11.6645
▁見	-11.6645
▁220	-11.6646
메이	-11.6646
▁화약	-11.6654
▁대포	-11.6655
▁교통부	-11.6656
▁보복	-11.6661
▁전구	-11.6661
▁號	-11.6663
▁넨	-11.6664
▁스트라이	-11.6668
am	-11.6669
▁감수	-11.667
▁절도	-11.6678
역학	-11.6688
ness	-11.6693
▁남구	-11.6693
▁이광	-11.6695
▁붕	-11.6695
▁등용	-11.6696
NU	-11.6698
프닝	-11.6699
▁하워드	-11.6699
▁아테	-11.6702
▁서장	-11.6704
드슨	-11.6715
▁간신	-11.6717
▁잡혀	-11.6717
무원	-11.6718
ler	-11.672
사업	-11.672
승지	-11.6721
▁트로	-11.6722
▁비주	-11.6725
▁수료	-11.6728
▁아가	-11.6731
▁호기	-11.6734
▁오마	-11.6737
▁비밀리	-11.6738
▁모인	-11.6738
▁밝힌	-11.6741
▁전격	-11.6742
▁달걀	-11.6744
▁룩셈부르크	-11.6744
▁상트페테르부르크	-11.6744
▁혐오	-11.6744
▁Music	-11.6744
▁괴롭	-11.6745
▁시뮬레이션	-11.6745
▁유수	-11.6745
▁대구광역시	-11.6745
▁댓	-11.6745
▁양키스	-11.6746
▁포획	-11.6746
▁뢰	-11.6747
▁나쁜	-11.675
▁성체	-11.675
▁메일	-11.6752
장군	-11.6752
▁토끼	-11.6753
▁오쿠	-11.6754
▁그레이트	-11.6754
▁벤처	-11.6755
▁허리	-11.6755
命	-11.6756
▁유치원	-11.6756
東	-11.6758
mo	-11.6758
래퍼	-11.6758
·	-11.6758
▁헌신	-11.6761
▁》("	-11.6762
▁퇴적	-11.6763
▁버마	-11.6764
▁아틀레	-11.6766
▁七	-11.6767
▁鄕	-11.6767
▁SO	-11.6768
ha	-11.6769
베르크	-11.6771
▁수축	-11.6773
▁행방	-11.6773
▁디렉터	-11.6775
▁사카이	-11.6777
▁Con	-11.6779
▁개화	-11.6779
▁Rock	-11.6779
▁-)	-11.6784
▁배우자	-11.6784
▁工	-11.6791
▁분당	-11.6795
▁손잡	-11.6795
▁윌리엄스	-11.6797
▁천재	-11.6797
▁양심	-11.68
▁濟	-11.68
▁어려워	-11.6801
▁영남	-11.6804
▁차가	-11.6805
▁라이더	-11.681
▁실록	-11.6814
span	-11.6816
▁양평	-11.6819
▁남양주	-11.682
▁수심	-11.6821
▁경과	-11.6828
피언	-11.6834
▁간선	-11.6836
▁星	-11.684
거지	-11.6841
▁칼라	-11.6845
▁버클	-11.6845
▁정화	-11.6848
▁바트	-11.6848
▁가루	-11.685
▁패스	-11.6852
▁st	-11.6852
▁남용	-11.6853
▁Red	-11.6854
▁해진다	-11.6855
▁김제	-11.6856
▁포고	-11.6857
▁CO	-11.686
성계	-11.686
▁루카	-11.6861
▁임상	-11.6866
▁여래	-11.6869
▁들려	-11.6872
드라	-11.6872
▁보라	-11.6881
▁민정	-11.6885
▁이룬	-11.6887
▁룽	-11.689
▁안치	-11.6897
페이	-11.6898
▁덤	-11.6899
ory	-11.6903
뱅	-11.6903
▁진수	-11.6906
롬	-11.6909
▁곁	-11.6912
▁숙부	-11.6912
▁고발	-11.6913
▁다룬다	-11.6914
▁더글러스	-11.6925
▁아폴로	-11.6925
彦	-11.6925
志	-11.6925
篇	-11.6925
▁프랜차이	-11.6925
▁일리노이	-11.6925
▁메릴랜드	-11.6926
▁솔로몬	-11.6926
▁파이널	-11.6927
▁클라우드	-11.6927
▁kt	-11.6927
GA	-11.6927
괴	-11.693
▁청춘	-11.693
▁右	-11.6931
▁禪	-11.6933
▁인프라	-11.6934
▁퍼포	-11.6935
히트	-11.6936
▁대출	-11.6939
▁得	-11.694
▁帝	-11.694
밋	-11.6941
▁반역	-11.6941
▁집결	-11.6943
長	-11.6943
▁對	-11.6946
▁靈	-11.6946
LS	-11.6946
트로이	-11.6949
▁詩	-11.6949
▁실권	-11.6953
티야	-11.6954
▁전전	-11.6954
▁리보	-11.6958
▁앤드루	-11.696
▁아즈	-11.6963
▁워커	-11.6968
▁케이스	-11.6969
▁상법	-11.6969
▁자선	-11.697
▁돌기	-11.6972
▁쌍대	-11.6975
tic	-11.6977
▁"),	-11.6982
▁예고	-11.6988
▁쟁	-11.6988
▁매카	-11.6989
▁102	-11.6995
▁슐	-11.6997
do	-11.6998
▁관광지	-11.7006
랑카	-11.7009
▁무스	-11.7013
▁신조	-11.7013
▁주조	-11.7015
▁신민	-11.7016
▁진전	-11.7019
▁교육부	-11.7023
▁원통	-11.7024
▁가신	-11.7026
▁각색	-11.7026
▁원심	-11.7032
▁단의	-11.7033
▁셸	-11.7036
ni	-11.7036
▁준주	-11.7037
▁중성	-11.7041
▁박정	-11.7046
pi	-11.7046
▁는다면	-11.7053
▁아돌	-11.7056
▁이어진	-11.7058
▁아산	-11.7058
Q	-11.7064
▁문종	-11.7065
ida	-11.7068
▁비추	-11.7073
차기	-11.7074
다르	-11.7075
nt	-11.7078
스티	-11.708
▁주어진다	-11.7083
베르트	-11.7083
▁선장	-11.7083
▁겔	-11.7087
▁건전	-11.7088
▁유구	-11.7089
▁비스	-11.709
▁기증	-11.709
▁All	-11.7095
▁모은	-11.7096
▁남한	-11.7101
가락	-11.7104
▁프레이	-11.7105
▁우메	-11.7105
NG	-11.7106
▁조세	-11.7107
▁우즈베	-11.7109
▁커뮤니	-11.7109
▁스트리	-11.7109
▁재현	-11.711
▁낙동강	-11.7111
▁백화점	-11.7111
▁콤팩트	-11.7111
▁냄새	-11.7111
▁Life	-11.7111
▁유니폼	-11.7111
▁로맨스	-11.7111
▁그랜트	-11.7112
▁싸워	-11.7112
▁탁월	-11.7112
▁바이킹	-11.7112
▁植	-11.7112
▁스트라이크	-11.7113
▁깨달	-11.7113
▁National	-11.7113
▁림프	-11.7114
▁American	-11.7114
▁낙양	-11.7115
▁룰	-11.7115
▁데모	-11.7115
▁아레나	-11.7117
▁횡단	-11.7117
▁야마토	-11.7117
▁김옥	-11.7119
▁찐	-11.7122
▁객체	-11.7122
팽	-11.7124
▁쓰여진	-11.7125
▁구경	-11.7127
▁아카데미상	-11.7127
est	-11.7129
科	-11.713
▁덧	-11.713
▁날아	-11.7131
▁가나가와	-11.7131
큰	-11.7132
벌레	-11.7132
▁석가	-11.7133
▁농산	-11.7134
▁야쿠	-11.7138
▁And	-11.714
▁올라간다	-11.7141
▁전래	-11.7142
▁실존	-11.7144
프스	-11.7144
▁우유	-11.7144
▁입주	-11.7146
▁산요	-11.7147
▁코스타	-11.7148
▁초상	-11.7149
미즈	-11.7151
▁곶	-11.7154
▁폴라	-11.7157
▁원더	-11.7159
▁뒤집	-11.7161
▁직통	-11.717
▁양반	-11.7175
세우	-11.7176
▁비준	-11.7178
ー	-11.7179
▁주지	-11.7188
▁총통	-11.7189
▁작년	-11.7194
▁세미	-11.7194
ake	-11.7197
▁도미니	-11.7201
▁배아	-11.7203
▁피오	-11.7205
천리	-11.7216
▁정문	-11.7222
▁안산	-11.7222
▁by	-11.7224
▁블라	-11.7225
구리	-11.7227
▁기숙	-11.723
▁불신	-11.723
▁안개	-11.7233
비크	-11.7233
▁렘	-11.7234
▁국영	-11.7234
▁성문	-11.7234
▁아리	-11.724
▁色	-11.724
카이	-11.7241
파리	-11.7244
박스	-11.7246
동참	-11.7248
▁니즈	-11.7255
▁j	-11.7257
안군	-11.7257
▁GO	-11.7258
▁대치	-11.7258
김	-11.726
▁라카	-11.7272
보이	-11.7277
▁피치	-11.7281
▁심해	-11.7289
렉스	-11.7289
▁광무	-11.729
화학	-11.7292
▁더비	-11.7294
▁관악	-11.7297
▁그랑프리	-11.7299
呂	-11.7299
▁케네디	-11.7299
▁다이빙	-11.73
▁포르투	-11.7301
▁케냐	-11.7302
▁연꽃	-11.7303
랍	-11.7305
▁청룡	-11.7305
▁카프	-11.7305
덩이	-11.7306
▁낭만	-11.7308
▁Star	-11.7309
▁맥락	-11.7309
▁탄자	-11.7309
▁듀오	-11.731
티스	-11.7312
▁비늘	-11.7313
CN	-11.7313
덤	-11.7315
▁절망	-11.7316
▁탑신	-11.7316
▁뻔	-11.7317
컨	-11.7318
▁쥐과	-11.7319
넛	-11.7319
▁오키	-11.7321
딸	-11.7323
島	-11.7324
▁남매	-11.7324
뛰	-11.7324
베트남	-11.7324
em	-11.7325
▁피츠	-11.7326
▁가환	-11.7328
▁플래시	-11.7328
▁문고	-11.7328
▁위로	-11.733
▁체크	-11.733
▁붕어	-11.733
▁어원	-11.7331
▁이승	-11.7332
▁이복	-11.7333
▁천하	-11.7335
▁알렉산드리	-11.7336
▁회관	-11.7337
▁종업	-11.7338
도스	-11.7348
▁청색	-11.7355
▁유료	-11.7357
▁시중	-11.7368
▁NC	-11.7373
▁광대	-11.7374
▁매달	-11.7379
▁度	-11.7379
▁조수	-11.738
▁견인	-11.7386
▁수량	-11.7391
▁내려졌	-11.7391
▁대좌	-11.7392
▁아나톨리	-11.7395
▁주머니	-11.7401
▁단면	-11.7401
▁인산	-11.7404
ag	-11.7405
▁서리	-11.7406
▁볼로	-11.741
▁Ar	-11.7414
▁자결	-11.7414
▁염기	-11.7416
▁유방	-11.742
▁치러	-11.7421
▁히사	-11.7421
▁사라진	-11.7422
스카	-11.7423
의장	-11.7424
▁노바	-11.7433
▁바스	-11.7435
닉스	-11.7438
▁어미	-11.7439
▁내란	-11.744
▁야드	-11.7447
▁카를로	-11.7452
시스트	-11.7459
▁연화	-11.7461
▁상점	-11.7461
▁무실	-11.7462
▁올드	-11.7463
▁제프	-11.7465
▁메라	-11.7469
▁콰	-11.748
▁William	-11.7485
▁왼손	-11.7492
껏	-11.7492
볍	-11.7492
▁가벼운	-11.7492
▁깨끗	-11.7492
▁안테나	-11.7492
▁아치	-11.7492
▁즐겨	-11.7493
▁칼럼	-11.7493
▁鍾	-11.7493
▁충렬	-11.7493
▁관현악단	-11.7494
▁스칼라	-11.7494
▁핑크	-11.7496
▁혜택	-11.7496
▁신도비	-11.7497
▁이뤄진	-11.7498
▁식별	-11.75
▁슬라브	-11.7504
▁아우구스	-11.7504
▁벌여	-11.7505
▁제인	-11.7508
치오	-11.7509
▁加	-11.751
▁MTV	-11.751
▁발산	-11.7511
界	-11.7513
미암	-11.7515
▁마르코	-11.7515
▁단층	-11.7515
▁덩어리	-11.7516
▁친족	-11.7517
空	-11.7519
議	-11.7519
프랑크	-11.7519
▁나노	-11.752
958	-11.7521
▁흔한	-11.7522
▁둥지	-11.7522
레스토	-11.7523
▁遠	-11.7523
▁울프	-11.7527
▁정성	-11.7527
▁전라	-11.7531
▁시선	-11.7532
▁체인	-11.7532
▁강철	-11.7536
▁代	-11.7536
▁War	-11.7538
▁산출	-11.754
▁에디션	-11.754
▁소행	-11.7541
트르	-11.7543
▁열심	-11.7544
협회	-11.7545
▁반포	-11.7545
▁짱	-11.7546
▁재해	-11.7547
á	-11.7548
▁테라	-11.7549
▁자작	-11.7549
리나	-11.7556
▁정려	-11.7557
▁복식	-11.7558
▁바빌	-11.7561
ey	-11.7562
트림	-11.7564
▁피지	-11.7568
란트	-11.7569
▁현행	-11.7572
▁퀴	-11.7572
▁페로	-11.7573
▁눈치	-11.7574
▁동형	-11.7579
▁대나무	-11.7585
ang	-11.7587
▁신동	-11.7589
▁관제	-11.7592
▁조형	-11.7595
▁조부	-11.7596
클랜드	-11.7597
토스	-11.7599
퍼런	-11.76
▁통역	-11.76
▁정보원	-11.76
▁군청	-11.7601
▁김우	-11.7602
▁재선	-11.7604
▁구형	-11.7608
▁주임	-11.7608
▁호모	-11.7614
▁연대기	-11.7615
▁양조	-11.7616
▁임관	-11.7618
ah	-11.762
▁벨라	-11.7625
지아	-11.7628
▁프레스	-11.7631
▁소음	-11.7637
li	-11.7638
▁106	-11.764
용차	-11.7645
▁느낀	-11.7647
▁바닷	-11.7655
▁대영	-11.7664
산업	-11.7666
▁곡물	-11.7668
▁페스	-11.7671
▁Un	-11.7679
▁입체	-11.7681
법관	-11.7682
▁쓰촨	-11.7684
▁Time	-11.7685
▁트로이	-11.7687
▁포켓몬	-11.7687
▁Associat	-11.7688
▁System	-11.7688
▁쏟아	-11.7688
▁프로그래머	-11.7688
▁컬럼비아	-11.7688
▁High	-11.7688
▁프란치스	-11.7688
▁웨스턴	-11.7689
▁워너	-11.7691
▁스즈키	-11.7692
▁프란체스	-11.7693
▁나타냈	-11.7694
▁안경	-11.7695
▁거룩	-11.7697
▁아마존	-11.7697
▁다윈	-11.7699
▁〉()	-11.77
▁거래소	-11.7703
▁밝혀진	-11.7705
숭	-11.7705
▁방탄	-11.7707
▁압록	-11.7709
▁소울	-11.771
▁111	-11.7711
ka	-11.7711
▁드문	-11.7712
▁불명	-11.7713
▁"()	-11.7713
▁다케	-11.7714
▁구니	-11.7714
▁테레	-11.7714
面	-11.7716
헨	-11.7717
政	-11.7717
▁형벌	-11.7717
造	-11.7718
▁연희	-11.7718
▁징수	-11.7718
▁아닐	-11.7718
즐	-11.7719
윗	-11.772
ss	-11.772
▁개종	-11.772
▁미키	-11.7725
▁機	-11.7727
이베리아	-11.7728
▁을까	-11.774
▁마우스	-11.774
▁통용	-11.774
▁연동	-11.7742
▁전시회	-11.7743
▁걸렸	-11.7743
▁진료	-11.7745
▁대본	-11.7747
▁동문	-11.7748
연합	-11.775
▁浦	-11.775
ley	-11.775
▁반증	-11.775
ja	-11.7753
▁렛	-11.7754
out	-11.7757
▁소자	-11.7759
▁김홍	-11.7761
▁사이클	-11.7762
▁AP	-11.7766
▁매직	-11.7767
▁is	-11.7769
▁기어	-11.777
환경	-11.7771
▁나비	-11.7771
▁국보	-11.7771
▁동창	-11.7775
▁무성	-11.7778
▁강령	-11.778
▁고추	-11.7789
▁자란	-11.7797
▁텍	-11.7801
▁CONC	-11.781
체고	-11.781
▁양현	-11.7812
▁경영자	-11.7813
▁미친	-11.7814
▁Mac	-11.7816
▁선동	-11.7817
▁조교	-11.7817
▁자민	-11.7818
▁변이	-11.7819
메르	-11.7821
▁音	-11.7832
▁도서	-11.7836
니카	-11.7841
▁구스	-11.7842
평리	-11.7844
▁송도	-11.7844
▁오라	-11.7844
▁유부	-11.7845
▁말리	-11.7852
▁선보	-11.7856
KB	-11.7857
▁갈아	-11.7863
▁랍	-11.7863
▁서해	-11.7865
▁타스	-11.7869
▁쫓겨	-11.7871
ick	-11.7871
▁IS	-11.7871
▁MB	-11.788
▁재편	-11.7881
pe	-11.7884
▁ex	-11.7884
▁피우	-11.7885
▁차선	-11.7885
▁탈리	-11.7886
▁루이지애나	-11.7888
▁오하이오	-11.7888
▁++	-11.7888
▁상관없	-11.7888
▁지녔	-11.7889
▁맞붙	-11.7889
토시	-11.7889
▁장쑤	-11.7889
▁끼쳤	-11.7889
▁수녀	-11.789
▁최장	-11.7891
▁조이	-11.7892
▁관우	-11.7894
▁오카야마	-11.7894
▁희곡	-11.7895
▁해병	-11.7895
▁스토어	-11.7896
▁미세	-11.7896
▁We	-11.7896
▁팜	-11.79
▁純	-11.79
▁국외	-11.79
▁가쓰	-11.7901
HC	-11.7901
▁북벌	-11.7902
▁파우	-11.7902
▁시어	-11.7903
▁불경	-11.7903
프트	-11.7903
▁묘비	-11.7906
▁모스크	-11.7906
▁소매	-11.7908
▁텔레	-11.7908
▁므	-11.7908
▁열린다	-11.7909
▁스미	-11.7911
▁유진	-11.7911
▁勝	-11.7913
▁봉해	-11.7916
▁男	-11.7917
▁공시	-11.7918
▁케르	-11.7919
쾌	-11.7919
▁배기	-11.7919
▁권총	-11.792
앵	-11.7922
日	-11.7922
룸	-11.7923
▁터보	-11.7924
▁溪	-11.7924
▁하락	-11.7924
▁네트	-11.7925
이노스	-11.7925
▁고민	-11.7926
▁휴가	-11.7927
▁밀란	-11.7928
▁경작	-11.7929
▁189	-11.793
▁성실	-11.7932
▁중산	-11.7936
마사	-11.7936
▁리본	-11.7938
▁데스크	-11.7938
▁자치주	-11.7939
▁네티	-11.794
고리	-11.7941
OP	-11.7942
der	-11.7942
ite	-11.7946
▁남산	-11.7947
▁특전	-11.7947
▁상한	-11.7949
▁속력	-11.795
▁마그	-11.7951
▁실정	-11.7951
▁LA	-11.7956
▁아크	-11.7957
▁만장	-11.7958
스칼	-11.796
▁진사	-11.796
▁리베	-11.7962
▁그릴	-11.7963
▁장단	-11.7967
▁원료	-11.7967
다오	-11.7975
om	-11.7976
이크	-11.7978
▁制	-11.7979
▁브리지	-11.7983
스틴	-11.7985
▁대부	-11.7985
▁카스트	-11.7986
▁모세	-11.7989
IP	-11.7989
카를로스	-11.799
▁서류	-11.7991
▁기관지	-11.7993
▁240	-11.7994
암동	-11.7995
▁일당	-11.7996
▁빈도	-11.7997
▁치아	-11.7998
▁넌	-11.8
▁랴	-11.8001
울리	-11.8002
▁산호	-11.8005
▁원유	-11.8007
▁미아	-11.8009
▁무비	-11.801
▁종속	-11.8012
▁콜라	-11.8013
아들	-11.8022
▁용병	-11.8026
▁경종	-11.8029
▁면제	-11.803
937	-11.8031
▁보행	-11.8032
▁리모	-11.8033
▁수염	-11.8037
▁찌	-11.8037
▁소극	-11.8037
▁개원	-11.8038
덕왕	-11.804
▁소시	-11.8041
ho	-11.8043
▁미생물	-11.8043
▁국민회	-11.8047
▁원천	-11.8047
▁중수	-11.8049
▁차용	-11.805
▁염색	-11.8051
▁Super	-11.8057
▁남해	-11.8059
▁우시	-11.8061
▁호리	-11.8066
▁치즈	-11.807
쿄	-11.807
-	-11.8071
▁종자	-11.8071
▁에른	-11.8083
▁정정	-11.8084
렁	-11.8087
▁초록	-11.8088
▁히어로	-11.8089
라이버	-11.809
▁가져온	-11.8092
숍	-11.8092
츰	-11.8092
▁디스플레이	-11.8092
▁어려웠	-11.8092
▁미야자키	-11.8092
▁미하일	-11.8093
▁at	-11.8093
▁딱	-11.8093
▁롤링	-11.8094
▁시코쿠	-11.8094
▁데이비스	-11.8095
▁들어올	-11.8096
▁파울	-11.8096
▁오일러	-11.8096
코드	-11.8096
▁퀘	-11.8098
▁사육	-11.8098
▁쓰시마	-11.8099
양군	-11.81
▁강간	-11.81
▁俊	-11.8101
▁안녕	-11.8101
룽	-11.8101
젤	-11.8102
▁색채	-11.8102
▁모욕	-11.8103
르드	-11.8105
▁자유민주당	-11.8106
▁표창	-11.8106
▁조선소	-11.8107
▁텍사스주	-11.8107
▁省	-11.8108
다이	-11.8109
▁遺	-11.8109
▁몰타	-11.811
▁榮	-11.8111
▁호응	-11.8114
▁신상	-11.8114
▁모터스	-11.8117
믹스	-11.8118
▁일가	-11.8118
루션	-11.8118
▁무함	-11.8121
▁웃음	-11.8122
깐	-11.8125
員	-11.8126
▁湖	-11.8129
佛	-11.8132
ᆞ	-11.8132
기구	-11.8135
▁왕궁	-11.8135
LED	-11.8137
▁物	-11.814
▁다니엘	-11.8141
▁겐지	-11.8142
▁카터	-11.8143
▁봇	-11.8143
▁끝날	-11.8146
▁계주	-11.8148
▁치환	-11.8149
요시다	-11.8149
▁고령	-11.8149
▁단행	-11.8151
으로	-11.8152
▁進	-11.8153
▁팔리	-11.8155
▁시바	-11.8155
▁이브	-11.816
ou	-11.8165
▁Sp	-11.8169
▁신곡	-11.817
▁불행	-11.8171
▁막스	-11.8173
창호	-11.8183
▁퐁	-11.8183
면체	-11.8188
▁Day	-11.8192
▁파장	-11.8193
▁버드	-11.8198
▁동행	-11.8199
▁典	-11.82
▁그라운드	-11.8201
제품	-11.8201
bo	-11.8209
▁대합	-11.8221
gen	-11.8222
▁On	-11.8224
▁구실	-11.8225
▁대금	-11.8226
▁동이	-11.8228
▁카로	-11.8238
▁정선	-11.8244
▁황색	-11.8248
모스	-11.8248
드르	-11.825
▁토라	-11.8251
▁적자	-11.8252
▁조계	-11.8254
▁팔라	-11.8256
▁구와	-11.8257
▁128	-11.8257
푸스	-11.8259
AO	-11.826
이커	-11.8261
▁요동	-11.8264
▁분수	-11.8264
▁세라	-11.8265
▁분단	-11.8266
▁집전	-11.8269
▁정동	-11.8269
▁Si	-11.8276
▁코시	-11.8279
▁뱅	-11.828
▁역도	-11.8281
▁박지	-11.8285
니발	-11.8289
▁개항	-11.8293
▁프린	-11.8295
석기	-11.8297
▁가동	-11.8298
include	-11.83
▁컴퓨팅	-11.83
藤	-11.83
類	-11.83
쾰	-11.83
▁대웅전	-11.83
▁프로모션	-11.83
▁화강암	-11.83
▁only	-11.83
▁와이번	-11.8301
▁IOC	-11.8301
▁파일럿	-11.8301
▁흩어져	-11.8301
▁엄밀	-11.8302
▁희귀	-11.8303
▁레이싱	-11.8303
irst	-11.8303
▁복싱	-11.8304
티오피	-11.8304
▁전무	-11.8305
▁굴절	-11.8306
묵	-11.8307
▁부드	-11.8307
▁주니치	-11.8308
▁플루	-11.8308
▁회상	-11.8309
▁청취	-11.831
▁SP	-11.831
▁루비	-11.8311
▁우회	-11.8312
▁내걸	-11.8312
▁열렬	-11.8312
▁丁	-11.8313
NA	-11.8313
▁태권	-11.8314
▁오리온	-11.8315
▁錫	-11.8316
▁Live	-11.8321
▁농경	-11.8324
▁쥐속	-11.8325
▁히로시	-11.8326
▁CBS	-11.8326
▁단축	-11.8326
▁現	-11.8326
ASA	-11.8327
▁관청	-11.8328
▁페르미	-11.8329
▁도둑	-11.8329
▁메소	-11.8331
▁온난	-11.8331
▁교도소	-11.8332
cal	-11.8333
▁증조	-11.8333
▁발전기	-11.8336
▁정박	-11.8337
▁류큐	-11.8338
▁關	-11.8338
▁쑤	-11.8338
포스	-11.8339
▁본성	-11.834
▁다이어	-11.8341
▁정했	-11.8342
▁기념관	-11.8342
合	-11.8343
治	-11.8344
▁아브	-11.8344
宮	-11.8345
기념물	-11.8345
神	-11.8345
쉽	-11.8345
▁or	-11.8349
▁고소	-11.8351
▁親	-11.8352
ac	-11.8353
▁Park	-11.836
▁황소	-11.8362
▁절정	-11.8363
▁사나	-11.8363
▁儀	-11.8367
▁應	-11.8367
런스	-11.8367
▁항원	-11.8369
▁합친	-11.8369
▁천마	-11.8376
▁릉	-11.8378
944	-11.838
난쟁이	-11.8381
폭동	-11.8382
▁선우	-11.8382
라이어	-11.8383
삭	-11.8386
▁di	-11.8386
▁藏	-11.8388
1850	-11.8389
▁메카	-11.839
▁접수	-11.839
▁전담	-11.8394
▁독성	-11.8396
▁부가	-11.8398
▁샨	-11.8399
애틀	-11.8404
▁예하	-11.8412
▁사림	-11.8416
▁단정	-11.8418
▁230	-11.8422
▁안무	-11.8433
▁GT	-11.8434
▁파주	-11.8435
▁크라	-11.8435
▁리프	-11.8439
▁사모	-11.844
▁힌	-11.8446
개골	-11.8447
▁렐	-11.8448
▁더니	-11.8453
토르	-11.8454
▁말린	-11.8458
▁김준	-11.8468
▁메디	-11.847
▁정세	-11.8477
위성	-11.848
▁설교	-11.848
▁루피	-11.8481
트라	-11.8481
▁135	-11.8484
▁이완	-11.8486
▁이겼	-11.8487
▁명소	-11.8488
▁고분	-11.8491
▁정경	-11.8496
▁MP	-11.8502
▁코믹	-11.8502
▁電	-11.8506
▁다발	-11.8507
세스	-11.8511
▁삼층석탑	-11.8513
▁아비달마	-11.8513
쩔	-11.8513
▁부등식	-11.8513
▁어긋나	-11.8513
▁매거진	-11.8513
▁리조트	-11.8513
▁떨어뜨	-11.8513
▁박테리아	-11.8513
▁슬픔	-11.8513
▁ref	-11.8513
▁리뷰	-11.8515
▁沈	-11.8515
북도	-11.8517
▁감찰	-11.8518
▁포럼	-11.8518
▁잃어버린	-11.8518
▁찬양	-11.8518
▁±	-11.8518
'	-11.8519
▁클라크	-11.8519
▁여의도	-11.8519
▁돌출	-11.852
▁사방	-11.8521
▁즐거	-11.8522
▁아키라	-11.8522
▁켈트	-11.8525
▁닫힌	-11.8525
▁헬레	-11.8525
▁장대	-11.8526
▁안산시	-11.8528
▁진해	-11.8528
ish	-11.8529
▁발상	-11.8529
▁관동	-11.853
▁도피	-11.8532
▁회귀	-11.8532
▁巖	-11.8533
▁第	-11.8533
▁배달	-11.8536
워져	-11.8537
▁서클	-11.8537
▁복음서	-11.8538
▁단말	-11.8538
▁운임	-11.8538
▁修	-11.854
▁싸이	-11.8543
▁宇	-11.8544
▁몫	-11.8544
op	-11.8546
▁근사	-11.8548
▁둘러싸인	-11.8549
▁종양	-11.855
럭	-11.8556
▁최강	-11.8557
펫	-11.8561
다란	-11.8562
동기	-11.8563
▁백자	-11.8569
▁거인	-11.8572
▁젤리	-11.8572
▁심화	-11.8572
▁솟	-11.858
▁옮긴	-11.8587
▁화기	-11.859
▁우산	-11.859
▁키즈	-11.8591
▁테크	-11.8592
솔리	-11.8594
▁비리	-11.8602
▁카사	-11.8603
▁선봉	-11.8605
▁다녀	-11.8609
현동	-11.8614
▁별세	-11.8617
▁女	-11.862
▁보루	-11.8628
▁AM	-11.8629
▁대북	-11.8629
▁불량	-11.8632
▁온전	-11.8636
▁리만	-11.8636
▁기세	-11.8638
▁반입	-11.8639
▁CP	-11.864
▁Da	-11.8642
▁탄도	-11.8642
▁이끈	-11.8643
tal	-11.8647
ner	-11.8648
▁생체	-11.8654
▁부왕	-11.8656
DA	-11.8658
▁나리	-11.866
▁누렸	-11.8661
▁제국주의	-11.8665
▁어스	-11.8672
▁개개	-11.8676
ant	-11.8676
▁115	-11.8677
▁페르난	-11.8677
▁EU	-11.8677
르몬	-11.8679
피카	-11.868
▁출자	-11.8681
▁펫	-11.8681
▁쾌	-11.8686
▁원제	-11.8687
로이드	-11.8688
러브	-11.8692
찌	-11.8693
XT	-11.8695
▁Lo	-11.8695
а	-11.8702
붕	-11.8708
산시	-11.8711
▁사가	-11.872
▁과잉	-11.8723
▁포토	-11.8724
▁니키	-11.8727
▁오우	-11.8728
렌스	-11.873
▁초콜릿	-11.873
△	-11.873
室	-11.873
禹	-11.873
蘇	-11.873
꿨	-11.873
딥	-11.873
튬	-11.873
▁인디애나	-11.873
▁발렌시아	-11.873
▁잡아먹	-11.8731
▁Night	-11.8731
▁강당	-11.8731
▁단행본	-11.8732
▁Window	-11.8733
▁레몬	-11.8735
▁소피아	-11.8738
▁ATC	-11.8739
▁훙	-11.874
▁염증	-11.874
▁매수	-11.8741
렀	-11.8742
▁맹세	-11.8744
▁유혹	-11.8747
▁앰	-11.8747
▁支	-11.8747
化	-11.8749
▁벗어난	-11.8749
▁유스	-11.8751
▁불변	-11.8752
플레이션	-11.8752
▁지장	-11.8753
▁무척	-11.8753
▁Art	-11.8756
나베	-11.8758
▁여지	-11.8758
스크리	-11.8759
▁강서	-11.8759
▁견고	-11.8763
▁시그	-11.877
▁고쿠	-11.877
▁DOS	-11.8772
▁코난	-11.8772
▁딕	-11.8773
▁죽인	-11.8773
▁관목	-11.8774
▁국공	-11.8776
▁局	-11.8777
▁智	-11.8781
都	-11.8784
水	-11.8785
▁교과	-11.8785
▁창의	-11.8789
▁보낼	-11.8789
스피어	-11.8789
차장	-11.879
▁베토	-11.8791
▁스텔	-11.8792
▁밀레	-11.8796
▁護	-11.88
▁불린	-11.8802
▁SA	-11.8802
▁치른	-11.8808
▁차르	-11.8808
▁캅	-11.8811
워드	-11.8819
▁團	-11.8823
▁펀	-11.8823
▁르노	-11.8825
▁호출	-11.8826
▁경도	-11.8826
▁土	-11.8826
▁실버	-11.8827
▁자진	-11.883
▁分	-11.8835
▁엿	-11.8836
▁통신사	-11.884
▁방대	-11.8842
▁호쿠	-11.8848
▁모이	-11.8854
▁토요	-11.8855
▁열려	-11.8856
▁기장	-11.8863
정판	-11.8864
고르	-11.8866
레아	-11.8867
▁산조	-11.8872
▁리마	-11.8872
▁바우	-11.8874
▁리브	-11.8876
▁동산	-11.888
테르담	-11.8882
ID	-11.8884
르바	-11.8894
주하	-11.8894
▁동호	-11.8894
병조	-11.8907
▁실리	-11.8909
암리	-11.891
▁토미	-11.891
분투	-11.8911
▁아오	-11.8915
▁280	-11.8915
sa	-11.8916
▁인자	-11.8918
▁드레	-11.8918
▁계량	-11.8921
▁정제	-11.8924
▁서임	-11.8928
▁쫓아	-11.8929
▁금산	-11.893
▁Mar	-11.8935
▁툰	-11.8937
烈	-11.8942
ous	-11.8945
▁모사	-11.8945
▁뉴저지	-11.8946
▁아프	-11.8951
▁힘썼	-11.8952
淵	-11.8952
▁가솔린	-11.8952
▁컨테이너	-11.8952
▁초신성	-11.8953
▁텔레콤	-11.8953
▁마라톤	-11.8953
▁가옥	-11.8953
▁Club	-11.8953
▁펜싱	-11.8953
▁결핍	-11.8954
▁워킹	-11.8954
▁USB	-11.8954
▁崇	-11.8955
▁―	-11.8955
▁伊	-11.8955
▁제갈량	-11.8955
▁감싸	-11.8955
▁브릿	-11.8956
시즘	-11.8959
▁선천	-11.8959
▁아나키	-11.896
▁완결	-11.896
▁축산	-11.8961
▁엘리트	-11.8961
▁—	-11.8962
▁요금소	-11.8962
▁파라오	-11.8962
▁오른손	-11.8964
▁可	-11.8966
▁필립스	-11.8966
▁관례	-11.8966
▁Paul	-11.8967
▁건널	-11.8968
▁걸작	-11.8969
▁닥	-11.8969
▁외무부	-11.897
▁강렬	-11.897
▁墓	-11.897
▁맞춤	-11.8971
▁TBS	-11.8973
▁마셜	-11.8973
▁테리	-11.8973
▁사간	-11.8975
▁공고	-11.8976
▁亭	-11.8977
행성	-11.8979
▁산인	-11.8979
▁격려	-11.898
▁夏	-11.8981
SB	-11.8983
▁공황	-11.8983
~	-11.8985
[	-11.8985
스부르크	-11.8987
ius	-11.8989
▁요격	-11.899
▁증오	-11.899
▁온다	-11.899
▁표적	-11.8991
▁입양	-11.8992
den	-11.8993
▁무네	-11.8993
▁무안	-11.8996
▁비뉴	-11.8997
▁1879	-11.8997
▁핏	-11.9001
리프트	-11.9002
▁마그네	-11.9004
쌍	-11.9005
▁카즈	-11.9007
TA	-11.9009
▁클레이	-11.901
塔	-11.901
단체	-11.9011
語	-11.9011
▁반동	-11.9011
▁명분	-11.9011
知	-11.9012
性	-11.9012
훼	-11.9012
▁동네	-11.9012
▁우상	-11.9013
▁광명	-11.9016
▁레즈	-11.9016
▁코펜	-11.9017
▁신시	-11.9018
▁Di	-11.902
폭력	-11.9023
▁호그	-11.9023
▁330	-11.9026
▁112	-11.9027
▁다듬	-11.9029
▁중상	-11.903
악단	-11.9031
▁적군	-11.9032
▁고원	-11.9036
유키	-11.9038
▁상국	-11.904
▁마트	-11.9041
▁XP	-11.9041
▁진언	-11.9042
중추부	-11.9044
▁폭로	-11.9045
▁암스	-11.9046
▁간토	-11.9051
CC	-11.9051
▁홍천	-11.9051
드리	-11.9054
▁IE	-11.9054
토쿠	-11.9058
▁쯔	-11.9059
▁종군	-11.9059
au	-11.9074
▁유공	-11.9074
▁선도	-11.9076
▁럼	-11.9078
▁끌어들	-11.9079
▁세련	-11.908
▁유령	-11.9082
▁김인	-11.9082
▁오락	-11.9083
▁김형	-11.9084
▁공판	-11.9085
▁타로	-11.9086
LC	-11.9087
무르	-11.9092
▁트릭	-11.9095
▁San	-11.9095
▁화상	-11.9096
▁독서	-11.9096
▁Is	-11.9096
▁물가	-11.9096
▁미륵	-11.9097
▁形	-11.9097
▁날카로	-11.91
▁머스	-11.9105
ich	-11.9105
▁자전	-11.9107
▁베트	-11.9107
▁사설	-11.9108
▁앞선	-11.9109
베르토	-11.9111
▁버트	-11.9111
▁AT	-11.9113
랭크	-11.9126
▁불어	-11.9126
▁프레드	-11.9127
▁Op	-11.9128
▁키보	-11.9134
U	-11.9136
▁장자	-11.9136
▁샘플	-11.9137
tra	-11.9145
▁空	-11.9148
IS	-11.9157
▁기르	-11.9161
nsis	-11.9163
룻	-11.9166
▁體	-11.9167
▁NH	-11.9168
▁캠	-11.9169
티아	-11.9175
▁떠오	-11.9176
▁성도	-11.9179
▁미네소타	-11.918
▁버펄로	-11.918
▁앨라배마	-11.918
▁에스페란	-11.918
▁카탈루냐	-11.918
姜	-11.918
▁시즈오카	-11.918
▁아름다움	-11.918
▁Tour	-11.918
▁김광	-11.918
▁포켓몬스터	-11.918
▁터뜨	-11.918
라데시	-11.918
▁병자	-11.9181
▁푸에르토	-11.9181
▁휴스턴	-11.9182
▁나뭇	-11.9182
▁뛰어났	-11.9182
▁보너스	-11.9182
▁에두아르	-11.9183
▁대성당	-11.9183
▁진행자	-11.9184
▁장갑차	-11.9184
▁미시	-11.9184
▁합창	-11.9186
▁관계없	-11.9186
▁DF	-11.9187
▁1200	-11.9187
▁인명	-11.9188
▁양양	-11.9192
▁트렌	-11.9194
▁플라톤	-11.9194
▁치카	-11.9195
▁채취	-11.9195
IMF	-11.9195
女子	-11.9197
니츠	-11.9197
▁몽고	-11.92
▁우표	-11.92
대사	-11.92
▁반성	-11.9201
▁납부	-11.9203
▁마가	-11.9204
▁공성	-11.9205
▁최순	-11.9205
▁노랑	-11.9208
공주	-11.9208
▁요양	-11.9208
▁cc	-11.9209
ver	-11.9211
old	-11.9215
▁울주	-11.9215
▁어찌	-11.9216
▁취업	-11.9217
▁居	-11.9217
▁가로지	-11.9217
▁도널드	-11.9219
▁옴	-11.9219
▁네오	-11.9219
▁기념일	-11.9219
▁191	-11.9228
놀	-11.9228
▁출가	-11.9228
▁압수	-11.9231
어섰	-11.9231
▁아리아	-11.9231
▁브래	-11.9233
▁회피	-11.9233
홍색	-11.9233
첸	-11.9235
▁유카	-11.9235
▁캐서	-11.9236
▁헌장	-11.9238
▁버터	-11.9239
뮌	-11.924
▁카미	-11.9241
大	-11.9242
밥	-11.9242
身	-11.9242
▁제천	-11.9243
音	-11.9243
上	-11.9244
▁보로	-11.9244
▁김명	-11.9246
▁비스타	-11.9246
▁럭	-11.9247
▁α	-11.9248
omys	-11.9251
▁패밀리	-11.9252
▁외환	-11.9252
ug	-11.9255
lu	-11.9258
▁Mo	-11.926
▁동자	-11.9262
▁ha	-11.9263
▁헤어	-11.9264
▁김원	-11.9267
치부	-11.9267
▁수분	-11.9269
▁104	-11.9274
▁PS	-11.9275
▁別	-11.9276
▁어류	-11.9277
▁금전	-11.9278
변수	-11.9284
▁반공	-11.9288
평가	-11.9293
▁현악	-11.9294
▁원격	-11.9294
▁불사	-11.9306
포드	-11.9306
▁단결	-11.9308
단위	-11.9309
▁산성	-11.9309
▁바디	-11.9312
▁아목	-11.9318
▁생원	-11.9319
▁씌	-11.9321
▁가해	-11.9323
▁Ra	-11.9324
ke	-11.9327
▁기저	-11.9329
▁김지	-11.9333
▁대단	-11.9335
쿠사	-11.9335
▁내성	-11.9343
▁210	-11.9344
윈	-11.9349
▁추이	-11.9352
▁국수	-11.9354
▁미식	-11.9355
▁le	-11.9356
▁지성	-11.9356
▁184	-11.9359
▁고온	-11.9359
EM	-11.9363
플레	-11.9364
▁배운	-11.9366
if	-11.9366
▁히토	-11.9373
í	-11.9373
▁des	-11.9375
▁상행	-11.9376
▁Sa	-11.9383
▁입원	-11.9386
▁시국	-11.9387
ess	-11.9392
▁공명	-11.9397
▁고노	-11.9398
our	-11.9398
IV	-11.9399
964	-11.9399
▁연회	-11.9404
▁헤로	-11.9404
▁사적	-11.9411
る	-11.9412
▁뾰족	-11.9412
▁웍스	-11.9412
▁휩쓸	-11.9412
妃	-11.9412
峰	-11.9412
▁아놀드	-11.9412
▁프랜시스	-11.9412
▁암흑	-11.9412
▁College	-11.9412
▁매끄러	-11.9413
▁깃털	-11.9413
▁덴쇼	-11.9414
▁恭	-11.9415
▁메뉴	-11.9415
▁러셀	-11.9416
▁그래미	-11.9416
▁휴양	-11.9416
▁빈곤	-11.9417
▁대성전	-11.9417
▁富	-11.9418
▁벤츠	-11.9419
럴드	-11.942
▁빈번	-11.942
▁임하	-11.9421
▁공휴	-11.9422
▁발라드	-11.9423
더스	-11.9423
▁목요일	-11.9423
▁불참	-11.9423
▁카스티	-11.9423
▁레오폴	-11.9425
히로	-11.9425
정동	-11.9425
▁핸드	-11.9426
▁次	-11.9426
겨레	-11.9428
ATA	-11.9428
▁竹	-11.943
▁스칸	-11.9432
▁성동	-11.9434
▁포항시	-11.9437
▁Mi	-11.9438
▁라이너	-11.9438
▁각성	-11.9443
▁코퍼	-11.9443
▁와일드	-11.9444
▁유태	-11.9446
▁1881	-11.945
▁붙여진	-11.9451
▁큐브	-11.9453
▁미들	-11.9453
▁앵글	-11.9454
ical	-11.9455
▁치하	-11.9456
SM	-11.9457
▁도스	-11.9458
▁게르	-11.9462
▁관세	-11.9463
▁在	-11.9463
크라	-11.9465
▁팡	-11.9466
sp	-11.9466
▁와카	-11.9466
▁볼티	-11.9467
▁컨트리	-11.9467
▁대청	-11.9469
▁동진	-11.947
▁켄트	-11.9474
▁투신	-11.9474
▁생계	-11.9476
▁빙하	-11.9476
컵	-11.9477
監	-11.9482
曹	-11.9482
▁공대	-11.9482
華	-11.9482
니까	-11.9483
▁트리니	-11.9484
▁공주시	-11.9484
▁방화	-11.9484
▁유서	-11.9485
▁박종	-11.9485
으니	-11.9488
▁빅토	-11.949
▁군데	-11.9492
▁베르사	-11.9493
▁신종	-11.9494
▁스루	-11.9494
▁수수	-11.9496
▁모리스	-11.9499
▁무주	-11.95
▁레지	-11.9505
▁러서	-11.9506
▁참수	-11.9507
▁델라	-11.951
ale	-11.9515
▁우두	-11.952
곡동	-11.9521
말로	-11.9524
▁코딩	-11.9527
쓰마	-11.9527
▁경매	-11.953
▁119	-11.9535
▁경의	-11.9538
타카	-11.9539
▁衛	-11.9539
▁효자	-11.9541
▁해전	-11.9544
▁Sch	-11.9545
mi	-11.9553
PA	-11.9554
▁Ph	-11.9556
▁퉁	-11.956
▁모반	-11.956
▁그램	-11.9562
▁쿠니	-11.9568
▁학장	-11.9573
▁Har	-11.9578
▁Ba	-11.9582
SE	-11.9585
▁塔	-11.9589
▁파파	-11.9589
▁벤치	-11.9589
▁우왕	-11.959
▁중랑	-11.9592
▁CC	-11.9601
▁Th	-11.9606
사화	-11.9609
able	-11.961
▁걸린	-11.9614
von	-11.9618
▁臣	-11.9618
간지	-11.9618
시모토	-11.9618
▁형편	-11.962
도로	-11.9623
▁정관	-11.9627
▁강수	-11.9627
▁Ro	-11.9631
▁원상	-11.9635
▁카마	-11.9638
▁킹스	-11.9638
▁노프	-11.9639
▁사드	-11.964
▁교통사	-11.9643
▁Ca	-11.9647
件	-11.965
畵	-11.965
▁가라앉	-11.965
▁카지노	-11.965
▁박람회	-11.9651
▁씨앗	-11.9651
▁쓰레기	-11.9651
▁마땅	-11.9651
▁이시카와	-11.9651
소년단	-11.9651
▁침묵	-11.9651
▁MHz	-11.9652
▁브레이크	-11.9652
▁전복	-11.9652
▁마카오	-11.9652
▁경전철	-11.9652
▁닦	-11.9653
▁공방전	-11.9653
▁NP	-11.9656
외선	-11.9656
▁주입	-11.9656
▁긴밀	-11.9656
▁칭했	-11.9657
▁대지진	-11.966
▁고분군	-11.9661
▁행해졌	-11.9661
케이	-11.9664
▁플랑	-11.9664
▁蓮	-11.9665
▁취했	-11.9666
▁지지율	-11.9666
▁우월	-11.9667
▁박수	-11.9671
▁녹화	-11.9671
▁Let	-11.9675
▁채권자	-11.9677
▁독수리	-11.9677
▁겹쳐	-11.9678
▁Your	-11.9679
천면	-11.9679
▁항생	-11.9679
▁파벌	-11.9679
▁Po	-11.968
▁{	-11.9681
▁슛	-11.9681
▁티아	-11.9682
▁우림	-11.9682
▁퇴직	-11.9684
▁구슬	-11.9685
▁트랜	-11.9685
▁초고	-11.9686
MP	-11.9692
▁복직	-11.9694
▁사무국	-11.9696
▁삼림	-11.9697
▁齊	-11.9698
▁버진	-11.9698
▁고산	-11.9699
▁겁	-11.9703
▁죄수	-11.9704
▁마누엘	-11.9705
▁대의	-11.9705
▁높여	-11.9707
▁이겨	-11.9707
▁나간	-11.9708
주크	-11.9713
▁캐슬	-11.9714
염색체	-11.9716
▁가져다	-11.9717
ero	-11.9717
▁바이어	-11.9717
ica	-11.9718
매김	-11.9721
훤	-11.9722
즈키	-11.9722
콩	-11.9724
▁선거법	-11.9725
밤	-11.9726
色	-11.9726
朝	-11.9726
곰	-11.9726
박쥐	-11.9727
▁유길	-11.9729
ill	-11.9732
누마	-11.9733
▁이뤄졌	-11.9737
LE	-11.9739
▁녕	-11.974
DF	-11.9754
▁고래	-11.9758
ph	-11.9761
분열	-11.9762
▁으라	-11.9764
찬성	-11.9764
▁시노	-11.9765
▁조광	-11.9767
▁일괄	-11.9769
▁적외선	-11.9769
▁쇠고	-11.977
▁아담	-11.9774
▁집정	-11.9775
▁모태	-11.9781
▁이사벨	-11.9781
▁전세	-11.9786
▁글리	-11.9787
▁고집	-11.9788
브르	-11.979
▁모로	-11.9792
▁모어	-11.9794
매니아	-11.9798
정리	-11.9802
▁연구회	-11.9803
▁부실	-11.9808
▁예문	-11.9808
▁리우	-11.9809
▁플라스	-11.981
▁례	-11.9811
▁니코	-11.9812
시타	-11.9814
▁제갈	-11.9817
바타	-11.982
▁국교	-11.9821
▁바이트	-11.9822
▁최선	-11.9823
▁아이즈	-11.9824
▁테오도	-11.9825
시간	-11.9826
▁주차	-11.9828
▁볼트	-11.983
▁설리	-11.9832
▁109	-11.9832
▁음악원	-11.9832
▁카타	-11.9834
▁로열	-11.9843
▁케라	-11.9847
▁교육학	-11.9852
▁심부	-11.9854
바닥	-11.9854
▁킴	-11.9854
▁Li	-11.9856
히코	-11.9858
▁마린	-11.9861
▁자궁	-11.9862
▁대제	-11.9865
▁Per	-11.9868
▁피로	-11.9868
슬러	-11.9868
시카	-11.9869
▁달라진다	-11.9875
▁선대	-11.9877
don	-11.9879
▁마차	-11.988
변이	-11.9881
▁카트	-11.9882
▁강대	-11.9883
▁GS	-11.9886
크스	-11.9892
▁지닌다	-11.9894
▁어는	-11.9894
▁David	-11.9894
▁도르트문트	-11.9894
▁어드벤처	-11.9894
▁켄터키	-11.9894
会	-11.9894
域	-11.9894
岩	-11.9894
슝	-11.9894
▁마다가스카	-11.9894
▁from	-11.9894
▁석가모니	-11.9894
▁부르주아	-11.9894
▁리바운드	-11.9895
▁야마가타	-11.9895
▁서대문	-11.9895
▁테네시	-11.9895
▁페이스북	-11.9895
▁코호몰로지	-11.9896
▁API	-11.9896
▁소나타	-11.9896
初等	-11.9896
▁마르틴	-11.9896
▁공양왕	-11.9896
▁몹	-11.9897
▁증폭	-11.9897
▁이노우	-11.9897
▁스톰	-11.9897
▁카운트	-11.9897
▁글로브	-11.9898
▁변혁	-11.9898
LB	-11.9899
▁슈퍼스타	-11.9899
실전	-11.9899
▁데이브	-11.99
▁스프	-11.99
▁다케다	-11.9901
▁헤이안	-11.9901
▁합창단	-11.9902
▁달랐	-11.9902
▁로스쿨	-11.9902
▁탈취	-11.9903
▁실효	-11.9903
▁반죽	-11.9904
▁클레멘	-11.9905
▁스퀘어	-11.9905
▁콘테	-11.9906
▁강진	-11.991
▁봉건	-11.9911
▁위안부	-11.9913
▁평탄	-11.9915
▁찰리	-11.9916
▁팔작	-11.9916
▁非	-11.9918
▁전리	-11.9918
▁시상	-11.9918
▁베르나르	-11.9919
ft	-11.992
▁와카야마	-11.9921
▁출혈	-11.9922
우회	-11.9925
▁게오르	-11.9926
▁카테	-11.9927
▁SN	-11.9928
▁잠정	-11.9928
▁검은	-11.9929
▁오아	-11.9929
▁공예	-11.9931
▁解	-11.9934
▁무술	-11.9934
▁축성	-11.9936
▁배양	-11.9937
▁뱃	-11.9939
▁IU	-11.9941
디슨	-11.9942
▁실적	-11.9943
▁상가	-11.9946
천동	-11.9946
▁줘	-11.9949
▁양지	-11.9952
▁유포	-11.9953
▁As	-11.9957
마크	-11.9957
▁최성	-11.9958
리엘	-11.996
▁표정	-11.9963
▁자크	-11.9964
▁웬	-11.9965
▁상정	-11.9967
▁자릿	-11.9967
▁배반	-11.9968
▁스타트	-11.9968
▁商	-11.9968
▁양수	-11.9969
▁복종	-11.9972
▁老	-11.9973
數	-11.9973
▁직행	-11.9973
펀	-11.9974
族	-11.9974
根	-11.9975
흠	-11.9976
▁발병	-11.9977
▁펠트	-11.9978
ina	-11.9982
드라마	-11.9983
▁정령	-11.9983
▁스로	-11.9984
▁국한	-11.9987
▁완주	-11.9989
▁조니	-11.999
▁쌍방	-11.9991
▁취해	-11.9994
하마	-11.9998
▁김천	-12
▁Jame	-12.0008
▁공안	-12.0012
디부	-12.0013
▁하이드	-12.0015
쿠로	-12.0022
▁총기	-12.0026
▁취한	-12.0027
▁SE	-12.0032
▁유무	-12.0038
AC	-12.0044
▁장병	-12.0049
돌리	-12.0049
▁무과	-12.005
▁토로	-12.005
▁나사	-12.0058
▁경위	-12.006
▁절제	-12.0061
▁수중	-12.0062
▁골라	-12.0063
묘호	-12.0065
▁필리포	-12.0067
▁광도	-12.007
▁타케	-12.0072
▁법제	-12.0074
▁포화	-12.0074
ud	-12.0079
▁백국	-12.0079
▁박성	-12.0082
▁자명	-12.0083
▁유다	-12.0083
▁바보	-12.0088
▁밍	-12.0089
▁설문	-12.009
▁염화	-12.009
AP	-12.0091
▁주고	-12.0092
885	-12.0096
▁AG	-12.0098
▁270	-12.0101
▁블로	-12.0102
카이도	-12.0103
▁함자	-12.0109
▁천국	-12.011
▁내일	-12.0115
▁전수	-12.0119
▁성행	-12.0119
마도	-12.012
▁리우스	-12.0125
▁원군	-12.0128
▁나우	-12.0135
▁신세	-12.0142
▁낚시	-12.0144
希	-12.0144
싣	-12.0144
▁해밀턴	-12.0144
▁서태지	-12.0145
▁교향악단	-12.0145
▁문무왕	-12.0145
▁해준다	-12.0145
▁OST	-12.0146
▁仲	-12.0147
▁莊	-12.0147
▁顯	-12.0147
▁올라갔	-12.0147
▁추첨	-12.0147
▁유니버스	-12.0147
▁스페이스	-12.0147
▁앙골	-12.0148
▁해운대	-12.0148
프로	-12.015
▁버퍼	-12.015
▁원활	-12.0151
▁베이커	-12.0151
▁Of	-12.0155
▁레이디	-12.0155
▁순례	-12.0155
▁》(,	-12.0155
▁상의	-12.0156
▁라치오	-12.0156
▁산정	-12.0156
▁축복	-12.0157
▁메커	-12.0158
퉁이	-12.0158
▁병렬	-12.0159
▁등산	-12.0161
▁앨리스	-12.0162
▁체인지	-12.0162
▁레스터	-12.0163
▁久	-12.0164
▁펌프	-12.0165
▁吏	-12.0168
▁異	-12.0168
▁주먹	-12.0169
▁증강	-12.0169
▁예언자	-12.017
▁해저	-12.017
▁교서	-12.017
▁고성	-12.0172
▁祠	-12.0172
▁라흐	-12.0176
▁중원	-12.0178
▁시켜야	-12.0178
▁관절	-12.0179
▁복용	-12.0181
▁신해	-12.0182
▁미드	-12.0182
CS	-12.0183
▁섹스	-12.0184
▁발광	-12.0184
▁패권	-12.0185
활	-12.0185
▁執	-12.019
▁牧	-12.019
▁요시토	-12.0192
о	-12.0193
▁망치	-12.0198
uk	-12.0199
▁예약	-12.0201
▁고흥	-12.0202
ium	-12.0203
▁利	-12.0203
▁군관	-12.0204
▁慧	-12.0207
▁진로	-12.0211
티코	-12.0213
LI	-12.0213
PG	-12.0215
▁단발	-12.0218
▁印	-12.022
▁서예	-12.0221
히드	-12.0225
▁헌정	-12.0226
렘	-12.0226
의자	-12.0226
務	-12.0227
▁부군	-12.0228
코바	-12.0228
▁백조	-12.0229
一	-12.0232
갱	-12.0232
▁반전	-12.0233
승훈	-12.0233
▁퀘이	-12.0233
公	-12.0233
뒤	-12.0233
셀러	-12.0233
글라스	-12.0234
▁백신	-12.0235
▁nm	-12.0238
▁강유	-12.0239
▁카야	-12.024
▁케이프	-12.0241
▁관내	-12.0242
▁히스	-12.0243
▁橋	-12.0246
CP	-12.0247
▁더러	-12.0247
▁오를	-12.0248
▁West	-12.0248
▁750	-12.0251
여객	-12.0252
▁축전	-12.0252
▁Can	-12.0252
▁개인전	-12.0252
▁意	-12.0255
▁일으킨다	-12.0257
▁학대	-12.0263
▁제동	-12.0264
워크	-12.0268
▁AK	-12.0269
que	-12.0269
▁師	-12.0271
ba	-12.0275
▁종신	-12.0277
▁사이토	-12.0277
▁적도	-12.0278
▁레이크	-12.0279
▁스에	-12.0285
▁테일	-12.0287
▁산수	-12.0292
▁do	-12.03
비야	-12.03
▁제왕	-12.0304
▁장덕	-12.0308
▁레비	-12.031
▁되돌아	-12.031
▁Su	-12.0311
▁알렉	-12.0312
▁홍성	-12.0313
▁브란	-12.0314
▁셜	-12.0315
동군	-12.0317
피어	-12.0318
▁등등	-12.0321
▁해피	-12.0323
▁108	-12.0326
▁IV	-12.0328
▁시비	-12.0332
▁코리	-12.0332
ach	-12.0334
곡면	-12.0337
교통	-12.0344
센스	-12.0345
▁천천	-12.0346
▁화학자	-12.035
▁en	-12.0351
▁구두	-12.0352
▁발해	-12.0353
▁노아	-12.0354
NS	-12.0356
▁550	-12.0361
▁요지	-12.0362
등교육	-12.0365
▁이건	-12.0365
루아	-12.0366
▁산기	-12.0369
▁케스	-12.037
▁알렉산드로	-12.037
▁배드	-12.0376
▁사영	-12.0376
▁무고	-12.0379
▁의결	-12.0381
▁발진	-12.0384
ki	-12.0386
▁you	-12.0391
▁컷	-12.0397
▁철원	-12.0398
▁GB	-12.0399
▁백과사전	-12.0401
▁캄파니아	-12.0401
▁퓨처	-12.0401
☆	-12.0401
岡	-12.0401
▁Thomas	-12.0401
▁제너럴	-12.0401
▁승정원	-12.0401
▁적십자	-12.0401
▁호크	-12.0401
▁132	-12.0401
▁프린스턴	-12.0401
▁트림	-12.0402
틸리	-12.0402
▁뽑혔	-12.0402
▁몰랐	-12.0402
▁화장품	-12.0404
▁Boy	-12.0404
리아스	-12.0405
▁잉여	-12.0405
도르프	-12.0406
▁석기	-12.0407
▁콘스탄	-12.0408
▁양육	-12.0408
▁내려와	-12.0409
▁흥분	-12.0409
▁배워	-12.041
▁정몽	-12.041
ox	-12.041
▁지리산	-12.0412
▁짚	-12.0412
▁제조업	-12.0412
▁독창	-12.0413
▁바스크	-12.0415
▁탁구	-12.0416
▁놓인	-12.0416
▁상선	-12.0416
▁屬	-12.0416
▁아사	-12.0418
▁소학교	-12.0419
▁김성수	-12.0421
▁협동	-12.0422
▁프리미	-12.0423
▁마스크	-12.0424
▁스테파노	-12.0424
▁간략	-12.0424
▁모신	-12.0425
▁沙	-12.0425
▁조경	-12.0425
▁스텝	-12.0426
▁전조	-12.0426
랜	-12.0427
▁남조	-12.0428
▁연말	-12.0429
▁김승	-12.0429
ay	-12.0429
▁β	-12.0429
▁165	-12.0431
▁밸리	-12.0431
ague	-12.0432
키스	-12.0432
자기	-12.0434
▁대접	-12.0437
▁천수	-12.0437
▁오름	-12.0439
▁데뷔작	-12.0439
▁교실	-12.0442
▁재벌	-12.0444
▁벡	-12.0448
▁결핵	-12.045
▁진위	-12.0453
▁조예	-12.0456
▁소단	-12.0456
▁發	-12.0456
▁任	-12.0456
▁정역	-12.0461
▁튀르크	-12.0462
▁크롬	-12.0465
dae	-12.0466
▁와라	-12.0466
▁마애	-12.0467
▁郎	-12.047
▁동물원	-12.047
▁泉	-12.0474
르모	-12.0477
RI	-12.0477
리야	-12.0479
▁위그	-12.0481
▁심소	-12.0488
▁떠올	-12.0488
▁피크	-12.0488
쭉	-12.049
사우루스	-12.0491
▁하노이	-12.0493
識	-12.0494
ya	-12.0495
形	-12.0495
羅	-12.0495
龍	-12.0496
▁칸국	-12.0496
寺	-12.0496
번뇌	-12.0497
텀	-12.0498
▁금관	-12.0501
▁모건	-12.0505
▁요법	-12.0506
클라	-12.0506
▁도래	-12.0509
wa	-12.0515
▁화랑	-12.0522
바른	-12.0524
▁가했	-12.0525
▁제조사	-12.0526
라나	-12.0532
▁風	-12.0533
▁전학	-12.0534
▁연정	-12.0535
▁화승	-12.054
▁쿠마	-12.0544
▁고려대	-12.0546
▁카니	-12.0547
파이	-12.0552
▁파르티	-12.0552
쟁이	-12.0555
산맥	-12.0556
▁떠난다	-12.0557
▁예금	-12.0559
▁갈릴레	-12.0563
▁오사	-12.0565
방향	-12.0567
▁시크	-12.0567
▁유정	-12.0571
▁Act	-12.0577
▁카네	-12.0579
▁베티	-12.0583
▁급성	-12.0587
분명	-12.0589
▁데이트	-12.0598
▁CM	-12.0599
les	-12.0599
지대	-12.0605
▁보령	-12.061
EE	-12.061
네시아	-12.0611
▁내면	-12.0614
up	-12.0615
▁자네	-12.0615
▁야전	-12.0618
▁홀리	-12.062
노프	-12.0623
▁피드	-12.0623
▁로그	-12.0624
▁이준	-12.0629
ez	-12.063
▁경산	-12.0648
RC	-12.0648
리즘	-12.065
TS	-12.0651
▁an	-12.0652
▁카피	-12.0652
▁템	-12.0659
▁오이디푸스	-12.0664
▁오클라호마	-12.0664
▁컬렉션	-12.0664
▁펼친	-12.0664
澤	-12.0664
盧	-12.0664
윽	-12.0664
▁프린세스	-12.0664
▁이바라키	-12.0664
▁햇빛	-12.0664
▁Center	-12.0664
▁뒤늦	-12.0664
▁통폐합	-12.0664
▁미나모토	-12.0664
▁사이타마	-12.0665
▁갈라져	-12.0666
▁모나코	-12.0666
▁신세계	-12.0666
▁잔혹	-12.0666
▁群	-12.0666
▁貪	-12.0666
▁촉매	-12.0667
▁유의	-12.0667
▁해리슨	-12.0668
he	-12.0668
▁나마	-12.0669
▁이즈미	-12.0669
ball	-12.067
▁맴	-12.0671
▁정해져	-12.0671
▁깊숙	-12.0672
▁중생대	-12.0673
▁치킨	-12.0674
▁애덤스	-12.0674
▁상투	-12.0675
▁데일리	-12.0676
▁함흥	-12.0677
니어	-12.068
▁喜	-12.068
▁翼	-12.068
일치	-12.068
▁덮개	-12.0683
▁베른	-12.0684
▁銀	-12.0684
메니	-12.0687
▁初	-12.0687
▁미수	-12.0687
▁For	-12.0688
▁虎	-12.0689
▁의병	-12.0689
▁ST	-12.069
▁흥원	-12.0691
▁사회민주당	-12.0694
▁Ha	-12.0694
▁안동시	-12.0695
▁조립	-12.0695
▁케이트	-12.0695
▁당당	-12.0696
▁평형	-12.0697
핸드볼	-12.07
▁시게	-12.0701
ン	-12.0704
▁주둥	-12.0704
▁King	-12.0706
▁運	-12.0707
▁시몬	-12.0709
▁온실	-12.0709
▁廳	-12.0712
▁캐리	-12.0713
티에	-12.0715
궈	-12.0716
▁수양	-12.0717
계약	-12.0719
▁관문	-12.072
▁')	-12.072
▁현도	-12.0721
▁꿀	-12.0722
IN	-12.0726
▁케이크	-12.0729
▁히타	-12.0729
▁가계	-12.0729
▁산시	-12.0731
▁애정	-12.0734
▁때려	-12.0734
▁측량	-12.0734
▁계보	-12.0737
▁유망	-12.074
▁본초	-12.0744
퉁	-12.075
▁절단	-12.075
▁지오	-12.0752
텍	-12.0753
▁섰	-12.0754
▁루즈	-12.0756
WC	-12.0757
▁NT	-12.0761
路	-12.0764
몸	-12.0767
cy	-12.0767
▁192	-12.0771
멘토	-12.0771
▁流	-12.0772
▁피카	-12.0774
▁교지	-12.0777
▁차명	-12.0778
ling	-12.0779
생활	-12.078
▁콕	-12.0783
놀이	-12.0784
▁정형	-12.079
▁엘레	-12.079
▁데카르	-12.0793
▁실상	-12.0795
▁로키	-12.0796
▁추력	-12.0796
▁본존	-12.0797
い	-12.0797
▁악어	-12.08
▁해커	-12.0803
▁시안	-12.0805
▁무사시	-12.0808
▁완도	-12.0809
▁章	-12.0813
▁118	-12.0814
코스트	-12.0816
루미	-12.0816
브리	-12.0816
통일	-12.0816
▁임종	-12.0825
▁차수	-12.0829
▁위생	-12.0833
▁편제	-12.0839
▁도적	-12.0841
▁쓰러	-12.0842
и	-12.0843
▁타이베	-12.0849
▁헤라	-12.0853
공산	-12.0856
▁내린다	-12.0863
▁생긴다	-12.0869
▁페트로	-12.087
바흐	-12.0871
▁배역	-12.0874
승우	-12.0878
▁왕정	-12.0879
▁성품	-12.0884
▁라기	-12.0885
▁마키	-12.0886
널드	-12.0886
ub	-12.089
▁곧이	-12.0891
▁자오	-12.0893
▁상기	-12.0893
▁타우	-12.0896
▁고치	-12.0898
▁마라	-12.0904
레틱	-12.0905
▁수위	-12.0907
▁대관	-12.0915
DR	-12.0915
▁알바	-12.0917
리어	-12.0922
▁부관	-12.0924
▁애덤	-12.0925
▁오자	-12.0928
▁기성	-12.0928
▁가이아	-12.0929
▁서귀포	-12.0934
▁수수께끼	-12.0934
▁패럴림픽	-12.0934
洙	-12.0934
麟	-12.0934
쁨	-12.0934
▁도깨비	-12.0934
▁키르기스	-12.0934
▁Group	-12.0934
▁가고시마	-12.0934
▁퍼즐	-12.0935
▁저질렀	-12.0935
▁tv	-12.0935
▁김유신	-12.0936
▁가르시아	-12.0936
▁율리우스	-12.0937
▁刺	-12.0937
▁奎	-12.0937
▁럭비	-12.0937
▁톰슨	-12.0938
▁1803	-12.0938
▁이케다	-12.0938
▁안티오	-12.0938
▁With	-12.0938
틀랜드	-12.0939
▁니켈	-12.0939
▁통솔	-12.0939
반수	-12.0939
▁녹말	-12.0939
▁깜	-12.094
치루	-12.0941
▁메디치	-12.0941
▁위너스	-12.0941
험	-12.0941
▁www	-12.0941
▁라인업	-12.0943
▁남단	-12.0943
부르	-12.0943
▁수필	-12.0944
▁자격증	-12.0945
▁珍	-12.0946
▁유전학	-12.0946
▁치사	-12.0947
▁질투	-12.0947
▁느린	-12.0948
▁치러졌	-12.095
ib	-12.095
▁항아리	-12.0951
▁鮮	-12.0953
▁안겨	-12.0953
렐라	-12.0956
▁요충	-12.0956
▁뇨	-12.0957
▁겨	-12.0957
▁남양	-12.096
▁썩	-12.096
▁FI	-12.0961
▁미야기	-12.0963
▁紀	-12.0965
▁綱	-12.0965
▁갚	-12.0965
▁온건	-12.0965
▁소외	-12.0965
해져	-12.0967
▁종말	-12.0968
▁樓	-12.0969
▁앗	-12.0969
▁故	-12.0974
▁샷	-12.0974
생물	-12.0974
▁호스	-12.0975
▁지청	-12.0979
▁201	-12.0979
▁부풀	-12.0981
▁미카엘	-12.0982
▁802	-12.0982
▁제프리	-12.0982
▁쇼크	-12.0983
▁맨해	-12.0983
▁파랑	-12.0983
▁쿰	-12.0983
▁자생	-12.0985
▁중소	-12.0986
▁줌	-12.099
▁수표	-12.0991
▁KO	-12.0991
▁我	-12.0993
▁127	-12.0993
▁헌터	-12.0995
▁죽여	-12.0995
▁117	-12.0995
가르	-12.0995
포타	-12.0996
▁Tr	-12.0997
▁黨	-12.0998
헤이	-12.1001
▁두르	-12.1002
▁密	-12.1002
▁노후	-12.1004
▁정승	-12.1005
▁통감	-12.1005
ney	-12.1006
▁出	-12.1007
▁實	-12.1007
▁총격	-12.1008
▁혀	-12.1008
▁레프	-12.1009
di	-12.1009
▁대성	-12.101
▁房	-12.1012
▁국호	-12.1012
▁유고	-12.1012
▁심정	-12.1014
앤	-12.1017
▁창세	-12.1018
▁아시카	-12.1019
▁푸아	-12.1023
<	-12.1026
▁다름	-12.1026
▁금고	-12.1029
▁草	-12.1031
궤	-12.1033
元	-12.1034
▁174	-12.1036
껍	-12.1036
▁구스타	-12.1036
▁왕성	-12.1037
督	-12.1038
▁목동	-12.1042
頭	-12.1042
▁라즈	-12.1043
랩	-12.1043
운형	-12.1044
흔	-12.1045
▁직계	-12.1046
▁근위	-12.1049
▁브루클	-12.105
▁감성	-12.105
▁da	-12.105
▁트로피	-12.105
▁워즈	-12.1052
▁포천	-12.1056
▁들어	-12.1056
▁번창	-12.1065
변속	-12.1066
▁박태	-12.1069
▁미친다	-12.107
▁새우	-12.107
ice	-12.1079
▁가토	-12.108
▁영정	-12.1081
▁대종	-12.1082
▁차림	-12.1084
▁러스	-12.1086
▁인문	-12.1086
▁440	-12.1089
▁저우	-12.109
▁부락	-12.1091
▁대덕	-12.1092
슬로	-12.1093
ON	-12.1095
▁Big	-12.1097
▁God	-12.1109
자르	-12.111
▁반주	-12.111
▁자아	-12.111
▁애슬	-12.1114
▁김선	-12.1117
▁아바	-12.1123
큐어	-12.1123
▁관상	-12.1123
▁안방	-12.1125
▁병장	-12.1127
▁기니	-12.1133
▁여건	-12.1135
에미리	-12.1136
▁부제	-12.1139
▁운문	-12.1144
▁조석	-12.115
▁FK	-12.1153
▁예의	-12.1154
가노	-12.1156
다드	-12.1157
rus	-12.1159
▁미러	-12.116
▁가까워	-12.116
▁CA	-12.1165
HO	-12.1168
오리	-12.1174
▁계룡	-12.1186
▁SD	-12.1186
▁양력	-12.1186
플로	-12.1191
터스	-12.1191
▁푸르	-12.1191
▁최영	-12.1192
독립	-12.1196
아라비아	-12.1201
▁반항	-12.1203
▁양제	-12.1205
ll	-12.1206
▁리에	-12.1207
с	-12.1212
▁Michael	-12.1212
▁기타큐슈	-12.1212
卿	-12.1212
学	-12.1212
뭐	-12.1212
▁독립선언	-12.1212
▁브뤼셀	-12.1212
▁덧붙	-12.1212
▁볼셰비	-12.1212
▁플래닛	-12.1212
▁여러해살이	-12.1212
▁다크	-12.1212
▁시네마	-12.1213
▁묻혔	-12.1213
▁레지스터	-12.1213
▁픽처스	-12.1213
▁콘솔	-12.1213
▁Code	-12.1214
▁요시노	-12.1214
▁오프라인	-12.1214
▁아날	-12.1214
▁뫼	-12.1214
▁圓	-12.1215
▁밧	-12.1215
▁추억	-12.1215
▁세르게	-12.1216
동면	-12.1218
ash	-12.1218
▁일렉트로	-12.1219
▁越	-12.1219
▁물러난	-12.1222
▁민병	-12.1222
프리	-12.1222
▁CH	-12.1223
▁그랬	-12.1223
▁서거	-12.1223
이샤	-12.1224
▁파푸아	-12.1224
▁새겼	-12.1224
▁잠실	-12.1225
ony	-12.1225
라바	-12.1226
▁안나	-12.1227
▁옐로	-12.1228
▁모모	-12.1229
유권	-12.1229
▁이양	-12.123
▁유우	-12.1231
▁정재	-12.1233
FO	-12.1233
▁팟	-12.1234
▁쿠퍼	-12.1234
▁베르트	-12.1234
▁야외	-12.1235
▁축일	-12.1237
본부	-12.124
ea	-12.1241
ens	-12.1243
▁안주	-12.1247
▁정종	-12.1248
▁香	-12.1248
자크	-12.1249
▁교동	-12.1253
▁봉화	-12.1257
▁문집	-12.1257
▁갈비	-12.1259
▁불러들	-12.1263
짜기	-12.1263
ura	-12.1266
ran	-12.1267
▁사비	-12.1268
▁Her	-12.1269
▁천왕	-12.1271
▁魏	-12.1272
▁북조	-12.1275
낸다	-12.1276
▁마르크	-12.1281
▁총국	-12.1283
▁모함	-12.1283
▁여성주의	-12.1283
▁채색	-12.1287
▁祭	-12.1287
▁모국	-12.1288
▁무작	-12.1289
▁유희	-12.1293
그레	-12.1293
▁쿠로	-12.1295
▁George	-12.1295
▁도선	-12.1295
증기	-12.1296
▁활자	-12.1298
ov	-12.13
▁식스	-12.13
▁보낸다	-12.13
▁秦	-12.1302
▁뜬	-12.1302
▁임정	-12.1306
▁즙	-12.1306
붙	-12.1307
▁페더	-12.1307
▁프로테	-12.1307
▁강성	-12.1308
▁고려사	-12.131
무소	-12.1311
시브	-12.1312
▁직류	-12.1312
▁격전	-12.1317
▁엄지	-12.1321
▁띤	-12.1325
orn	-12.1326
방울	-12.1327
싯	-12.1328
作	-12.1328
랴	-12.1329
社	-12.1329
通	-12.1329
▁이규	-12.133
北	-12.133
▁아시	-12.133
곧	-12.133
〈	-12.133
▁管	-12.1331
▁線	-12.1331
실험	-12.1332
CIA	-12.1333
▁불문	-12.1333
로이	-12.1337
황색	-12.1348
▁늘려	-12.135
PE	-12.1355
CO	-12.1355
▁코소	-12.1357
▁간파	-12.1357
▁세요	-12.136
▁형용	-12.1361
▁직할	-12.1367
유사	-12.1367
▁노사	-12.1368
▁가드	-12.1369
▁기린	-12.1369
▁Blue	-12.1372
▁대담	-12.1379
▁作	-12.138
▁영유	-12.1381
▁시야	-12.1381
ala	-12.1382
▁오오	-12.1384
▁판관	-12.1385
▁황산	-12.1386
▁위법	-12.1387
힌다	-12.1392
▁생선	-12.1393
▁두드러	-12.1397
▁107	-12.1398
▁넘버	-12.1398
▁노원	-12.1402
▁최경	-12.1403
▁형질	-12.1405
▁개헌	-12.1406
서부	-12.1407
▁구마	-12.1409
남동	-12.1411
▁성악	-12.1415
반정	-12.1417
▁자질	-12.1419
▁토이	-12.142
▁해독	-12.1421
▁맞대	-12.1425
▁대타	-12.1427
▁분장	-12.143
▁주창	-12.143
ik	-12.1435
▁아츠	-12.1439
NT	-12.1442
뭄	-12.1443
▁나일	-12.1446
▁전보	-12.1448
go	-12.1454
의금부	-12.1457
▁Ka	-12.1458
▁드라이	-12.1458
▁영사	-12.146
에쓰	-12.1464
▁거사	-12.1465
▁Charle	-12.1467
하루	-12.147
▁성직	-12.1472
사상	-12.1474
▁Open	-12.1476
▁안드레	-12.1478
슬라	-12.1481
▁152	-12.1485
▁창녕	-12.1493
е	-12.1494
영호	-12.1495
▁AU	-12.1495
▁Jean	-12.1497
▁마르세유	-12.1498
▁자메이카	-12.1498
▁펭귄	-12.1498
汝	-12.1498
菩薩	-12.1498
那	-12.1498
閔	-12.1498
뜰	-12.1498
▁농작물	-12.1498
▁뉴클레오타이드	-12.1498
▁스캔들	-12.1498
▁목걸이	-12.1498
▁휴게소	-12.1498
▁흰개미	-12.1498
▁삽	-12.1498
▁왓슨	-12.1499
▁파충류	-12.1499
た	-12.1499
▁겨루	-12.1499
▁Cup	-12.15
▁夢	-12.15
▁完	-12.15
▁少	-12.15
▁致	-12.15
▁푸젠	-12.1501
▁카스텔	-12.1502
▁다비드	-12.1504
텐츠	-12.1504
▁잡혔	-12.1505
▁->	-12.1505
▁以	-12.1505
▁톱니	-12.1505
▁루크	-12.1507
▁조비	-12.1508
▁예종	-12.1509
▁끝냈	-12.1509
▁우마	-12.151
▁생겨난	-12.151
▁낭비	-12.1511
▁구금	-12.1511
▁민요	-12.1513
▁채굴	-12.1513
▁하이브	-12.1513
▁편견	-12.1514
▁잔존	-12.1516
▁더빙	-12.1517
▁수력	-12.1517
▁간첩	-12.1518
감동	-12.1518
▁겟	-12.152
▁필터	-12.1521
▁조롱	-12.1526
▁미셸	-12.1526
▁익명	-12.1527
▁종묘	-12.1527
ru	-12.1529
▁정국	-12.1532
▁고바야	-12.1534
▁베테	-12.1534
▁이뤄지	-12.1534
▁도마뱀	-12.1535
▁동성	-12.1539
▁멤	-12.1539
▁提	-12.154
▁츄	-12.154
▁재래	-12.1541
▁系	-12.1545
구나	-12.1546
소스	-12.1549
▁발사체	-12.1549
▁줄리아	-12.155
▁방공	-12.155
▁웨인	-12.1552
▁영천	-12.1554
▁어려	-12.1554
콘드	-12.156
▁구례	-12.1563
곱	-12.1563
▁恩	-12.1565
▁기와	-12.1566
▁식용	-12.1568
▁복소	-12.1568
▁걸린다	-12.1569
ze	-12.1569
▁슈고	-12.1571
▁교직	-12.1572
▁175	-12.1572
▁걸어	-12.1573
▁갯	-12.1575
▁수락	-12.1575
▁나타낸	-12.158
▁坐	-12.158
▁슬리	-12.158
고스	-12.1583
MC	-12.1585
▁Don	-12.1585
OR	-12.1586
▁구시	-12.1587
▁1400	-12.1588
▁블러	-12.1589
▁파열	-12.1589
▁전과	-12.159
▁송파	-12.159
▁스택	-12.159
▁아유	-12.1597
▁중견	-12.16
▁국화	-12.1601
▁혁	-12.1602
프스키	-12.1603
▁야수	-12.1607
▁한족	-12.1608
▁무자	-12.1609
동원	-12.1609
▁투하	-12.161
▁마타	-12.1613
▁’()	-12.1614
▁Ge	-12.1614
진보당	-12.1617
▁바꾼	-12.1618
器	-12.162
麗	-12.162
察	-12.1621
試	-12.1621
▁승선	-12.1622
▁칸트	-12.1622
和	-12.1622
女	-12.1623
쉐	-12.1623
皇	-12.1624
잘	-12.1624
▁口	-12.1625
GO	-12.1626
▁동시대	-12.1626
위원회	-12.1631
노바	-12.1631
버러	-12.1636
▁구청	-12.1641
▁안심	-12.1641
▁박재	-12.1641
1801	-12.1643
▁앨리	-12.1644
▁알베르	-12.1651
▁콘스	-12.1652
▁113	-12.1653
타니	-12.1653
파이어	-12.1655
▁유선	-12.1655
▁박상	-12.1658
by	-12.166
부리	-12.166
▁다카하	-12.1667
▁린다	-12.1668
▁샤오	-12.167
▁영화상	-12.1671
▁강호	-12.1673
타로	-12.1675
▁산문	-12.1677
▁마레	-12.168
북구	-12.1681
▁장래	-12.1682
▁Par	-12.1683
AL	-12.1684
▁Dr	-12.1685
▁155	-12.1686
▁가메	-12.169
▁줄어	-12.1692
▁CR	-12.1693
▁환경부	-12.1693
▁알렉산	-12.1695
▁연천	-12.1699
▁한복	-12.1704
치노	-12.1704
▁원곡	-12.1709
▁사내	-12.171
▁하마	-12.1711
▁일파	-12.1716
▁즘	-12.1722
▁해질	-12.1723
▁예식	-12.1724
▁122	-12.1725
ux	-12.1728
▁상어	-12.1729
▁合	-12.173
관개	-12.173
ron	-12.1731
▁사치	-12.1731
▁오도	-12.1735
▁나루	-12.1738
▁오크	-12.1741
▁봉인	-12.1746
▁해치	-12.1759
▁LP	-12.1766
거래	-12.1768
▁수목	-12.1768
▁김치	-12.1768
▁브루스	-12.177
▁풀리	-12.1771
▁데르	-12.1774
▁오차	-12.1777
ham	-12.1778
▁슈테	-12.178
▁청문	-12.1781
이시	-12.1782
넨	-12.1784
han	-12.1785
▁121	-12.1787
▁레이더	-12.1788
▁Dream	-12.1791
ς	-12.1792
▁섞여	-12.1792
▁패러다임	-12.1792
▁프롤레타리아	-12.1792
内	-12.1792
敦	-12.1792
邉	-12.1792
둡	-12.1792
▁드미트리	-12.1792
▁미스코리아	-12.1792
▁내세웠	-12.1792
▁앤더슨	-12.1792
▁Good	-12.1792
如來	-12.1792
▁슈퍼컵	-12.1792
▁콜럼	-12.1793
▁"|	-12.1793
▁스쿼	-12.1793
▁전염병	-12.1793
▁Max	-12.1794
▁半	-12.1795
▁숀	-12.1795
▁회고록	-12.1795
▁피닉스	-12.1796
▁』,	-12.1796
▁진흥왕	-12.1797
▁펠레	-12.1797
▁불쾌	-12.1797
CA	-12.1797
▁귀납	-12.1797
▁크라운	-12.1798
▁왕당	-12.1798
▁농담	-12.1799
▁交	-12.18
▁협동조합	-12.18
▁제로	-12.18
▁올라갈	-12.18
▁독살	-12.1801
▁숙박	-12.1803
방식	-12.1803
▁Free	-12.1805
▁斗	-12.1805
▁淑	-12.1805
ps	-12.1805
ET	-12.1806
▁갈리아	-12.1806
▁환율	-12.1806
▁아편	-12.1808
▁가브리엘	-12.181
AR	-12.1811
▁대교구	-12.1811
▁Ver	-12.1811
▁부조	-12.1811
▁허들	-12.1812
▁항문	-12.1815
▁깁	-12.1815
▁펼쳐진	-12.1815
영사관	-12.1816
▁미스터	-12.1816
▁행한	-12.1818
▁페오	-12.1819
▁리옹	-12.1819
lin	-12.1826
▁워치	-12.1827
▁감사원	-12.1828
링거	-12.1828
OL	-12.1829
▁철강	-12.1829
▁충고	-12.1832
아노	-12.1833
▁쿠페	-12.1833
능력	-12.1834
▁아이언	-12.1835
사소	-12.1835
▁자유형	-12.1836
▁급유	-12.1837
ue	-12.1837
▁로라	-12.1841
▁보리스	-12.1842
브레	-12.1843
▁유머	-12.1844
프리트	-12.1844
▁순차	-12.1845
ight	-12.1846
▁세키	-12.1847
▁진주시	-12.1848
▁시찰	-12.1848
리트	-12.1848
▁메스	-12.1851
▁매너	-12.1852
ula	-12.1853
▁290	-12.1854
▁전권	-12.1855
▁Jo	-12.1858
▁재고	-12.1859
▁전염	-12.186
▁코발	-12.1861
▁365	-12.1864
▁침대	-12.1865
▁석회	-12.1865
▁타일	-12.1867
SS	-12.1868
iz	-12.1868
▁박진	-12.187
레브	-12.1871
▁SL	-12.1873
▁Ja	-12.1874
PP	-12.1874
▁선풍	-12.1875
▁아소	-12.188
베리아	-12.1883
ncil	-12.1885
▁기묘	-12.1885
▁表	-12.1887
▁서지	-12.1889
뤘	-12.1891
▁외교부	-12.1897
▁SQL	-12.1897
▁역사학	-12.1899
▁향신	-12.19
▁베오	-12.1902
천사	-12.1903
▁포교	-12.1904
▁선양	-12.1904
가야	-12.1905
넌	-12.1908
르크	-12.1909
▁조르	-12.1909
▁학력	-12.1912
팩	-12.1912
왕후	-12.1914
턱	-12.1914
▁위조	-12.1914
멀	-12.1914
▁카바	-12.1916
▁강행	-12.1917
SD	-12.1917
尉	-12.1919
術	-12.192
象	-12.1921
▁탈리아	-12.1921
그너	-12.1922
르디	-12.1923
뚱	-12.1923
章	-12.1925
캐슬	-12.1926
號	-12.1926
▁눌	-12.1926
옌	-12.1926
규약	-12.1927
펑	-12.1927
돔	-12.1927
▁지도부	-12.1927
▁공연장	-12.1928
PC	-12.1931
▁바쿠	-12.1931
▁용의	-12.1931
미디어	-12.1932
▁동거	-12.1935
▁매립	-12.1937
▁감상	-12.1937
카르타	-12.1937
▁여유	-12.1937
▁페트	-12.1943
포트	-12.1943
▁제단	-12.1947
▁오미	-12.1948
▁123	-12.1948
▁살라	-12.1951
▁완산	-12.1952
링턴	-12.1953
sh	-12.1955
▁마인	-12.1957
▁노현	-12.1964
▁Los	-12.1965
▁싯	-12.197
▁해머	-12.1974
▁마우	-12.1977
▁유타	-12.1978
▁남방	-12.1979
▁원한	-12.198
월드	-12.1981
▁얄	-12.1981
불명	-12.1982
센트	-12.1985
▁부적	-12.1987
▁KB	-12.1987
▁페인	-12.1987
▁트래	-12.1987
▁클레	-12.1992
생산	-12.1993
▁중앙선	-12.1997
▁산신	-12.1998
서류	-12.2002
▁370	-12.2002
▁Bar	-12.2004
▁신입	-12.2004
are	-12.2007
▁천상	-12.2012
5	-12.2013
▁두터	-12.2015
▁비니	-12.2021
▁문정	-12.2022
자원	-12.2023
라시아	-12.2024
▁아닌가	-12.2029
sen	-12.2031
▁김시	-12.2034
▁DD	-12.2038
거스	-12.2041
▁법전	-12.2042
▁돌려보	-12.2042
▁호적	-12.2043
▁유림	-12.2045
▁보두	-12.2046
베디	-12.2048
ATO	-12.2056
▁148	-12.2057
▁김연	-12.2058
▁스모	-12.2059
▁길러	-12.2061
▁科	-12.2063
▁자비	-12.2064
▁직관	-12.2066
▁꾸며	-12.2067
ning	-12.207
어졌	-12.2071
르케	-12.2073
▁궐	-12.2073
▁命	-12.2074
▁교부	-12.2074
▁무도	-12.2076
ure	-12.2077
▁단양	-12.2077
▁모하	-12.2078
▁Cou	-12.208
▁진성	-12.2081
▁Ne	-12.2084
▁대니얼	-12.2086
▁도독	-12.2088
▁애기	-12.209
▁샤프	-12.209
▁메트	-12.209
사이드	-12.2094
▁Green	-12.2095
▁노스캐롤라이나	-12.2095
▁알래스카	-12.2095
射	-12.2095
町	-12.2095
隆	-12.2095
魯	-12.2095
▁우에스기	-12.2095
▁플러그	-12.2095
▁Robert	-12.2095
▁남한산성	-12.2095
▁사일런	-12.2095
▁베이컨	-12.2095
▁예컨대	-12.2096
▁비어	-12.2096
▁괄호	-12.2096
▁틈새	-12.2096
▁가르쳐	-12.2096
▁카카오	-12.2096
평구	-12.2096
▁아이파크	-12.2096
▁가로막	-12.2097
▁머물러	-12.2098
▁改	-12.2098
▁병마절	-12.2098
▁프론트	-12.2098
▁가야	-12.2098
▁합쳐져	-12.2098
▁캐스터	-12.2098
▁프랑코	-12.2099
▁허베이	-12.21
▁리그컵	-12.2101
▁브래드	-12.2101
▁대각	-12.2101
▁올리브	-12.2102
▁크루즈	-12.2102
▁쟁점	-12.2103
▁»	-12.2103
▁Heart	-12.2103
IC	-12.2103
▁사생활	-12.2104
▁포르노	-12.2104
▁눌러	-12.2104
▁오스카	-12.2105
▁바늘	-12.2105
▁대단히	-12.2105
▁수레	-12.2106
▁올라와	-12.2106
▁멍	-12.2107
▁댈	-12.2108
▁동남아	-12.2108
▁추운	-12.2108
▁취할	-12.2109
▁스펜	-12.2109
▁키아	-12.211
▁클럭	-12.211
라이트	-12.2111
▁왓	-12.2112
▁恒	-12.2113
▁比	-12.2113
▁끼워	-12.2114
▁휘트	-12.2115
▁전해져	-12.2115
▁양대	-12.2115
▁예비역	-12.2116
▁오우치	-12.2117
▁孔	-12.2119
▁손녀	-12.212
▁火	-12.2121
▁한성	-12.2123
▁햇	-12.2124
대표	-12.2126
▁일렉트	-12.2127
hi	-12.2127
브롤	-12.2127
기업	-12.2129
be	-12.213
▁로페스	-12.2131
▁변론	-12.2133
▁서당	-12.2133
▁}	-12.2134
▁庵	-12.2134
▁에릭	-12.2138
▁입술	-12.2138
▁부름	-12.2139
▁알폰	-12.2139
▁陸	-12.214
마디	-12.2145
DU	-12.2147
▁바지	-12.2148
DI	-12.2148
ost	-12.2148
▁명인	-12.2154
▁렙	-12.2156
▁바투	-12.2158
▁양천	-12.2158
와라	-12.2159
모잠	-12.216
▁農	-12.2161
hat	-12.2161
웨	-12.2162
▁Game	-12.2163
▁계엄	-12.2163
▁관용	-12.2165
▁오만	-12.2165
▁물병	-12.2167
구르	-12.2167
▁소피	-12.2168
▁세무	-12.2169
▁세단	-12.2172
광조	-12.2173
▁자르	-12.2174
▁분사	-12.2175
▁생물학자	-12.2177
▁그럴	-12.2178
▁지리학	-12.2178
▁골격	-12.2182
슬란	-12.2183
▁불복	-12.2185
▁빨라	-12.2186
nes	-12.2187
▁르네	-12.2188
일드	-12.2189
▁320	-12.2192
▁o	-12.2192
ath	-12.2192
▁DB	-12.2195
▁교육감	-12.2196
▁오하	-12.22
▁직교	-12.22
버리	-12.22
▁보정	-12.2202
▁원단	-12.2205
화산	-12.2205
▁CS	-12.2206
서스	-12.2207
▁으리라	-12.2208
▁탭	-12.2209
▁군자	-12.2209
▁부동	-12.221
▁자판	-12.221
▁발터	-12.2212
▁보우	-12.2212
▁경량	-12.2214
형제	-12.222
이코	-12.2221
▁해리스	-12.2221
▁세레스	-12.2221
꼴	-12.2222
세키	-12.2223
▁진천	-12.2224
성훈	-12.2225
▁BC	-12.2226
니오	-12.2227
▁레이트	-12.2229
gi	-12.223
▁Mr	-12.2232
分	-12.2232
▁만난다	-12.2233
▁본체	-12.2233
▁221	-12.2234
몬드	-12.2234
衛	-12.2234
▁사서	-12.2236
間	-12.2237
▁연중	-12.2237
담임	-12.2237
▁Qu	-12.2237
世	-12.2239
星	-12.2239
集	-12.2239
相	-12.2239
연맹	-12.2243
▁경무	-12.2246
▁노보	-12.2249
해자	-12.225
▁조개	-12.2252
▁안식	-12.2253
▁소동	-12.2255
▁式	-12.2257
▁독도	-12.226
ä	-12.2261
부사	-12.2262
▁타리	-12.2266
친다	-12.2271
▁성제	-12.2276
▁지방산	-12.2277
▁여대	-12.2278
▁상록	-12.228
▁오대	-12.2281
▁고창	-12.2282
▁연해	-12.2282
▁경시	-12.2283
▁항전	-12.2286
▁파스	-12.2289
▁내분	-12.229
리노	-12.2294
▁Ex	-12.2295
200	-12.2295
▁Compa	-12.2296
▁방울	-12.2297
▁".	-12.2298
▁650	-12.23
ane	-12.2301
▁강동	-12.2308
▁내려온	-12.231
글리	-12.2311
▁HTM	-12.2316
▁ABC	-12.2318
▁사산	-12.2318
▁身	-12.2321
▁델리	-12.2324
▁어파	-12.2325
▁요시쓰	-12.2327
카락	-12.2328
ko	-12.2329
▁단역	-12.2329
▁가네	-12.2329
▁205	-12.2331
▁양원	-12.2334
▁고아	-12.2335
코인	-12.2337
정보	-12.2339
▁타구	-12.234
병옥	-12.2341
▁회동	-12.2341
NET	-12.2341
▁레이지	-12.2346
▁테오	-12.2348
▁SI	-12.2348
▁채워	-12.2348
▁구루	-12.2351
▁이남	-12.2355
▁주이	-12.2357
▁배리	-12.2358
▁대목	-12.2358
낸	-12.2365
▁함안	-12.2365
▁스틱	-12.2368
▁올레	-12.2369
▁나눈	-12.2369
▁회고	-12.2374
▁아디	-12.2375
ab	-12.2377
▁김주	-12.2377
bi	-12.238
▁2500	-12.2381
▁145	-12.2387
미르	-12.2387
▁에버	-12.2394
▁해류	-12.2398
▁군위	-12.2399
▁우대	-12.2401
바이트	-12.2402
새긴	-12.2407
ス	-12.2407
ject	-12.2407
▁과테말라	-12.2407
▁끔찍	-12.2407
▁스맥다운	-12.2407
▁어드밴	-12.2407
▁유니버설	-12.2407
▁컨벤션	-12.2407
▁핼리	-12.2407
于	-12.2407
址	-12.2407
壇	-12.2407
約	-12.2407
괌	-12.2407
륄	-12.2407
▁미적분	-12.2407
▁느낄	-12.2407
▁훔쳐	-12.2407
▁뒤덮	-12.2408
▁Saint	-12.2408
▁막시밀리	-12.2408
▁해부학	-12.2408
▁무지개	-12.2408
▁셀틱	-12.2408
▁Award	-12.2408
▁앵커	-12.2409
▁哲	-12.241
▁宜	-12.241
▁챠	-12.241
▁미인	-12.241
▁내려갔	-12.2412
▁웨이브	-12.2412
▁러닝	-12.2413
ame	-12.2413
▁언젠	-12.2414
서구	-12.2415
▁홍익	-12.2415
▁혈압	-12.2415
▁孟	-12.2416
▁私	-12.2416
▁호찌	-12.2417
▁매킨	-12.2418
촌리	-12.2419
사병	-12.2419
▁미스터리	-12.2419
▁커져	-12.242
▁버러	-12.2421
▁靖	-12.2421
▁중공	-12.2421
클로	-12.2421
▁타타르	-12.2422
▁Count	-12.2422
▁웅진	-12.2423
축물	-12.2423
▁응급	-12.2424
▁리키	-12.2425
▁붉은	-12.2426
▁경멸	-12.2426
▁접착	-12.2426
▁와이드	-12.2427
▁벵골	-12.2427
▁팔렸	-12.2427
▁조연	-12.2428
▁메탄	-12.2428
▁특이점	-12.2428
▁생리학	-12.2429
▁EBS	-12.243
▁버티	-12.2431
총관	-12.2432
▁丹	-12.2432
▁과격	-12.2433
▁아스카	-12.2439
▁흑색	-12.244
▁성산	-12.2442
▁양념	-12.2444
▁거북	-12.2446
▁육식	-12.2448
▁능동	-12.2449
▁코린토	-12.245
▁유식	-12.2452
▁군량	-12.2452
▁유독	-12.2453
메리	-12.2455
치히	-12.2455
▁패스트	-12.2457
루리아	-12.2458
▁우루스	-12.2459
▁바그다	-12.2459
▁요절	-12.2459
▁정약	-12.2464
▁상과	-12.2469
▁증식	-12.247
▁조례	-12.2471
▁바오	-12.2474
▁마켓	-12.2475
▁來	-12.2476
▁정청	-12.248
IR	-12.2481
▁구석	-12.2481
▁순식	-12.2489
▁분별	-12.2491
▁마이크로	-12.2492
▁정여	-12.2495
▁수인	-12.2498
▁샌드	-12.2499
ga	-12.2501
▁배분	-12.2501
▁팔린	-12.2503
▁136	-12.2504
BI	-12.2505
▁보름	-12.2508
ware	-12.2508
tain	-12.2508
▁바바	-12.2509
av	-12.2509
▁카리	-12.2513
▁미디	-12.2514
▁스크	-12.2515
니언	-12.2518
▁항우	-12.252
▁해냈	-12.252
▁광자	-12.2521
마다	-12.2523
▁만성	-12.2523
키메	-12.2524
▁인승	-12.2525
▁교파	-12.2525
▁정거	-12.2528
▁舍	-12.253
▁발목	-12.2532
▁봉수	-12.2541
▁領	-12.2542
▁매도	-12.2545
▁파기	-12.2552
▁가비	-12.2553
報	-12.2553
▁타지	-12.2554
짖	-12.2555
DM	-12.2556
▁신관	-12.2557
▁장택	-12.2557
力	-12.2557
漢	-12.2558
用	-12.2559
式	-12.256
典	-12.2561
▁원효	-12.2561
닿	-12.2561
樂	-12.2561
굽	-12.2562
▁재발	-12.2562
松	-12.2562
▁헤지	-12.2562
원숭이	-12.2562
▁言	-12.2564
푸르	-12.2565
▁위헌	-12.2566
▁del	-12.2566
▁로베르	-12.2568
▁콧	-12.257
▁치과	-12.2571
▁옥사	-12.2575
▁향기	-12.2575
친왕	-12.2577
이프	-12.2578
▁국문	-12.258
▁족장	-12.258
IX	-12.2583
메일	-12.2583
▁서품	-12.2583
▁투니	-12.2584
저축	-12.2585
▁천지	-12.2585
▁병과	-12.2585
▁돋보	-12.2591
▁알로	-12.2593
▁보문	-12.2595
▁단조	-12.2607
올로	-12.261
600	-12.2611
▁돋	-12.2612
▁116	-12.2614
▁ID	-12.2616
mer	-12.2619
▁레버	-12.2619
▁정은	-12.2621
ata	-12.2622
▁월리스	-12.2622
▁She	-12.2624
▁미츠	-12.2626
▁개기	-12.2628
조작	-12.2629
▁오트	-12.2635
통신	-12.2639
▁380	-12.264
▁변해	-12.2644
za	-12.2651
란드	-12.2653
맥스	-12.2653
▁태백	-12.2654
▁커스	-12.2655
수수	-12.2655
▁항로	-12.266
타스	-12.2663
▁음운	-12.2663
NN	-12.2663
▁디나	-12.2665
eam	-12.2668
둑	-12.2668
모습	-12.267
▁하노	-12.2671
소녀	-12.2671
▁스러워	-12.2677
▁토비	-12.268
▁사키	-12.2688
커스	-12.2696
▁일러스트	-12.2698
▁룩	-12.2699
가요	-12.2701
▁글루	-12.2709
▁약수	-12.2711
▁인류학	-12.2713
▁미미	-12.2714
통보	-12.2714
▁벌레	-12.2716
▁디비시	-12.2717
▁부평	-12.2725
▁피사	-12.2726
닌다	-12.2727
쿠마	-12.2727
▁관현악	-12.2727
▁자이언	-12.273
ル	-12.273
ん	-12.273
▁굶주	-12.273
▁리우데자네이루	-12.273
▁묶여	-12.273
▁쐐기	-12.273
住	-12.273
台	-12.273
峴	-12.273
徳	-12.273
珠	-12.273
祿	-12.273
▁네이션스컵	-12.273
▁현미경	-12.273
▁리치먼드	-12.273
▁가로질러	-12.273
▁General	-12.273
▁앙드레	-12.273
▁떠올랐	-12.273
▁흡혈	-12.273
▁폼페이	-12.273
▁South	-12.273
뮬러	-12.2731
▁해왕	-12.2731
▁스케일	-12.2731
▁쓰러져	-12.2731
▁Light	-12.2731
▁무너져	-12.2731
▁풋살	-12.2731
▁Back	-12.2732
▁아스널	-12.2732
▁맹렬	-12.2732
▁스케치	-12.2733
▁奇	-12.2733
ff	-12.2733
▁피리	-12.2734
▁득실	-12.2734
카다	-12.2735
▁스가	-12.2735
▁프라이즈	-12.2736
▁파시스트	-12.2736
시대	-12.2737
▁164	-12.2738
▁«	-12.2738
▁允	-12.2738
▁貴	-12.2738
▁노르만	-12.2739
AM	-12.274
▁보여준	-12.2742
▁공병	-12.2743
▁오이타	-12.2744
▁돛	-12.2744
lus	-12.2745
▁피타	-12.2745
트넘	-12.2745
▁커졌	-12.2745
▁오케	-12.2746
▁6000	-12.2747
▁카레	-12.2747
▁밝혀져	-12.2748
▁스킬	-12.2748
▁페터	-12.2748
▁멱	-12.275
▁Peter	-12.275
▁640	-12.275
▁묻혀	-12.275
ax	-12.275
▁청송	-12.2751
ER	-12.2753
▁고체	-12.2754
▁스탠리	-12.2754
▁깨어	-12.2755
▁千	-12.2755
▁스테이트	-12.2756
▁귀양	-12.2757
▁센다	-12.2758
▁박격	-12.276
▁독실	-12.276
▁具	-12.2761
▁습관	-12.2765
▁持	-12.2767
▁僧	-12.2767
▁정월	-12.2767
▁고딕	-12.2767
▁격자	-12.2769
▁MIT	-12.277
▁실증	-12.277
▁Ke	-12.2775
▁아니한	-12.2778
세프	-12.278
▁헤일	-12.2781
文化	-12.2782
▁화염	-12.2782
▁충선	-12.2782
▁슐레	-12.2783
▁誠	-12.2783
▁미숙	-12.2784
▁雄	-12.2784
진영	-12.2785
▁완비	-12.2785
▁현관	-12.2786
▁대니	-12.279
▁잔디	-12.279
▁청량	-12.2791
▁태아	-12.2793
나간다	-12.2793
ser	-12.2793
▁신호장	-12.2793
▁인신	-12.2794
▁父	-12.2795
▁始	-12.2795
▁잔치	-12.2795
▁툼	-12.2798
▁緣	-12.2806
▁비야	-12.2809
▁조제	-12.2809
▁이끼	-12.2811
▁캐스트	-12.2811
▁순정	-12.2813
▁계양	-12.2814
▁대전차	-12.2819
▁암모	-12.282
▁Christ	-12.282
오네	-12.2827
치아	-12.2828
▁금동	-12.2829
▁마테	-12.2833
▁從	-12.2834
▁조준	-12.2839
▁변천	-12.284
▁영수	-12.2844
이터	-12.2844
▁퍼졌	-12.2844
▁ROM	-12.2848
▁무서	-12.2849
▁소주	-12.2851
▁싼	-12.2851
▁하급	-12.2854
▁독주	-12.2855
▁타파	-12.2857
▁園	-12.2857
어스	-12.2858
ESA	-12.2859
▁용감	-12.2859
▁사변	-12.2862
▁충무	-12.2863
▁정년	-12.2865
▁위시	-12.2865
▁경원	-12.2865
▁說	-12.2869
▁단군	-12.2869
타야	-12.2871
▁대인	-12.2871
낙	-12.2873
▁處	-12.2874
▁앤서	-12.2875
MB	-12.2876
▁게임즈	-12.2877
국사	-12.2877
▁전해진	-12.288
무스	-12.288
TO	-12.2881
▁두부	-12.2883
▁중신	-12.2884
제이	-12.2885
▁라라	-12.2886
▁인해서	-12.2886
▁et	-12.2887
▁포니	-12.2888
▁Car	-12.2889
탐	-12.289
▁경화	-12.289
구니	-12.2892
높이	-12.2894
風	-12.2894
오르	-12.2894
그라운드	-12.2894
검찰청	-12.2895
禮	-12.2895
▁노하	-12.2896
활약	-12.2897
몽골	-12.2898
▁당진	-12.2898
▁Air	-12.2899
▁129	-12.2905
헤드	-12.2908
▁나인	-12.291
▁알렉세	-12.2912
▁강인	-12.2914
ins	-12.2914
▁곡식	-12.2915
▁340	-12.2917
▁부다	-12.2918
ier	-12.2918
▁마카	-12.2922
▁결단	-12.2924
나오	-12.2929
니콘	-12.2929
▁도미	-12.2929
▁頭	-12.2931
▁소프	-12.2933
▁기독	-12.2935
▁떨어진다	-12.2935
lan	-12.2943
키타	-12.2945
▁CI	-12.2945
▁광시	-12.2947
▁사이먼	-12.2947
아스	-12.2948
치카	-12.2952
che	-12.2958
▁기마	-12.2959
▁it	-12.2968
▁ch	-12.2971
나갔	-12.2973
평동	-12.2975
▁용해	-12.2977
▁키로	-12.2978
▁목장	-12.2982
▁문물	-12.2984
▁처해	-12.2985
미니	-12.2987
이에	-12.2989
▁공문	-12.2997
▁불로	-12.2999
공화	-12.3
▁발동	-12.3
레인	-12.3002
▁부두	-12.3003
▁유학생	-12.3008
▁되돌려	-12.3009
▁엘라	-12.3014
TU	-12.3014
▁제네	-12.3018
▁134	-12.3018
▁162	-12.302
ino	-12.3022
▁모빌	-12.3023
und	-12.3024
▁강우	-12.3026
▁오른다	-12.3027
▁명상	-12.3027
▁베가	-12.3029
7	-12.303
▁크라이	-12.3035
리안	-12.3035
▁밋	-12.3035
▁코지	-12.3037
▁가오	-12.3039
▁잡힌	-12.304
▁708	-12.3045
▁Fi	-12.3046
▁말단	-12.3047
▁엔드	-12.3048
ella	-12.3049
▁서머	-12.3051
▁일렉트로닉	-12.3052
RS	-12.3053
리츠	-12.3056
▁Girl	-12.3059
즈마	-12.3061
▁아틀	-12.3061
다발	-12.3062
▁뉴올리언	-12.3063
▁뚜껑	-12.3063
謙	-12.3063
듐	-12.3063
▁경복궁	-12.3063
딧	-12.3063
▁으뜸	-12.3063
▁Cross	-12.3063
▁서스펜	-12.3063
▁중소기업	-12.3063
▁무너뜨	-12.3063
▁엑스트라	-12.3064
▁산체스	-12.3064
▁라그나	-12.3064
▁클랜	-12.3064
▁올바	-12.3064
▁마코토	-12.3064
▁What	-12.3065
▁Out	-12.3065
▁금천	-12.3065
敎育	-12.3065
▁백두산	-12.3065
▁트럼프	-12.3065
▁울릉	-12.3066
▁杜	-12.3066
▁요괴	-12.3067
▁트럼	-12.3067
▁가락	-12.3068
▁돌핀	-12.3068
▁납작	-12.3068
▁횡령	-12.3069
▁꼬마	-12.3069
▁순찰	-12.3069
▁스피어스	-12.3069
▁히브리	-12.307
▁백혈	-12.307
▁직사각	-12.307
▁궁예	-12.3071
▁Grand	-12.3073
▁터너	-12.3075
▁숙련	-12.3075
▁봉황	-12.3075
▁육박	-12.3075
▁스탠드	-12.3075
재홍	-12.3075
▁스틸러	-12.3076
▁Angel	-12.3077
▁이성질	-12.3077
▁날려	-12.3077
▁포켓	-12.3077
▁獻	-12.3078
▁細	-12.3078
▁공공연	-12.3079
▁센다이	-12.3079
▁사부	-12.308
▁슈투	-12.3082
▁쿼터	-12.3082
▁바란다	-12.3082
▁절충	-12.3083
▁지날	-12.3083
▁樹	-12.3084
▁署	-12.3084
▁김순	-12.3085
ence	-12.3085
▁맞배	-12.3086
▁김희	-12.3089
da	-12.3089
▁訓	-12.3089
▁출장소	-12.3091
▁%(	-12.3092
▁지우	-12.3092
▁엄정	-12.3093
▁키릴	-12.3093
▁물결	-12.3093
하우스	-12.3094
▁훅	-12.3095
▁溫	-12.3095
람스	-12.3096
▁705	-12.3096
하늘	-12.3096
▁영월	-12.3097
▁맥아	-12.3097
▁Cha	-12.3098
스쿠	-12.31
▁귀인	-12.31
가르트	-12.3101
▁觸	-12.3101
▁贊	-12.3101
▁허난	-12.3105
▁스토크	-12.3105
▁무예	-12.3105
▁히노	-12.3106
▁디지	-12.3106
▁스텐	-12.3106
▁접두	-12.3107
▁거칠	-12.3108
▁병풍	-12.3109
▁골절	-12.3109
▁피에트	-12.311
시피	-12.3111
▁장전	-12.3112
▁仙	-12.3113
▁영암	-12.3114
▁장신	-12.3114
▁외할	-12.3115
▁첼로	-12.3116
▁용문	-12.3117
▁靜	-12.3119
▁首	-12.3119
▁실사	-12.312
▁기조	-12.3121
▁바닷물	-12.3121
▁프로페	-12.3122
▁간결	-12.3123
▁자립	-12.3123
▁레트	-12.3124
▁외삼	-12.3126
▁헬스	-12.3126
▁추리	-12.3126
▁에바	-12.3127
▁요도	-12.3128
▁입출	-12.3129
ara	-12.313
▁부식	-12.313
▁邑	-12.313
▁챙	-12.3134
ena	-12.3137
▁몰수	-12.3137
▁율곡	-12.3139
▁오일	-12.3139
▁성수	-12.314
▁に	-12.3141
▁야심	-12.3142
▁Ed	-12.3143
▁세밀	-12.3144
▁Ru	-12.3146
▁방호	-12.3146
▁추석	-12.3147
▁스킨	-12.3147
▁리자	-12.3148
▁생리	-12.3149
▁합금	-12.315
▁편안	-12.3152
▁정언	-12.3153
동욱	-12.3156
▁탄력	-12.316
▁구독	-12.3161
▁정병	-12.3163
▁페티	-12.3163
▁후견	-12.3165
▁Not	-12.3165
▁타락	-12.3165
ection	-12.3167
▁건안	-12.3168
▁문교	-12.3169
▁윤선	-12.3169
▁회유	-12.3172
▁리사	-12.3173
▁사수	-12.3174
▁NE	-12.3175
▁무가	-12.3176
▁신봉	-12.3177
▁폭주	-12.3177
▁정공	-12.3179
▁변한다	-12.3181
SV	-12.3183
▁코크	-12.3184
let	-12.3184
▁MA	-12.3185
▁容	-12.3189
▁편향	-12.319
▁펌	-12.3193
▁억지	-12.3195
▁시발	-12.3196
▁동향	-12.3196
ö	-12.3197
▁흡입	-12.3198
마이	-12.3201
▁즌	-12.3202
민심	-12.3202
산군	-12.3202
▁사업소	-12.3204
▁우아	-12.3204
세다	-12.3209
▁민물	-12.3211
▁드러난다	-12.3213
▁탐정	-12.3213
▁글래스	-12.3213
▁'()	-12.3214
▁147	-12.3216
▁루나	-12.3217
▁저해	-12.3219
▁옥시	-12.3222
▁암수	-12.3223
위치	-12.3223
▁인출	-12.3223
▁사우디	-12.3224
▁어리	-12.3226
ts	-12.3226
랙	-12.3227
▁단체전	-12.3227
▁216	-12.3236
젯	-12.3237
言	-12.3238
퐁	-12.3239
▁260	-12.3239
떡	-12.3239
▁양군	-12.3239
킥	-12.3239
時	-12.324
▁양사	-12.3241
구멍	-12.3241
▁산노	-12.3242
▁力	-12.3242
▁플리	-12.3242
▁열중	-12.3243
▁주저	-12.3248
▁강해	-12.3248
▁제물	-12.3258
▁거지	-12.326
▁me	-12.3261
▁구치	-12.3262
▁기네스	-12.3264
위안	-12.3264
▁번개	-12.327
▁블레	-12.3272
▁로이드	-12.3273
농사	-12.3278
▁지경	-12.3279
차원	-12.328
▁열전	-12.3281
미사	-12.3283
카모토	-12.3285
▁방주	-12.3286
▁교주	-12.3286
▁강타	-12.329
▁구르	-12.3291
▁族	-12.3296
▁빈센	-12.3297
▁다케시	-12.3298
긴다	-12.3299
▁파편	-12.3303
▁사각	-12.3304
▁Gra	-12.3306
▁행해진	-12.331
▁힐베르	-12.3313
열차	-12.3313
▁하프	-12.3314
▁고승	-12.3314
tive	-12.3315
▁약사	-12.3315
▁성원	-12.3316
▁장시	-12.3316
▁헤라클	-12.3322
▁스마	-12.3324
amp	-12.3325
▁주선	-12.3326
▁행선	-12.3326
▁백지	-12.3328
▁여의	-12.3329
ide	-12.333
▁토프	-12.3332
▁자제	-12.3332
▁괴산	-12.3333
빌리	-12.3333
▁우이	-12.3337
▁벨레	-12.3342
▁화합	-12.3347
▁TA	-12.3348
▁문관	-12.3349
▁제창	-12.3349
▁츠카	-12.335
▁Josep	-12.335
CF	-12.3351
▁통지	-12.3354
▁영등포구	-12.3354
▁議	-12.3355
▁造	-12.3355
▁리안	-12.336
▁걸음	-12.3363
▁핸	-12.3364
▁파고	-12.3366
합성	-12.3367
▁찾아온	-12.3371
▁키나	-12.3371
▁가려	-12.3373
ere	-12.3373
▁여관	-12.3377
ade	-12.3378
▁장정	-12.3378
▁신진	-12.3381
보라	-12.3382
▁모호	-12.3383
TN	-12.3384
의식	-12.339
▁도르	-12.339
▁베를	-12.3394
FF	-12.3394
▁850	-12.3395
감독	-12.3395
▁Cr	-12.34
▁피어스	-12.3401
▁크레이	-12.3403
▁무찌	-12.3404
▁시원	-12.3407
른베르크	-12.3408
▁콜린	-12.3408
▁도네츠크	-12.3408
▁바뀐다	-12.3408
▁앙상블	-12.3408
▁홀딩스	-12.3408
亨	-12.3408
晋	-12.3408
若	-12.3408
袁	-12.3408
餘	-12.3408
▁딱딱	-12.3408
▁테크니컬	-12.3408
▁미성년	-12.3408
▁호날두	-12.3408
▁Christian	-12.3408
▁현급시	-12.3408
▁맥스웰	-12.3408
▁떨쳤	-12.3409
▁신식	-12.3409
플린	-12.341
▁아우구스투스	-12.341
▁컬링	-12.341
▁하이퍼	-12.341
스테롤	-12.3411
▁승낙	-12.3411
▁플랑크	-12.3411
▁득표율	-12.3411
▁미주리	-12.3412
▁프렌	-12.3412
▁주교좌	-12.3412
▁으러	-12.3413
▁좌표계	-12.3413
▁삽화	-12.3414
▁도쿠시마	-12.3414
▁생쥐	-12.3414
▁시달렸	-12.3414
▁춘향	-12.3416
▁노키아	-12.3416
▁유창	-12.3416
▁아타	-12.3416
▁애완	-12.3417
▁찌르	-12.3418
▁농축	-12.3418
▁레인보	-12.3419
동자	-12.342
▁쿠릴	-12.3423
▁警	-12.3423
▁땀	-12.3423
▁열람	-12.3423
▁하차	-12.3425
머스	-12.3427
▁베이직	-12.3427
▁301	-12.3428
▁명주	-12.3428
▁노르드	-12.3428
백색	-12.3429
▁유권	-12.3431
▁변증	-12.3436
▁org	-12.3438
▁조현	-12.3439
▁아드리아	-12.3439
▁AN	-12.3439
▁피살	-12.344
▁今	-12.3441
▁獨	-12.3441
▁귄	-12.3441
▁젠더	-12.3444
▁최규	-12.3445
▁원동	-12.3445
▁랏	-12.3446
▁킵	-12.3447
▁귀여	-12.3452
▁공해	-12.3452
니우스	-12.3452
▁네이션	-12.3453
미오	-12.3453
OM	-12.3453
급수	-12.3455
▁토피	-12.3457
▁율법	-12.3458
▁유익	-12.3463
▁비르	-12.3463
▁결집	-12.3463
▁학급	-12.3466
일체	-12.3468
▁아호	-12.3469
▁트라키	-12.3469
▁북해	-12.347
▁최남	-12.347
▁1614	-12.347
▁岳	-12.3472
타니아	-12.3473
▁산책	-12.3474
▁부전	-12.3475
▁평화상	-12.3475
▁스포	-12.3478
▁Lu	-12.3478
▁습도	-12.3479
▁공법	-12.3481
▁이와쿠	-12.3481
▁스턴	-12.3482
td	-12.3482
▁니티	-12.3484
▁캔디	-12.3484
▁위즈	-12.3485
well	-12.3485
▁관서	-12.3487
▁영덕	-12.3489
▁雨	-12.3496
▁부녀	-12.3498
▁궁주	-12.3499
▁선보인	-12.3501
▁결실	-12.3502
▁출세	-12.3503
н	-12.3504
▁라쿠	-12.3505
va	-12.3505
▁프로토	-12.3507
▁공상	-12.3507
▁변종	-12.3508
▁마더	-12.3509
aid	-12.3509
my	-12.351
ten	-12.351
▁무언	-12.3513
▁박물	-12.3515
▁Get	-12.3519
▁중고	-12.3521
▁장준	-12.3522
▁960	-12.3522
CM	-12.3522
▁카세	-12.3524
▁발열	-12.3526
▁祖	-12.353
▁동종	-12.3532
▁자위	-12.3532
▁버니	-12.3536
▁직각	-12.3539
▁연주회	-12.3541
▁멜리	-12.3543
▁발포	-12.3544
▁비지	-12.3548
▁난소	-12.3548
▁124	-12.3549
▁어웨이	-12.3556
▁노화	-12.3558
리치	-12.3558
▁보아	-12.3562
▁매드	-12.3565
▁USA	-12.3568
브웨	-12.3568
▁Top	-12.3569
▁品	-12.3569
HA	-12.357
▁185	-12.357
▁초안	-12.357
q	-12.357
RNA	-12.3571
▁수혈	-12.3575
ā	-12.3576
▁랙	-12.3581
▁드나	-12.3581
▁as	-12.3582
▁길드	-12.3583
▁공구	-12.3584
SIL	-12.3586
▁Or	-12.3587
▁151	-12.3588
位	-12.359
쯔	-12.3592
톰	-12.3593
▁수계	-12.3594
벅	-12.3594
節	-12.3594
目	-12.3594
샨	-12.3596
솟	-12.3596
論	-12.3596
솜	-12.3597
光	-12.3597
띠	-12.3597
태평양	-12.3598
낮	-12.3598
프랑스	-12.3598
▁BA	-12.36
살바	-12.3601
▁심포	-12.3602
▁바사	-12.3602
바퀴	-12.3609
▁q	-12.361
▁Mor	-12.3611
▁Ab	-12.3613
▁233	-12.3614
웨이트	-12.3616
▁도박	-12.362
▁폴란드인	-12.3622
▁총신	-12.3622
전쟁	-12.3623
ini	-12.3623
ED	-12.3624
▁나투	-12.3626
건설	-12.3629
▁Over	-12.3632
▁박용	-12.3632
▁마야	-12.3633
ok	-12.3635
▁안상	-12.3636
▁획기	-12.3639
▁파드	-12.3644
초프	-12.3646
반도	-12.3646
▁송진	-12.365
▁최상	-12.3652
▁극작	-12.3656
▁쓰루	-12.3658
▁거미	-12.3659
▁장지	-12.3659
▁키르	-12.3661
▁빅토리	-12.3662
저스	-12.3664
▁백설	-12.367
▁유량	-12.367
▁줄리	-12.3671
▁던졌	-12.3673
▁웨스	-12.368
GM	-12.3682
▁욱	-12.3689
▁블라디	-12.369
▁슬라	-12.3691
▁마나	-12.3694
▁행운	-12.3705
▁Ti	-12.3709
▁무수	-12.3709
▁ME	-12.3709
▁수구	-12.371
ile	-12.3711
▁천구	-12.3712
so	-12.3723
▁다이오	-12.3724
에스	-12.3726
▁초보	-12.3727
500	-12.3729
▁마구	-12.3733
vo	-12.3733
LR	-12.3735
▁들러	-12.3735
마리	-12.3737
▁사미	-12.374
▁케인	-12.374
자드	-12.3741
ei	-12.3741
랫	-12.3744
비브	-12.3746
▁진안	-12.3747
▁사투	-12.3748
▁이송	-12.3751
▁마지	-12.3753
▁숫	-12.3759
▁종가	-12.3763
寅	-12.3764
픔	-12.3765
▁딱정벌레	-12.3765
▁모차르트	-12.3765
▁상파울루	-12.3765
▁웨스트민스터	-12.3765
▁유니버시아드	-12.3765
▁캥거루	-12.3765
▁트랜지스터	-12.3765
也	-12.3765
洛	-12.3765
籍	-12.3765
낡	-12.3765
▁까마귀	-12.3765
▁로맨틱	-12.3765
▁마거릿	-12.3765
▁아폴론	-12.3765
▁안드로메다	-12.3765
▁Fe	-12.3765
▁앞장섰	-12.3765
▁節度	-12.3765
▁관성	-12.3765
▁항공우주	-12.3765
▁Human	-12.3765
▁주계열	-12.3765
를레앙	-12.3765
세기	-12.3766
▁펠리페	-12.3766
▁이오니아	-12.3766
▁그린란드	-12.3766
▁얼룩	-12.3766
▁셔틀	-12.3767
▁Mnet	-12.3767
▁신노스케	-12.3767
▁커티스	-12.3767
▁쾌락	-12.3767
▁내세운	-12.3768
▁럼블	-12.3768
▁委	-12.3769
▁載	-12.3769
규장각	-12.377
▁목욕	-12.377
▁올리버	-12.3771
▁트램	-12.3771
▁1300	-12.3771
▁레오나르	-12.3772
PU	-12.3773
▁안티고	-12.3774
▁쩐	-12.3775
▁뤄	-12.3775
▁애매	-12.3778
▁피셔	-12.3778
▁놓였	-12.3779
▁흉내	-12.378
▁래리	-12.378
▁檢	-12.3781
▁생몰	-12.3781
▁포스코	-12.3782
서전	-12.3782
종실록	-12.3783
▁저지른	-12.3783
▁베르디	-12.3784
▁억울	-12.3784
▁스코어	-12.3785
패스	-12.3787
▁蘭	-12.3787
▁베이비	-12.3787
▁오스트로	-12.3788
▁질레	-12.3789
▁훔	-12.379
▁우도	-12.379
리스마	-12.3791
▁u	-12.3792
▁맷	-12.3793
▁疏	-12.3793
▁생사	-12.3794
▁덩굴	-12.3794
▁리퍼	-12.3796
▁per	-12.3798
처리	-12.3798
▁제니	-12.3798
▁플레인	-12.3799
▁慈	-12.38
▁비둘기	-12.38
▁누비	-12.38
로쿠	-12.38
베스	-12.38
▁증발	-12.3802
ike	-12.3804
▁재가	-12.3805
▁정예	-12.3805
▁라몬	-12.3806
일러	-12.3806
▁한민	-12.3809
▁신명	-12.3809
▁튀르	-12.381
▁흥덕	-12.381
▁현내	-12.3811
▁사가미	-12.3812
▁탔	-12.3812
▁아이작	-12.3813
아나	-12.3816
▁머큐리	-12.3816
▁사라져	-12.3817
▁명륜	-12.3817
니크	-12.3817
▁정읍	-12.3818
▁資	-12.3818
▁예천	-12.3819
▁취직	-12.382
▁사성	-12.3821
▁다테	-12.3823
올라	-12.3824
▁境	-12.3825
▁轉	-12.3825
▁시모노	-12.3826
▁열망	-12.3828
▁짐바	-12.3829
▁여사	-12.3829
▁정철	-12.3829
용품	-12.383
▁種	-12.3831
제르	-12.3836
▁도야마	-12.3836
중근	-12.3838
abilit	-12.384
▁천태	-12.384
이슨	-12.3841
▁플라자	-12.3843
▁송금	-12.3847
바시	-12.3847
▁철자	-12.3849
▁챈	-12.385
▁나가노	-12.3851
▁중학생	-12.3851
디언	-12.3852
▁브레이	-12.3854
▁호른	-12.3854
▁평신	-12.3854
▁復	-12.3856
▁範	-12.3856
▁職	-12.3856
▁覺	-12.3856
▁군도	-12.3858
▁310	-12.3859
▁외손	-12.3864
▁레게	-12.3864
리언	-12.3865
▁BSD	-12.3865
리지	-12.3868
▁덕수	-12.3874
▁빠져나	-12.3874
▁정실	-12.3875
▁아이치	-12.3875
▁호로	-12.3875
▁무형	-12.388
▁가라	-12.388
▁셴	-12.3881
▁보그	-12.3883
르코스	-12.3883
▁아세	-12.3885
▁統	-12.3885
파손	-12.3888
▁하류	-12.3889
▁국과	-12.3891
벤저	-12.3895
▁다닐	-12.3899
▁우즈	-12.3899
▁박병	-12.3901
▁業	-12.3904
arth	-12.3906
▁Fire	-12.3907
▁유복	-12.3908
▁군포	-12.391
킨스	-12.3911
EP	-12.3912
▁포레스	-12.3913
▁멧	-12.3913
▁사소	-12.3915
▁칼데	-12.3921
▁어라	-12.3925
▁내림	-12.3926
▁정미	-12.3926
▁학생회	-12.3926
nited	-12.3927
크림	-12.3931
▁調	-12.3932
깨	-12.3933
드윈	-12.3936
▁미주	-12.3936
▁位	-12.3939
▁신병	-12.3939
▁반구	-12.3941
피커	-12.3943
▁견지	-12.3947
▁560	-12.3948
흡	-12.3951
엣	-12.3953
▁엘비	-12.3953
▁세레	-12.3954
▁카파	-12.3958
▁날렸	-12.3959
EK	-12.3959
해방군	-12.396
벳	-12.3961
눔	-12.3961
▁첫날	-12.3961
衆	-12.3962
制	-12.3962
뷰	-12.3964
자위대	-12.3965
red	-12.3965
▁조심	-12.3965
調	-12.3965
品	-12.3965
見	-12.3967
外	-12.3967
立	-12.3967
샘	-12.3967
▁대례	-12.3974
▁청정	-12.3979
▁리츠	-12.3982
▁장이	-12.3986
ids	-12.3987
▁い	-12.3992
bu	-12.3993
▁맞춘	-12.3994
로우	-12.3996
▁TO	-12.3999
▁Dan	-12.4002
▁리온	-12.4011
거성	-12.4014
오세	-12.4015
▁요트	-12.4017
▁좌천	-12.402
▁펠리	-12.4022
GB	-12.4026
▁토바	-12.4027
▁모란	-12.403
▁무단	-12.4039
게임	-12.404
▁구한	-12.404
▁지린	-12.404
EN	-12.4043
▁화엄	-12.4045
▁해운	-12.4046
승환	-12.4046
▁타다	-12.4047
▁203	-12.4051
▁139	-12.4054
tu	-12.4054
▁청도	-12.4054
NK	-12.4055
▁NO	-12.4058
▁my	-12.4059
▁기해	-12.406
▁벤트	-12.4063
▁조미	-12.4068
ise	-12.4068
▁변속	-12.407
야금	-12.4071
렵	-12.4071
▁송정	-12.4072
시키	-12.4075
▁토키	-12.4076
▁척수	-12.4078
▁로우	-12.4083
▁위태	-12.4085
따	-12.4086
ology	-12.4095
코비치	-12.4096
댓값	-12.4096
▁손수	-12.4097
▁Home	-12.4099
▁문체	-12.4101
▁다카시	-12.4103
erry	-12.4104
DC	-12.4105
말리아	-12.4107
살이	-12.4116
MT	-12.4116
▁지반	-12.4116
die	-12.4119
쁜	-12.4123
▁안기	-12.4123
▁리비	-12.4123
▁집어	-12.4123
▁138	-12.4125
▁애리조	-12.4125
▁원대	-12.4127
▁158	-12.4129
▁자유민주	-12.4134
▁Service	-12.4136
▁뉴멕시코	-12.4136
▁로드리게스	-12.4136
▁사르데냐	-12.4136
▁코네티컷	-12.4136
▁테살로니	-12.4136
▁피라미드	-12.4136
清	-12.4136
簿	-12.4136
郭	-12.4136
됩	-12.4136
몄	-12.4136
샵	-12.4136
팸	-12.4136
ι	-12.4136
ら	-12.4136
▁브란덴부르크	-12.4136
▁Battle	-12.4136
▁콘스탄티누	-12.4136
▁Island	-12.4136
ization	-12.4136
▁로런츠	-12.4136
▁아약스	-12.4136
▁델라웨어	-12.4136
▁블룸	-12.4136
▁셰퍼드	-12.4136
▁찬드라	-12.4136
▁PSP	-12.4137
▁아가씨	-12.4137
▁IEC	-12.4137
▁MMO	-12.4137
▁부에노	-12.4138
▁Soul	-12.4138
▁혼잡	-12.4138
▁캐논	-12.4139
▁모셨	-12.4139
PT	-12.4139
▁클레오	-12.4139
▁알칼리	-12.4139
▁茂	-12.4139
▁잿	-12.4139
▁辛	-12.4139
▁캔터	-12.4139
▁아파치	-12.414
▁Micro	-12.414
▁찬탈	-12.414
▁페드로	-12.4142
▁블러드	-12.4142
▁범람	-12.4142
▁Ad	-12.4142
카르	-12.4143
▁토스카나	-12.4144
▁커플	-12.4144
조던	-12.4145
▁댜	-12.4145
▁바레인	-12.4146
▁금강산	-12.4146
▁균일	-12.4146
▁친밀	-12.4146
▁느슨	-12.4148
▁타이탄	-12.4149
ku	-12.4149
ali	-12.415
퀴	-12.4151
▁Louis	-12.4151
▁유격대	-12.4151
▁태권도	-12.4151
▁세분	-12.4152
▁\	-12.4152
▁弼	-12.4152
▁銅	-12.4152
▁퀼	-12.4152
▁갑판	-12.4152
▁창덕	-12.4153
졌으며	-12.4153
▁표결	-12.4155
▁안드레이	-12.4155
▁켜	-12.4155
▁치앙	-12.4156
MG	-12.4157
▁바쳐	-12.4157
라과	-12.4157
▁움직여	-12.4157
chi	-12.4158
▁땐	-12.4158
▁宰	-12.4158
▁샌디에	-12.4162
▁호크스	-12.4162
▁Societ	-12.4162
▁크릭	-12.4163
대전	-12.4163
어류	-12.4164
▁연좌	-12.4164
▁革	-12.4165
▁−	-12.4165
▁읍성	-12.4166
▁니치	-12.4167
▁올림	-12.4168
▁Mc	-12.4168
▁영산	-12.4169
▁노미	-12.4169
▁매일신	-12.417
▁끝난다	-12.417
▁뱅크스	-12.4171
퇴근	-12.4172
산화	-12.4173
▁귀향	-12.4176
▁태안	-12.4177
▁NA	-12.4177
▁데니	-12.4177
▁총살	-12.4178
▁Best	-12.4178
ji	-12.4178
▁결말	-12.4179
▁캐롤라	-12.4179
▁간소	-12.4179
▁쌍성	-12.418
▁식료	-12.4181
▁베일리	-12.4181
▁까치	-12.4182
김새	-12.4183
▁응고	-12.4184
▁156	-12.4184
▁百	-12.4184
▁신비주의	-12.4184
▁隨	-12.4184
▁141	-12.4186
아갔	-12.419
성경	-12.419
삼문	-12.4193
▁토목	-12.4193
▁SV	-12.4195
▁트레인	-12.4196
ford	-12.4198
프란시스코	-12.4199
▁특산	-12.42
▁154	-12.42
▁접경	-12.4201
▁입헌	-12.4202
▁양궁	-12.4203
▁갈레	-12.4205
릭슨	-12.4206
▁구룡	-12.4207
파크	-12.4208
▁실라	-12.4209
▁柱	-12.421
▁궁내	-12.4211
▁애호	-12.4211
지능	-12.4215
▁브레인	-12.4216
글꼴	-12.4216
▁寫	-12.4217
▁晉	-12.4217
▁올라온	-12.4217
▁신숙	-12.4218
▁세습	-12.4219
▁이치로	-12.4219
에르	-12.422
▁김유	-12.4223
▁배향	-12.4223
▁보호법	-12.4223
▁푹	-12.4224
▁증산	-12.4224
▁로저스	-12.4224
▁제철	-12.4224
▁근세	-12.4226
▁두드러진	-12.4228
tum	-12.423
남부	-12.4231
▁Vi	-12.4231
▁부화	-12.4234
▁출정	-12.4234
▁농성	-12.4235
쿠라	-12.4236
▁무루	-12.4239
▁소작	-12.4239
▁어군	-12.424
▁En	-12.4242
▁임계	-12.4245
▁산청	-12.4245
ster	-12.4247
▁조우	-12.425
▁戒	-12.425
▁느려	-12.425
비안	-12.4255
▁신지	-12.4256
블리	-12.4257
질량	-12.4257
▁소서	-12.4259
AMD	-12.426
LL	-12.426
▁감속	-12.426
ding	-12.4262
블로	-12.4265
▁갈리	-12.4267
▁티타	-12.4267
▁OE	-12.427
▁조소	-12.427
▁time	-12.4271
▁귤	-12.4276
▁옹주	-12.4277
▁수식	-12.4281
▁척도	-12.4281
▁연마	-12.4286
▁친형	-12.4287
▁Hi	-12.4293
▁연하	-12.4293
ria	-12.4294
▁평상	-12.4297
▁재심	-12.4297
▁진심	-12.4298
▁조각가	-12.4298
포터	-12.4298
▁몰라	-12.4299
▁존상	-12.43
▁자재	-12.4301
▁ER	-12.4302
▁승하	-12.4308
▁라르	-12.4312
▁텍스	-12.4315
▁기함	-12.4315
▁신천	-12.4315
와키	-12.4316
▁레고	-12.4317
선교	-12.4318
▁amp	-12.4318
일기	-12.4318
▁포식	-12.4319
손바닥	-12.4323
▁다마스	-12.4326
▁레퍼	-12.4327
▁du	-12.4328
▁146	-12.4329
▁흥국	-12.4331
▁카보	-12.4333
▁속임	-12.4336
▁카다	-12.4337
▁포이	-12.4338
빅	-12.4341
▁용수	-12.4341
▁시문	-12.4341
▁Maria	-12.4342
▁間	-12.4342
슐	-12.4343
경궁	-12.4343
▁봉우	-12.4345
▁성층	-12.4345
▁그레	-12.4345
당동	-12.4346
▁수화	-12.4347
▁패러	-12.4347
▁소포	-12.4347
모음	-12.4348
月	-12.4349
營	-12.4349
意	-12.4349
뜨	-12.4349
處	-12.435
▁자장	-12.435
口	-12.435
土	-12.4351
常	-12.4351
壽	-12.4351
孫	-12.4352
드래곤	-12.4352
洞	-12.4353
聖	-12.4353
대서양	-12.4353
Hz	-12.4354
동맹	-12.4358
▁오스트	-12.4358
플라스	-12.4359
처럼	-12.4359
텍스	-12.436
▁바스티	-12.4362
▁소중	-12.4367
세페	-12.4367
▁신의	-12.4368
▁ma	-12.4374
▁222	-12.4374
▁부원	-12.4375
▁약해	-12.4376
▁칭한	-12.4377
샤오	-12.4379
▁識	-12.4381
▁열기	-12.4383
▁유계	-12.4385
포항	-12.4385
▁프로그레	-12.4388
▁대주	-12.4392
탄두	-12.4396
면적	-12.4397
코딩	-12.4398
▁un	-12.4398
▁정명	-12.4399
스테인	-12.4401
▁게리	-12.4404
▁전교	-12.4405
▁해금	-12.4406
▁가쿠	-12.4409
▁172	-12.4409
▁Va	-12.4413
▁그물	-12.4413
▁베인	-12.4417
▁Lee	-12.4418
▁멘토	-12.4418
▁부교	-12.4418
▁Net	-12.4421
진실	-12.4422
▁IN	-12.4428
の	-12.4433
▁도상	-12.4434
리얼	-12.4434
▁해시	-12.4439
▁말려	-12.4444
루토	-12.4447
▁마사히	-12.4455
▁려다	-12.4456
▁로디	-12.4458
▁코레	-12.4458
IE	-12.4463
르곤	-12.4473
누이	-12.4473
학생회	-12.4478
▁딸기	-12.4479
▁교로	-12.4482
▁상계	-12.4484
▁장차	-12.4486
▁Lin	-12.4486
아보	-12.4491
▁유화	-12.4491
작전	-12.4495
ü	-12.4496
데아	-12.4497
▁바니	-12.4506
이더	-12.4509
▁쿠루	-12.4512
low	-12.4514
▁호지	-12.4517
▁스케줄	-12.4519
▁노라	-12.452
▁멘델	-12.452
▁York	-12.452
▁비로자나	-12.452
▁새뮤얼	-12.452
▁컨설팅	-12.452
刻	-12.452
区	-12.452
料	-12.452
큘	-12.452
폈	-12.452
▁도라에몽	-12.452
▁올랭피	-12.452
▁특공대	-12.452
▁광화문	-12.452
▁콘티넨	-12.452
▁수류탄	-12.452
▁니가타	-12.452
▁Road	-12.452
▁선거인단	-12.452
▁Old	-12.452
▁매트릭스	-12.452
▁아브라함	-12.452
▁요하네스	-12.452
▁Church	-12.452
▁경향신문	-12.452
▁스윙	-12.4521
▁잘츠부르크	-12.4521
▁거문고	-12.4521
▁슈미트	-12.4521
▁소르	-12.4521
▁맞섰	-12.4522
▁페라라	-12.4522
▁Mont	-12.4522
▁This	-12.4522
▁체첸	-12.4522
▁크리스탈	-12.4523
▁스파이더	-12.4523
▁요크셔	-12.4523
▁133	-12.4524
▁불가피	-12.4524
▁庶	-12.4524
▁胡	-12.4524
▁麻	-12.4524
▁紅	-12.4524
▁글리코	-12.4524
▁피에로	-12.4525
▁청렴	-12.4526
ili	-12.4526
field	-12.4527
▁무신론	-12.4527
▁롤러	-12.4528
▁페이퍼	-12.4529
스카야	-12.4529
▁윈저	-12.4529
▁갈라진	-12.4529
▁벵	-12.453
▁Arm	-12.453
▁글렌	-12.453
▁아오모리	-12.453
▁愼	-12.453
▁琴	-12.453
▁舊	-12.453
▁애리조나	-12.4531
▁one	-12.4531
▁바시	-12.4532
▁앨버타	-12.4533
▁메트로폴리	-12.4533
▁니시노	-12.4534
▁첩보	-12.4535
▁Studio	-12.4536
▁빅터	-12.4536
▁입찰	-12.4537
▁오스틴	-12.4538
▁넓혀	-12.4538
▁산투스	-12.4538
▁대문자	-12.4539
▁삼각주	-12.4539
▁콤비	-12.4539
▁개막식	-12.454
▁캄포	-12.4542
▁갑신	-12.4542
▁하루카	-12.4542
▁해수	-12.4542
▁Sha	-12.4542
▁라벨	-12.4543
▁慕	-12.4544
▁雪	-12.4544
▁콘라	-12.4544
▁스팀	-12.4544
▁청풍	-12.4545
▁내세워	-12.4545
▁노린	-12.4546
▁네이트	-12.4547
▁프런	-12.4547
쿠치	-12.4547
▁냉정	-12.4549
▁최북	-12.4549
▁썸	-12.4551
▁뽀	-12.4551
▁여우원숭이	-12.4551
▁타밀	-12.4551
▁한국은행	-12.4553
▁강습	-12.4553
▁윈드	-12.4553
▁국부	-12.4553
▁삼척	-12.4554
▁논설	-12.4555
▁至	-12.4557
▁鶴	-12.4557
▁PL	-12.4558
▁진흙	-12.4558
▁샤이	-12.4558
▁접합	-12.456
▁Du	-12.4562
▁嚴	-12.4564
▁銘	-12.4564
▁정글	-12.4565
▁메모	-12.4566
니시	-12.4566
▁철권	-12.4567
▁Brit	-12.4569
▁亞	-12.4571
▁싹	-12.4571
▁크리에이	-12.4571
카야마	-12.4572
▁라크	-12.4572
▁go	-12.4572
▁311	-12.4572
토폴	-12.4573
▁위계	-12.4573
▁기념식	-12.4575
노이드	-12.4575
▁사역	-12.4576
▁숙명	-12.4577
▁전시관	-12.458
▁돌방	-12.4581
▁앙주	-12.4583
▁그란	-12.4583
▁삐	-12.4584
▁어묵	-12.4585
▁Sh	-12.4585
▁노마	-12.4586
▁기교	-12.4588
▁민자	-12.4588
▁불능	-12.459
▁고생	-12.4592
▁스노	-12.4593
▁지극	-12.4594
ck	-12.4595
▁차라	-12.4599
▁당할	-12.4603
네다	-12.4604
▁당사	-12.4605
▁태화	-12.4605
▁베르나	-12.4605
▁임실	-12.4605
▁독소	-12.4606
▁헤임	-12.4608
BN	-12.4608
▁131	-12.4608
FS	-12.4608
▁부트	-12.461
gy	-12.4611
▁우타	-12.4613
▁서역	-12.4615
▁보현	-12.4615
▁슬라이	-12.4616
▁브론	-12.4618
▁에이지	-12.4618
정사	-12.4619
▁남궁	-12.4619
yl	-12.4619
▁한중	-12.462
▁유미	-12.4625
▁박자	-12.4625
▁대수학	-12.4626
▁마술	-12.4626
▁바타	-12.463
GL	-12.4631
▁물류	-12.4632
▁성간	-12.4635
▁진하	-12.4636
▁매트	-12.4637
림사	-12.4638
HF	-12.4638
▁律	-12.4639
▁토시	-12.4639
▁자정	-12.4643
동진	-12.4643
▁미티	-12.4644
들였	-12.4644
▁區	-12.4646
▁덱	-12.4647
ML	-12.4648
▁출사	-12.4648
▁방한	-12.4649
▁로비	-12.4654
마니	-12.4655
고사	-12.4655
▁기전	-12.4655
▁입안	-12.4655
▁살포	-12.4657
▁천자	-12.4658
less	-12.4658
▁계율	-12.4661
▁라프	-12.4662
▁권투	-12.4667
▁176	-12.4667
즈미	-12.4669
▁샤르	-12.467
▁고후	-12.4672
▁Ta	-12.4672
BT	-12.4673
▁母	-12.4673
▁AV	-12.4674
▁경마	-12.4675
▁표제	-12.4679
르마	-12.4679
▁166	-12.4685
▁군마	-12.4687
ari	-12.4688
▁Die	-12.4691
ee	-12.4697
▁박동	-12.4697
▁무방	-12.4697
▁세탁	-12.4701
▁방형	-12.4703
▁베이시스	-12.4708
▁페레	-12.4708
row	-12.471
부대	-12.4712
▁스메	-12.4712
운수	-12.4715
ker	-12.4716
이타	-12.4718
▁삼중	-12.4719
▁소라	-12.4719
▁상동	-12.4719
▁변성	-12.4721
림동	-12.4721
ition	-12.4724
▁나빠	-12.4724
▁204	-12.4725
▁Cor	-12.4725
▁일보	-12.4727
빵	-12.4728
▁der	-12.4728
▁면세	-12.4728
▁라이드	-12.473
▁처방	-12.4732
악기	-12.4735
▁내통	-12.4736
▁전갈	-12.4736
▁교우	-12.4737
▁조나	-12.4737
꼬	-12.4738
▁선지	-12.4738
확	-12.4739
▁티치	-12.474
▁호치	-12.474
▁바인	-12.4743
tor	-12.4745
▁초판	-12.4746
別	-12.4747
樞	-12.4748
참찬	-12.4748
動	-12.4748
구라	-12.4749
說	-12.475
領	-12.475
管	-12.475
線	-12.475
か	-12.4751
團	-12.4751
藏	-12.4751
度	-12.4751
깃	-12.4751
歌	-12.4751
村	-12.4752
圖	-12.4752
守	-12.4752
信	-12.4752
判	-12.4752
昌	-12.4752
武	-12.4752
西	-12.4752
연수	-12.4753
자동차	-12.4754
▁조아	-12.4755
▁정시	-12.4755
태프	-12.4756
클럽	-12.4756
무덤	-12.4756
▁면직	-12.476
▁돌아간다	-12.476
▁리트	-12.4761
▁AI	-12.4762
AT	-12.4764
시험	-12.4765
▁라바	-12.4768
▁路	-12.4768
▁235	-12.4769
상부	-12.4771
▁장타	-12.4773
▁Com	-12.4774
▁후지사	-12.4775
센터	-12.4776
▁레반	-12.4777
fer	-12.4779
bus	-12.4782
르완	-12.479
▁에드먼	-12.4793
▁패자	-12.4794
회암	-12.4797
kin	-12.4798
▁256	-12.4799
▁우의	-12.4799
▁에디	-12.48
히토	-12.48
폭스	-12.4802
▁일본국	-12.4803
▁157	-12.4804
▁산현	-12.4805
▁김도	-12.4806
링크	-12.4808
니퍼	-12.4809
라트	-12.481
▁버크	-12.481
플렉스	-12.4813
▁우사	-12.4817
▁Van	-12.4821
ns	-12.4824
타이어	-12.483
▁노이	-12.483
타케	-12.483
リ	-12.4831
▁아파	-12.4831
883	-12.4834
부미	-12.4834
▁GM	-12.4836
백제	-12.4836
▁214	-12.4837
버턴	-12.4849
웃	-12.4854
▁체리	-12.4857
▁걸스	-12.4861
▁마자	-12.4866
vill	-12.4867
타미	-12.4869
가리	-12.4873
▁시차	-12.4873
▁사구	-12.4877
▁곤도	-12.4878
마모토	-12.4879
▁나팔	-12.4879
도회	-12.4882
▁공보	-12.4883
▁육영	-12.4884
ek	-12.4885
▁명왕	-12.4886
티보	-12.4886
▁타코	-12.4887
AD	-12.4889
▁수급	-12.4894
수면	-12.4898
벨리	-12.4899
리에	-12.4902
▁Record	-12.4902
▁선상	-12.4903
트론	-12.4908
▁1855	-12.4909
▁">	-12.4913
▁패리	-12.4914
▁CN	-12.4914
▁kr	-12.4914
끈	-12.4915
▁윈터	-12.4916
아키	-12.4917
▁무지	-12.4918
▁갖춰	-12.4919
ore	-12.4919
▁202	-12.4919
▁앞장	-12.4919
▁Great	-12.492
▁뿌려	-12.492
▁서둘러	-12.492
▁조선왕조실록	-12.492
▁테헤란	-12.492
▁펠로폰네소스	-12.492
惱	-12.492
戦	-12.492
曺	-12.492
潤	-12.492
煥	-12.492
裕	-12.492
鎬	-12.492
뇽	-12.492
▁마운틴	-12.492
▁헐리	-12.492
▁River	-12.492
▁테크놀	-12.492
▁오와리	-12.492
▁브로드웨이	-12.492
▁다름없	-12.492
▁지장보살	-12.492
▁이해관계	-12.4921
▁윤원형	-12.4921
▁Down	-12.4921
▁Right	-12.4922
▁미첼	-12.4923
▁균등	-12.4923
▁노이만	-12.4923
▁도호부	-12.4924
▁스노우	-12.4924
▁세제	-12.4924
▁찻	-12.4924
▁스위트	-12.4924
▁파올로	-12.4924
▁가져와	-12.4926
▁윈난	-12.4926
▁탁발	-12.4927
▁다이너	-12.4927
▁다국적	-12.4927
▁노릇	-12.4928
▁무정부주의	-12.4929
▁펀드	-12.4929
▁크레타	-12.4929
▁뮤즈	-12.493
▁세바스	-12.493
▁샴	-12.4931
▁單	-12.4931
▁슌	-12.4931
▁쏠	-12.4931
▁들어선	-12.4932
▁프라임	-12.4932
▁코라	-12.4934
▁옥개	-12.4934
▁궤간	-12.4935
▁아속	-12.4936
▁욕심	-12.4936
▁이케	-12.4936
▁1796	-12.4937
▁징후	-12.4937
▁썰	-12.4937
▁連	-12.4938
▁望	-12.4938
▁먀	-12.4938
▁釋	-12.4938
▁미워	-12.4939
▁1100	-12.4939
▁페레스	-12.4939
▁나카노	-12.494
▁Web	-12.494
▁all	-12.4941
▁159	-12.4942
▁환초	-12.4942
▁금광	-12.4944
시프	-12.4945
▁브로드	-12.4945
▁니케	-12.4945
▁固	-12.4945
▁近	-12.4945
▁쉴	-12.4945
▁무형문화재	-12.4949
스톨	-12.4949
면서	-12.4949
▁계몽주의	-12.495
в	-12.495
▁김철	-12.495
▁미완	-12.495
▁암초	-12.4951
▁刑	-12.4952
▁건주	-12.4953
성분	-12.4956
사고	-12.4956
▁모니	-12.4956
▁북송	-12.4956
▁트랜스포	-12.4956
▁구미시	-12.4957
ago	-12.4959
▁빈민	-12.496
팩트	-12.496
▁실학	-12.4962
▁취임식	-12.4962
워키	-12.4967
▁"'	-12.4969
▁퇴계	-12.4969
르카	-12.4969
▁제법	-12.497
▁버릴	-12.497
▁공평	-12.4971
▁실격	-12.4971
▁어학	-12.4972
▁불려	-12.4972
ship	-12.4973
▁滅	-12.4973
▁뿜	-12.4973
▁라파엘	-12.4973
문화재	-12.4974
▁무녀	-12.4974
▁다이라	-12.4976
▁다이아	-12.4976
OVA	-12.4977
▁end	-12.4977
▁루르	-12.4977
▁아쉬	-12.4978
▁자상	-12.4978
▁Song	-12.498
▁儒	-12.498
▁명승	-12.4981
▁퀸스	-12.4982
▁반달	-12.4983
▁거창	-12.4984
▁디에	-12.4987
하시	-12.4987
▁경건	-12.4988
▁가이드	-12.499
▁엔젤	-12.499
▁야마시	-12.4991
▁박세	-12.4991
▁1778	-12.4991
▁未	-12.4994
▁평년	-12.4996
대성	-12.4998
둥이	-12.4998
▁주루	-12.4999
▁덕양	-12.5
▁토레	-12.5
▁북반	-12.5001
▁Hand	-12.5003
▁모를	-12.5004
τ	-12.5006
일으켰	-12.5007
▁고문서	-12.5008
▁가산	-12.5008
▁能	-12.5008
▁Vol	-12.5011
▁책판	-12.5012
▁판교	-12.5014
▁뮈	-12.5016
▁손목	-12.5019
▁판타	-12.502
▁葉	-12.5022
▁廟	-12.5023
▁曲	-12.5023
▁장충	-12.5023
▁과천	-12.5024
엇	-12.5025
▁식년	-12.5026
▁라이히	-12.5029
▁情	-12.503
▁燕	-12.503
▁호화	-12.5031
▁생년	-12.5032
▁벌어들	-12.5034
▁지하수	-12.5035
▁아무르	-12.5035
▁소나	-12.5035
의사	-12.5036
▁제향	-12.5038
▁양손	-12.5039
슈티	-12.504
▁und	-12.5041
▁열반	-12.5044
▁싸운	-12.5046
▁Will	-12.5049
ama	-12.505
▁아카이	-12.5051
▁탄원	-12.5052
ón	-12.5053
▁히치	-12.5054
ING	-12.5055
▁돌렸	-12.5056
▁실로	-12.5057
▁정류	-12.506
▁포자	-12.5061
▁바비	-12.5064
▁KF	-12.5065
▁秋	-12.5065
▁212	-12.5066
1809	-12.5068
▁합장	-12.5069
▁베크	-12.5069
▁빅스	-12.5073
▁유세	-12.5074
▁영미	-12.5075
▁지그	-12.5075
▁금오	-12.5078
▁680	-12.5079
▁전위	-12.5082
▁타라	-12.5082
▁테베	-12.5085
▁투고	-12.5085
▁썬	-12.5086
NC	-12.5087
▁Pop	-12.509
치기	-12.5092
▁출생지	-12.5096
▁선별	-12.5096
▁302	-12.5103
▁타고	-12.5106
▁코마	-12.5106
▁체르	-12.5109
▁모라	-12.5112
▁나토	-12.5112
▁177	-12.5113
▁目	-12.5115
illa	-12.5123
▁SU	-12.5124
▁쳐들어	-12.5124
도감	-12.5125
▁부안	-12.5126
▁정진	-12.5126
ai	-12.5126
▁율리아	-12.5133
▁영재	-12.5134
▁Tri	-12.5135
▁정오	-12.5137
ittle	-12.514
▁한림	-12.5141
코더	-12.5144
ave	-12.5146
▁호르	-12.5152
win	-12.5157
tes	-12.5158
▁김장	-12.516
鑑	-12.5162
想	-12.5163
イ	-12.5164
브로	-12.5164
▁여긴다	-12.5165
썬	-12.5166
멧	-12.5166
춤	-12.5167
▁위크	-12.5167
流	-12.5167
橋	-12.5167
▁한창	-12.5168
트로피	-12.5169
아메리칸	-12.5169
『	-12.5169
맡	-12.5169
▁콜드	-12.517
▁188	-12.517
녹	-12.5171
활성	-12.5172
▁강가	-12.5174
▁황보	-12.518
era	-12.5181
▁소부	-12.5181
▁카운	-12.5185
석재	-12.5185
▁상환	-12.5188
MW	-12.5189
서기	-12.519
▁AB	-12.5192
▁유조	-12.5193
로지	-12.5195
게이트	-12.5195
▁조운	-12.5197
▁풍기	-12.5198
프레더	-12.5198
야시	-12.5199
▁성현	-12.5199
▁리카	-12.5205
▁서한	-12.5205
▁대정	-12.5206
▁처한	-12.5208
도어	-12.5212
▁정산	-12.5213
fi	-12.5213
orum	-12.5216
직할	-12.5216
▁주술	-12.5218
▁자의	-12.522
▁피레	-12.5222
타이트	-12.5222
▁각오	-12.5223
사랑	-12.5225
and	-12.5226
▁화북	-12.5228
▁외동	-12.5229
소시	-12.523
▁오목	-12.5234
▁단성	-12.5235
▁라트	-12.5236
ize	-12.524
▁양명	-12.5241
▁he	-12.5241
아졌	-12.5242
▁광선	-12.5247
▁외래	-12.5248
pH	-12.5251
기아	-12.5252
영화	-12.5253
▁용지	-12.5254
▁솔리	-12.5263
AI	-12.5264
▁태사	-12.5267
▁유자	-12.5271
LA	-12.5273
ita	-12.5273
스컬	-12.5278
ase	-12.5286
▁변한	-12.5286
▁처단	-12.5289
▁주법	-12.5289
▁타타	-12.529
▁불거	-12.5292
가쿠	-12.5294
▁중개	-12.5299
▁예프	-12.5304
▁Wi	-12.5308
▁박인	-12.5308
▁당산	-12.5309
▁라가	-12.5309
스토	-12.531
▁코르테	-12.5311
▁인제	-12.5311
▁부기	-12.5317
▁차려	-12.532
합체	-12.532
hu	-12.5323
▁도정	-12.5326
▁부러	-12.5328
포리	-12.5328
▁요하	-12.5328
셔널	-12.5333
▁자구	-12.5335
▁Carl	-12.5335
こ	-12.5337
뇰	-12.5337
▁거침없	-12.5337
▁산티아고	-12.5337
▁플루오린	-12.5337
▁플루토늄	-12.5337
丸	-12.5337
則	-12.5337
屋	-12.5337
然	-12.5337
祐	-12.5337
祥	-12.5337
蔡	-12.5337
送	-12.5337
邱	-12.5337
밈	-12.5337
▁Science	-12.5337
▁몰도바	-12.5337
슈타트	-12.5337
▁크라이슬러	-12.5337
▁포인터	-12.5337
▁Royal	-12.5337
▁발췌	-12.5337
▁캡콤	-12.5338
▁짝짓	-12.5338
권력	-12.5338
▁Brown	-12.5338
▁빼앗겼	-12.5339
▁웨딩	-12.5339
▁YG	-12.5339
▁잇따라	-12.5339
▁끌어내	-12.534
▁YMC	-12.534
▁헤이케	-12.534
▁버밍	-12.534
▁올라간	-12.5341
▁均	-12.5341
▁禧	-12.5341
▁翰	-12.5341
DE	-12.5342
르스크	-12.5342
▁허버트	-12.5342
▁랴오	-12.5342
▁크메르	-12.5344
▁리포트	-12.5344
▁콜라보	-12.5344
▁낙랑	-12.5345
▁BJ	-12.5345
▁라티	-12.5346
▁특례	-12.5347
▁웨일	-12.5347
▁아닌지	-12.5347
▁찾아와	-12.5347
▁커맨	-12.5347
▁指	-12.5348
▁回	-12.5348
▁坡	-12.5348
▁陶	-12.5348
▁냉방	-12.5348
▁테크노	-12.5348
▁쾨	-12.5349
▁Institute	-12.5349
▁콜린스	-12.535
▁헤르만	-12.535
▁세일러	-12.535
▁다녀온	-12.5352
모노	-12.5352
▁병참	-12.5353
▁아카시	-12.5354
▁쿠르드	-12.5354
▁오즈	-12.5355
상훈	-12.5355
▁매춘	-12.5358
ris	-12.5359
acea	-12.536
▁STER	-12.536
des	-12.5361
▁Dance	-12.5362
▁혹독	-12.5362
▁쓸모	-12.5363
▁휘발	-12.5364
▁심층	-12.5364
▁오기	-12.5365
▁파울리	-12.5365
▁Col	-12.5366
▁문어	-12.5367
▁오닐	-12.5368
ther	-12.5368
▁노골	-12.5369
▁NL	-12.5369
▁윤증	-12.5369
▁眼	-12.537
▁성조	-12.5371
ury	-12.5376
영복	-12.5376
▁옥중	-12.5377
조약	-12.5377
▁최창	-12.5377
mas	-12.5378
▁힘러	-12.5379
CW	-12.538
▁브루나	-12.538
▁KST	-12.5381
▁중앙일보	-12.5383
▁MD	-12.5385
▁쿠라	-12.5385
▁name	-12.5385
▁μ	-12.5386
▁투기	-12.5387
키노	-12.5388
RF	-12.5389
▁"-	-12.539
▁Wall	-12.5392
▁友	-12.5392
▁布	-12.5392
▁페르시	-12.5393
▁던진	-12.5393
▁144	-12.5394
▁팔각	-12.5395
으면	-12.5396
▁니까	-12.5396
▁스플	-12.5397
▁친목	-12.5397
▁출루	-12.5398
▁陰	-12.5399
▁스타즈	-12.54
▁생생	-12.5401
▁에히메	-12.5401
▁양광	-12.5402
DS	-12.5403
▁트레일	-12.5405
▁판도	-12.5406
▁육아	-12.5406
▁질의	-12.5411
▁섭동	-12.5413
▁向	-12.5414
▁結	-12.5414
대왕	-12.5414
▁억류	-12.5416
▁왜관	-12.5416
▁쇼니	-12.5418
▁외양	-12.5418
▁란스	-12.542
▁소치	-12.542
▁예리	-12.5421
▁노스케	-12.5424
톨	-12.5425
▁싱크	-12.5428
▁밀크	-12.5429
▁동맥	-12.5429
▁亂	-12.5429
▁126	-12.5429
▁집행부	-12.5434
▁극소	-12.5434
▁가디언	-12.5435
▁영락	-12.5436
▁彌	-12.5436
경남도	-12.544
▁규합	-12.544
▁베일	-12.5441
스테	-12.5441
▁우니	-12.5444
▁월화	-12.5445
박사	-12.5447
▁球	-12.5451
▁코타	-12.5453
▁코스트	-12.5454
▁Univers	-12.5458
▁태백산	-12.5459
아니	-12.5461
▁장모	-12.5463
▁리디	-12.5463
▁미코	-12.5466
▁노년	-12.5466
▁제이스	-12.5468
▁민원	-12.5471
▁콜리	-12.5473
▁氣	-12.5473
▁버섯	-12.5474
▁하층	-12.5474
▁퍼블	-12.5476
▁OH	-12.5477
하모닉	-12.5478
▁사조	-12.5481
▁담양	-12.5483
황제	-12.5484
▁야시	-12.5485
ii	-12.5486
▁Pt	-12.5486
나잇	-12.5486
▁김석	-12.5487
▁약제	-12.5488
▁천호	-12.549
ev	-12.5491
▁증명서	-12.5493
심원	-12.55
▁세운다	-12.5501
▁칸토	-12.5501
▁잡아	-12.5502
▁안국	-12.5502
네르	-12.5506
▁점심	-12.5506
▁부양	-12.5506
▁모나	-12.5508
OC	-12.5508
▁가평	-12.5514
▁북단	-12.5518
ors	-12.5519
▁스코트	-12.5521
▁파사	-12.5522
▁니나	-12.5523
▁Ko	-12.5525
▁Are	-12.5525
▁에스테	-12.5529
▁무학	-12.5534
▁PP	-12.5534
바스	-12.5537
▁강국	-12.554
▁콘도	-12.5542
광선	-12.5546
▁서곡	-12.5547
▁반야	-12.5548
▁젯	-12.5548
▁저당	-12.5551
▁간디	-12.5552
▁극성	-12.5552
▁경합	-12.5554
포도	-12.5562
▁강세	-12.5564
▁매질	-12.5565
GE	-12.5565
▁이언	-12.5567
qu	-12.5571
나름	-12.5572
▁중앙당	-12.5574
▁레나	-12.5576
▁본적	-12.5577
fa	-12.5577
WF	-12.5577
▁요아	-12.5578
체어	-12.5582
▁pro	-12.5583
자료	-12.5586
지도	-12.5586
▁대진	-12.5587
▁약학	-12.5588
án	-12.5589
▁박경	-12.5589
▁유시	-12.5589
ó	-12.559
▁티티	-12.559
통제	-12.5592
方	-12.5594
캐	-12.5594
▁149	-12.5595
▁보어	-12.5595
▁코스모	-12.5595
백만	-12.5596
り	-12.5597
XX	-12.5598
엉	-12.5599
펌	-12.5599
傳	-12.5599
IST	-12.5599
母	-12.5601
園	-12.5602
舍	-12.5602
功	-12.5603
賢	-12.5603
▁카일	-12.5603
굿	-12.5603
붓	-12.5603
냉	-12.5603
잉글랜드	-12.5604
▁봉림	-12.5604
연수원	-12.5604
전기	-12.5605
▁돌아간	-12.5605
▁카르타	-12.5607
▁포카	-12.5607
▁천성	-12.5611
▁143	-12.5613
ert	-12.5614
▁소아	-12.5615
▁카시	-12.5616
스테드	-12.5618
itt	-12.5619
그림	-12.5626
벤토	-12.5626
▁구라	-12.5628
인구	-12.5631
▁수강	-12.5632
▁무궁화	-12.5635
▁가곡	-12.5636
▁멜라	-12.5638
쓰야마	-12.5641
볼라	-12.5644
we	-12.5648
아볼	-12.5649
▁타시	-12.5649
▁아요	-12.5649
마트	-12.565
▁세스	-12.5651
▁IF	-12.5652
구스	-12.5653
▁해왔으	-12.566
바나	-12.566
▁Up	-12.5661
▁거머	-12.5662
▁조양	-12.5662
▁문화원	-12.5664
일동	-12.5669
▁RE	-12.567
▁안시	-12.5673
라미	-12.5673
▁영제	-12.5673
▁Pan	-12.5674
▁에뮬레이	-12.5676
▁EF	-12.5677
▁필기	-12.5677
▁첼리	-12.5678
▁수프	-12.5679
▁만능	-12.5679
ack	-12.568
▁미트	-12.568
▁문수	-12.5682
▁가방	-12.5683
▁지병	-12.5683
▁니르	-12.5683
▁137	-12.5683
▁등대	-12.5688
▁사무라	-12.5698
▁로저	-12.5699
▁마포구	-12.5701
▁나기	-12.5701
▁비에	-12.5701
바이벌	-12.5703
▁예우	-12.5703
side	-12.5704
퍼트	-12.5708
▁알마	-12.5711
▁940	-12.5712
마니아	-12.5714
▁사교	-12.5714
▁대표단	-12.5715
▁피선	-12.5716
SC	-12.5716
요타	-12.5718
먼드	-12.5718
스코트	-12.5719
ICE	-12.572
▁캐롤	-12.572
▁사목	-12.5726
▁지르	-12.5727
▁어니	-12.5727
MM	-12.5727
▁여긴	-12.573
▁384	-12.5733
▁총력	-12.5734
▁소진	-12.5736
탈리아	-12.5737
▁생장	-12.5737
▁임지	-12.5743
men	-12.5746
▁옐	-12.5747
▁배트	-12.5749
륵	-12.5754
바람	-12.5755
▁114	-12.5756
오야마	-12.5757
▁마데	-12.5758
▁캐피	-12.5758
▁금기	-12.5759
CAA	-12.576
▁At	-12.5761
▁유민	-12.5761
▁요제	-12.5767
호몰로지	-12.5769
▁수찬	-12.5771
ê	-12.5772
▁Friedrich	-12.5772
▁Smith	-12.5772
▁°)	-12.5772
▁네스토리우스	-12.5772
▁위스콘신	-12.5772
▁팰리스	-12.5772
句	-12.5772
尾	-12.5772
旅	-12.5772
易	-12.5772
磁	-12.5772
譜	-12.5772
頼	-12.5772
댑	-12.5772
▁나이아가라	-12.5772
▁변광성	-12.5772
텅스텐	-12.5772
▁Edward	-12.5772
▁포츠머스	-12.5772
▁Frank	-12.5772
▁페널티킥	-12.5772
▁지석묘	-12.5772
▁Show	-12.5772
▁North	-12.5772
▁인피니	-12.5772
▁부위원장	-12.5772
▁넥스	-12.5772
▁Europe	-12.5772
▁헤이룽	-12.5772
▁House	-12.5772
▁청계천	-12.5772
▁아열대	-12.5772
▁크리켓	-12.5772
▁그레이엄	-12.5773
▁메틸	-12.5773
▁동두천	-12.5773
▁머릿	-12.5774
▁옴니	-12.5776
▁巨	-12.5776
▁振	-12.5776
▁雙	-12.5776
▁엡	-12.5776
▁팻	-12.5776
▁여도	-12.5776
▁찾아왔	-12.5776
▁괴팅	-12.5777
▁블레이드	-12.5777
▁오리건	-12.5777
ク	-12.5777
▁수배	-12.5777
▁샤흐	-12.5777
▁팔로	-12.5778
▁흡연	-12.5778
▁사천왕	-12.5778
▁자성	-12.5779
▁명동	-12.5779
▁뷰티	-12.5779
▁신촌	-12.5779
러디	-12.578
▁피델	-12.578
▁김응	-12.5781
▁스콜	-12.5781
▁오카모토	-12.5782
▁굴착	-12.5782
▁우랄	-12.5782
링겐	-12.5783
▁惡	-12.5783
▁욘	-12.5783
▁정칙	-12.5784
▁김효	-12.5785
▁키웠	-12.5786
▁통계학	-12.5787
▁로버츠	-12.5788
▁척탄	-12.579
▁셰프	-12.579
▁현무	-12.579
스털	-12.5791
▁켐	-12.5791
▁침착	-12.5792
▁이즈모	-12.5792
▁프린스	-12.5794
▁잔여	-12.5795
▁도우	-12.5795
▁Long	-12.5795
레프	-12.5795
▁석등	-12.5796
▁줄였	-12.5796
▁端	-12.5799
▁筆	-12.5806
▁좡	-12.5806
▁Bill	-12.5807
▁왕릉	-12.5808
▁봉작	-12.5809
통치	-12.581
▁울진	-12.581
▁코르도	-12.5811
▁대적	-12.5812
▁핀다	-12.5812
▁종친	-12.5812
▁에이전	-12.5813
▁精	-12.5814
▁魚	-12.5814
▁월남	-12.5814
▁감탄	-12.5814
▁720	-12.5817
케부	-12.5822
▁증류	-12.5822
601	-12.5825
▁필즈	-12.5826
▁추봉	-12.5827
▁毛	-12.5829
▁滿	-12.5829
▁읍내	-12.5831
▁차오	-12.5832
나노	-12.5835
루브	-12.5837
▁전폭	-12.5837
▁勳	-12.5837
▁잼	-12.5837
▁클러	-12.5838
▁ext	-12.584
▁퀴즈	-12.5843
▁條	-12.5845
▁封	-12.5845
ting	-12.5848
▁풍화	-12.5848
▁브뤼	-12.5848
▁로망	-12.5849
ico	-12.5851
▁율리	-12.5853
▁진보주의	-12.5854
▁바실리	-12.5855
사와	-12.5859
▁藝	-12.586
mar	-12.5861
eck	-12.5861
▁느낀다	-12.5863
▁박중	-12.5863
▁레크	-12.5864
▁펜스	-12.5865
▁통학	-12.5866
▁지난다	-12.5867
▁나눈다	-12.5867
▁최윤	-12.5868
▁유리수	-12.5868
라드	-12.5868
▁라스베	-12.5869
RAM	-12.587
스프레	-12.587
▁급기	-12.5872
▁활기	-12.5874
▁볶	-12.5876
▁안토	-12.5877
▁기일	-12.5878
▁가변	-12.5878
▁사죄	-12.588
over	-12.5881
▁살레	-12.5881
▁邊	-12.5883
▁투아	-12.5885
cus	-12.5885
▁방직	-12.5886
▁월터	-12.5887
▁융기	-12.5893
▁어쿠	-12.5893
피오나	-12.5894
원장	-12.5894
▁가두	-12.5894
▁걸프	-12.5897
▁엘프	-12.5898
카리아	-12.5899
▁手	-12.5899
▁冠	-12.5899
lat	-12.5901
▁편도	-12.5901
가족	-12.5903
▁변제	-12.5906
▁공생	-12.5906
▁선발전	-12.5907
크로스	-12.591
▁복고	-12.591
▁교화	-12.591
▁카노	-12.5911
▁と	-12.5912
▁목화	-12.5914
▁양동	-12.5916
▁봉상	-12.5917
▁김은	-12.5918
▁KC	-12.592
▁질산	-12.5923
▁신주	-12.5925
▁여흥	-12.5925
▁DX	-12.5925
▁183	-12.5928
▁전미	-12.5929
▁Tu	-12.5931
라마	-12.5933
ual	-12.5933
▁홍백	-12.5936
▁Sams	-12.5936
▁조율	-12.5937
비에르	-12.5938
신문	-12.5938
▁배재	-12.5938
▁당상	-12.5939
▁조동	-12.5939
▁애드	-12.594
▁성화	-12.594
▁남로	-12.5942
▁구정	-12.5942
LD	-12.5943
RG	-12.5943
▁수첩	-12.5943
▁진원	-12.5943
BF	-12.5946
▁무소	-12.5947
▁트릭스	-12.5949
▁블랑	-12.595
운드	-12.5954
▁로베르트	-12.5954
▁유영	-12.5958
▁か	-12.5959
모야마	-12.596
▁문호	-12.5961
▁싫어	-12.5962
▁정일	-12.5963
▁받아들인	-12.5966
cs	-12.5966
▁리크	-12.5967
사이클	-12.5968
모자	-12.5969
uch	-12.5972
▁청양	-12.5972
▁람보	-12.5973
▁무색	-12.5973
▁유관	-12.5976
▁벳	-12.5977
▁범어	-12.5977
틸	-12.5979
▁내려진	-12.5979
▁570	-12.598
▁節	-12.5982
elf	-12.5982
▁맞물	-12.5986
티노	-12.5986
달라	-12.5986
▁안다	-12.5989
▁사탄	-12.5993
▁남하	-12.5994
▁not	-12.5994
▁수라	-12.5995
ota	-12.5995
▁하모니	-12.5997
▁탄두	-12.5997
▁대세	-12.6001
▁진양	-12.6002
ival	-12.6007
▁수차	-12.6007
▁스무	-12.6008
트레이트	-12.6009
cher	-12.601
앞	-12.601
▁고쿠라	-12.6011
▁Sun	-12.6013
▁재야	-12.6019
▁so	-12.6021
eau	-12.6022
▁로스트	-12.6023
▁각계	-12.6028
▁察	-12.6032
▁試	-12.6032
pt	-12.6032
▁소토	-12.6034
▁DO	-12.6034
san	-12.6037
▁바꾼다	-12.6039
▁입회	-12.6042
▁처치	-12.6046
▁알린	-12.6051
▁마로	-12.6051
Force	-12.6052
衣	-12.6052
formation	-12.6052
귤	-12.6054
긍	-12.6054
場	-12.6055
저트	-12.6055
ano	-12.6056
容	-12.6056
탭	-12.6056
▁삼부	-12.6056
캅	-12.6057
臺	-12.6057
캉	-12.6057
殿	-12.6058
尙	-12.6058
그래프	-12.606
스트리트	-12.606
탐정	-12.606
루이스	-12.6062
▁군락	-12.6065
▁지토	-12.6066
메테	-12.6066
섬유	-12.6072
궤도	-12.6073
▁스투	-12.6074
▁지아	-12.6077
▁數	-12.6079
▁207	-12.6081
▁끌어올	-12.6082
▁타오	-12.6083
▁베버	-12.6083
▁성년	-12.6085
▁호아	-12.6088
▁도매	-12.6092
정변	-12.6095
나르	-12.6096
▁안트	-12.6097
▁영진	-12.6099
▁이마트	-12.61
포구	-12.61
WA	-12.6101
▁사네	-12.6102
사쿠	-12.6105
▁수족	-12.6107
▁성희	-12.6108
▁키트	-12.6108
▁up	-12.6108
▁음역	-12.6112
키오	-12.612
타노	-12.6121
▁조원	-12.6121
▁전범	-12.6122
▁갤리	-12.6122
영향	-12.6123
▁법상	-12.6124
▁Beat	-12.6125
pan	-12.6126
ο	-12.6129
▁코바	-12.6129
EMI	-12.6129
▁HO	-12.613
클라라	-12.6135
▁정중	-12.6136
사노	-12.6137
▁가령	-12.614
▁264	-12.6142
▁움직인다	-12.6142
▁요시미	-12.6144
▁228	-12.6145
top	-12.6146
tro	-12.6149
▁CT	-12.615
CE	-12.6153
port	-12.6156
dy	-12.616
▁김나	-12.6161
패드	-12.6163
oon	-12.6163
▁520	-12.6166
▁sy	-12.6167
▁Vo	-12.6167
▁시구	-12.6171
atch	-12.6174
인더	-12.6178
▁Cap	-12.6185
아라	-12.6186
orm	-12.6187
▁모치	-12.6188
▁망가	-12.6189
▁미학	-12.6193
▁인계	-12.6193
CR	-12.6194
per	-12.6194
▁슬러	-12.6195
SP	-12.6196
▁Yu	-12.6196
▁파가	-12.6202
▁알아차	-12.6204
▁자각	-12.6205
▁par	-12.621
▁ES	-12.621
KI	-12.621
▁휩싸	-12.6213
tta	-12.6213
미쓰	-12.6218
▁켓	-12.6219
▁브룩	-12.6219
▁건륭	-12.6222
췄	-12.6222
▁sc	-12.6223
사무관	-12.6224
▁뚜	-12.6225
▁유이	-12.6226
▁토스카	-12.6226
걱	-12.6226
▁Blood	-12.6226
▁Control	-12.6226
▁갇혀	-12.6226
▁리얼리티	-12.6226
▁미크로네시아	-12.6226
▁잊혀	-12.6226
▁펴낸	-12.6226
佑	-12.6226
撰	-12.6226
話	-12.6226
鐘	-12.6226
願	-12.6226
솥	-12.6226
젼	-12.6226
η	-12.6226
▁Revolution	-12.6226
▁엔리케	-12.6226
▁추축국	-12.6226
▁Research	-12.6226
▁돗토리	-12.6226
▁머리장식	-12.6226
▁비스마르크	-12.6226
▁미끄러	-12.6226
་	-12.6226
▁스케이트	-12.6226
▁Level	-12.6226
▁산업단지	-12.6226
▁프레데리	-12.6226
▁Field	-12.6226
▁랜덤	-12.6227
▁파이낸	-12.6227
view	-12.6227
▁히말라야	-12.6227
▁White	-12.6227
▁이와테	-12.6227
▁비정규	-12.6227
▁남대문	-12.6227
▁저소득	-12.6227
و	-12.6227
▁찔러	-12.6227
▁드와이	-12.6228
▁땅콩	-12.6228
▁Sound	-12.6228
▁셀레우	-12.6228
▁스포르차	-12.6228
▁마르셀	-12.6228
▁시게루	-12.6228
▁Station	-12.6229
▁에디터	-12.623
▁RFC	-12.623
▁벗어났	-12.623
▁Queen	-12.623
▁스펙	-12.623
▁셔츠	-12.623
▁모닝구	-12.6231
른다	-12.6231
▁낭독	-12.6232
▁누워	-12.6233
▁올라왔	-12.6233
▁격납	-12.6233
쿼이	-12.6234
▁코넬	-12.6234
▁파이브	-12.6234
▁액세스	-12.6234
▁푸틴	-12.6234
▁코로나	-12.6235
▁넘쳐	-12.6235
▁Kim	-12.6235
▁Hall	-12.6235
▁Enter	-12.6236
▁Tom	-12.6237
▁MLS	-12.6237
▁소홀	-12.6238
▁留	-12.6238
▁낀	-12.6238
▁Type	-12.6238
▁아타리	-12.6241
▁카셀	-12.6241
▁김혜	-12.6241
▁노엘	-12.6243
▁프레드릭	-12.6243
▁공모전	-12.6244
▁sub	-12.6244
▁베로	-12.6244
▁분쇄	-12.6244
▁스벤	-12.6246
▁邪	-12.6246
▁똥	-12.6246
su	-12.6251
▁401	-12.6252
▁무너졌	-12.6252
▁혼합물	-12.6252
▁Wii	-12.6253
▁영동군	-12.6253
▁칼초	-12.6253
▁솔직	-12.6254
▁XML	-12.6254
▁쵸	-12.6254
▁창씨	-12.6255
▁Arts	-12.6256
▁순창	-12.6256
▁편평	-12.6258
▁매슈	-12.626
▁徵	-12.6262
▁盛	-12.6262
▁鼎	-12.6262
▁Martin	-12.6263
▁자니	-12.6266
▁스파크	-12.6266
▁옥타	-12.6266
ken	-12.6266
▁최충	-12.6267
▁모기	-12.6267
raft	-12.6268
▁연평	-12.6268
▁국책	-12.6269
▁데이즈	-12.627
▁체격	-12.6275
▁요요	-12.6276
▁유보	-12.6278
▁클라리	-12.6278
▁청년단	-12.6279
▁187	-12.628
▁함평	-12.6281
▁고세균	-12.6281
▁放	-12.6287
▁피그	-12.6287
크레	-12.629
▁><	-12.629
▁카츠	-12.6291
프레디	-12.6295
▁波	-12.6295
▁注	-12.6295
▁健	-12.6295
▁Run	-12.6295
▁660	-12.6296
т	-12.6296
▁김두	-12.6297
▁황무	-12.6298
▁왕녀	-12.6299
▁승천	-12.6301
▁Law	-12.6301
노리	-12.6303
▁戶	-12.6303
▁葛	-12.6303
▁PO	-12.6304
바드	-12.6304
▁음양	-12.6305
▁Ray	-12.6306
▁이황	-12.6307
eng	-12.6308
▁서아시아	-12.6308
▁파벨	-12.6309
롭스	-12.6311
산드로	-12.6311
▁형광	-12.6314
물질	-12.6314
vi	-12.6314
▁대국	-12.6314
▁냉동	-12.6314
▁오리엔	-12.6315
▁참정	-12.6317
▁실크	-12.6318
cl	-12.6318
PF	-12.6319
▁성부	-12.6321
▁연작	-12.6323
왕국	-12.6326
▁팍	-12.6327
▁리즈	-12.6327
▁RS	-12.6328
▁클리프	-12.6328
▁삼남	-12.633
AE	-12.633
▁가르친	-12.6331
▁관저	-12.6331
▁사주	-12.6332
ram	-12.6332
템포	-12.6334
▁入	-12.6335
▁閣	-12.6335
▁친화	-12.6339
함대	-12.6339
▁조속	-12.6339
▁특진	-12.634
▁백두	-12.6341
트로	-12.6341
▁명실	-12.6342
▁철교	-12.6343
▁板	-12.6343
▁공범	-12.6345
uck	-12.6345
데라	-12.6346
관계	-12.6346
▁김한	-12.6346
▁앨버	-12.6347
▁FTA	-12.6347
폴리	-12.635
▁재물	-12.635
ST	-12.6351
▁주포	-12.6352
▁가독	-12.6354
▁선회	-12.6354
▁총수	-12.6354
▁지단	-12.6355
▁고토	-12.6356
결합	-12.6356
▁Sam	-12.6358
▁상층	-12.6361
요제	-12.6361
▁직권	-12.6364
잇	-12.6366
러일	-12.6366
▁서포	-12.6368
▁중합	-12.6369
▁아이오	-12.6372
▁광록	-12.6373
▁선산	-12.6375
행선	-12.6377
▁로테르담	-12.6378
써	-12.6379
▁마두	-12.638
▁엥	-12.6384
▁광진	-12.6385
▁장조	-12.6386
▁이삭	-12.6386
▁역법	-12.6386
▁구인	-12.6388
▁박원	-12.6388
▁안건	-12.6389
▁과감	-12.639
▁펙	-12.6392
▁Marie	-12.6392
▁로빈	-12.6394
CL	-12.6394
▁실명	-12.6396
▁설상	-12.6396
ult	-12.6397
무로	-12.6398
▁Hot	-12.6398
▁場	-12.64
▁베레	-12.6403
р	-12.6405
ule	-12.6408
▁설사	-12.6408
▁에밀	-12.6409
▁정장	-12.641
▁키가	-12.6411
마키	-12.6415
▁242	-12.6415
▁박현	-12.6421
▁관아	-12.6423
▁우기	-12.6424
쿠고	-12.6424
ト	-12.6425
오딘	-12.6425
▁주스	-12.6425
▁치마	-12.6428
▁Ri	-12.6432
▁키라	-12.6432
▁이슬	-12.6432
▁營	-12.6433
▁강구	-12.6436
▁벅	-12.6438
▁지요	-12.644
▁포티	-12.644
▁ft	-12.6443
▁NK	-12.6443
SK	-12.6445
sk	-12.6445
라토	-12.6446
▁미용	-12.645
▁어딘	-12.6451
OD	-12.6453
▁Chin	-12.6458
▁서약	-12.6459
▁영일	-12.646
▁성왕	-12.6461
▁오인	-12.6462
▁파마	-12.6464
▁알토	-12.6464
▁당선자	-12.6465
▁199	-12.6466
▁콥	-12.6466
hn	-12.6466
time	-12.6468
▁지크	-12.6468
▁공저	-12.6471
평면	-12.6474
ola	-12.6479
슴	-12.6481
태영	-12.6482
▁녹조	-12.6484
▁송이	-12.6485
▁신덕	-12.6485
▁Rose	-12.6486
▁점토	-12.6486
▁시제	-12.6488
▁환기	-12.6488
▁정과	-12.6491
네트	-12.6492
ode	-12.6495
▁볼록	-12.6497
▁스태	-12.6499
▁179	-12.6502
berg	-12.6502
▁잠수	-12.6505
等	-12.6507
▁232	-12.6507
▁터진	-12.6509
▁Ben	-12.6509
▁유감	-12.651
투르	-12.6512
▁법화	-12.6512
▁323	-12.6514
▁정회	-12.6516
펙	-12.6521
키나	-12.6523
▁MBA	-12.6524
▁영해	-12.6524
ラ	-12.6528
▁일람	-12.6529
▁데드	-12.6531
뮤	-12.6532
秋	-12.6532
▁포세	-12.6532
▁이따	-12.6532
草	-12.6533
兵	-12.6533
戰	-12.6533
車	-12.6534
直	-12.6534
샹	-12.6534
善	-12.6534
郡	-12.6534
EST	-12.6535
▁Sal	-12.6536
SQL	-12.6537
▁뜯	-12.6537
▁레이어	-12.6538
▁국지	-12.6538
▁아메	-12.6538
껍질	-12.6538
▁장강	-12.6539
az	-12.6541
▁이베리아	-12.6541
폭행	-12.6543
SR	-12.6545
▁풍산	-12.6546
▁키타	-12.6546
▁178	-12.6547
▁211	-12.655
och	-12.6551
카오스	-12.6555
▁커트	-12.6557
▁Bell	-12.656
▁볼드	-12.6565
▁Te	-12.6566
▁에어리	-12.6567
▁구운	-12.6568
오케	-12.6571
진호	-12.6574
▁시성	-12.6574
ops	-12.6577
데일	-12.6578
▁머레	-12.6583
▁백마	-12.6584
▁박찬	-12.6584
DX	-12.6586
▁키리	-12.6587
▁수혜	-12.659
▁최동	-12.6594
▁애슐	-12.6595
▁JO	-12.6595
▁153	-12.6595
▁와타	-12.6596
▁해지	-12.66
쓰노	-12.6601
여왕	-12.6603
동력	-12.6604
▁메기	-12.6606
▁문리	-12.6608
타일러	-12.6608
레나	-12.6609
ique	-12.6609
▁히코	-12.661
▁가타	-12.661
dal	-12.6611
▁군국	-12.6613
▁이범	-12.6613
▁크로노	-12.6615
tz	-12.6616
▁자강	-12.6617
▁코사	-12.6617
▁끼친	-12.6618
▁노다	-12.6618
▁아토	-12.6627
▁RO	-12.6631
▁중학	-12.6634
국민	-12.6635
bert	-12.6637
롤라	-12.6637
미분	-12.664
▁제비	-12.6645
팔로	-12.6646
▁미오	-12.6647
ger	-12.6649
▁흩어	-12.6649
테오	-12.6656
▁원판	-12.6657
ANG	-12.6658
멘스	-12.6659
ip	-12.6665
▁제타	-12.6666
▁분개	-12.6669
이맥스	-12.667
산염	-12.6671
▁성덕	-12.6672
▁비고	-12.6677
▁봉산	-12.6678
▁거시	-12.6679
▁Inter	-12.6682
▁하행	-12.6682
르베	-12.6684
▁잇따	-12.6692
▁America	-12.6693
득점	-12.6698
▁압둘	-12.67
BK	-12.67
▁데일	-12.6702
ć	-12.6702
▁디스커버리	-12.6702
▁맥도날드	-12.6702
▁새천년	-12.6702
▁소용돌이	-12.6702
▁아뢰야식	-12.6702
▁위트레흐트	-12.6702
▁윗수염박쥐	-12.6702
▁쿠알라룸푸르	-12.6702
▁홉킨	-12.6702
▁훈민정음	-12.6702
ア	-12.6702
坊	-12.6702
墳	-12.6702
服	-12.6702
炳	-12.6702
祚	-12.6702
齡	-12.6702
쑥	-12.6702
촐	-12.6702
춧	-12.6702
▁철십자	-12.6702
午	-12.6702
▁라그랑	-12.6702
▁비핵화	-12.6702
▁줄리엣	-12.6702
▁運動	-12.6702
▁align	-12.6702
▁GUI	-12.6703
▁캠벨	-12.6703
▁버몬트	-12.6703
▁인터랙	-12.6703
▁모자이크	-12.6703
▁요시아키	-12.6703
▁팩토리	-12.6703
▁패트리	-12.6703
▁아울	-12.6703
▁Again	-12.6703
▁메구미	-12.6704
▁힘써	-12.6704
▁프롬	-12.6704
콥스키	-12.6704
▁Master	-12.6704
▁사로잡혀	-12.6704
▁웅변	-12.6705
▁데포르	-12.6705
▁안도라	-12.6705
페르	-12.6706
▁휘말	-12.6706
▁절삭	-12.6706
▁누벨	-12.6706
▁다코타	-12.6706
▁求	-12.6707
▁건륭제	-12.6707
▁떠돌	-12.6708
▁늘어난	-12.6708
▁성범죄	-12.6708
▁어려우	-12.6709
▁토사	-12.6709
▁봐야	-12.6709
배상금	-12.671
▁바젤	-12.6711
▁향로	-12.6711
▁조시	-12.6711
▁Vf	-12.6711
▁non	-12.6711
▁찬송	-12.6712
▁스트라스	-12.6713
▁오스트리	-12.6713
▁web	-12.6714
▁Mary	-12.6715
▁契	-12.6715
▁震	-12.6715
▁騎	-12.6715
▁창녕군	-12.6716
▁짜여	-12.6717
▁카잔	-12.6717
Space	-12.6718
▁어진	-12.6719
▁총알	-12.6719
af	-12.6719
▁매달려	-12.672
▁프라이드	-12.6721
사카	-12.6721
▁히데키	-12.6721
▁금산군	-12.6722
하바라	-12.6722
▁사망률	-12.6722
▁變	-12.6724
▁사할린	-12.6724
▁플레어	-12.6724
▁노름	-12.6726
▁시니어	-12.6728
▁Fall	-12.6728
▁소방관	-12.6728
▁암술	-12.6728
▁해발고	-12.6729
▁교묘	-12.673
▁박준	-12.673
▁環	-12.6732
문예	-12.6732
▁마테오	-12.6733
FI	-12.6735
▁chem	-12.6735
▁박희	-12.6736
▁유람	-12.6738
▁목축	-12.6739
▁Anti	-12.6739
▁드릴	-12.6741
▁--	-12.6741
▁403	-12.6743
▁새턴	-12.6743
르메스	-12.6744
▁환각	-12.6744
▁라드	-12.6745
노카	-12.6745
▁환공	-12.6746
▁막혀	-12.6746
▁빌미	-12.6746
▁'-	-12.6747
▁미칠	-12.6748
▁청했	-12.6749
▁필적	-12.6749
▁禁	-12.6749
▁스몰	-12.6749
▁정윤	-12.6751
▁헬렌	-12.6752
▁처칠	-12.6752
▁테트라	-12.6753
IVE	-12.6755
▁수훈	-12.6756
▁dis	-12.6756
▁비누	-12.6757
▁암반	-12.6758
ew	-12.6762
▁탈영	-12.6763
lla	-12.6764
▁Johann	-12.6764
▁助	-12.6765
▁輔	-12.6766
▁隊	-12.6766
▁킷	-12.6767
▁전곡	-12.6767
▁양전	-12.6767
▁레이터	-12.6769
mys	-12.6773
▁사돈	-12.6773
▁나오미	-12.6774
▁기울기	-12.6774
▁庭	-12.6774
▁は	-12.6775
▁노토	-12.6775
▁속죄	-12.6775
▁절연	-12.6776
▁지터	-12.6777
▁슈에	-12.6779
▁제르	-12.6782
▁기악	-12.6782
프레드	-12.6782
▁영등포	-12.6783
▁列	-12.6783
▁브루크	-12.6784
디니	-12.6785
고생	-12.6785
▁질식	-12.6785
▁윤영	-12.6785
▁김학	-12.6786
▁Cl	-12.6786
▁유종	-12.6787
▁간담	-12.6787
▁전동	-12.6787
▁박은	-12.6787
▁드루	-12.6788
AF	-12.6789
들이	-12.6789
▁신예	-12.679
▁학무	-12.679
▁동결	-12.6791
▁신창	-12.6793
▁사포	-12.6795
▁메신	-12.6796
▁Mad	-12.6796
▁중생	-12.6797
▁168	-12.6798
▁담화	-12.68
▁兒	-12.68
▁Gro	-12.68
▁매시	-12.6801
▁Ag	-12.6801
▁탄산	-12.6802
▁교두	-12.6802
ume	-12.6804
▁Pe	-12.6804
▁방학	-12.6805
명확	-12.6805
▁프레시	-12.6808
▁log	-12.6809
▁서간	-12.681
▁정맥	-12.6812
▁KS	-12.6812
▁릭스	-12.6813
▁꾸려	-12.6814
▁고독	-12.6814
은사	-12.6815
▁倉	-12.6817
▁양구	-12.6818
노우치	-12.6819
오선	-12.6821
직선	-12.6822
▁배설	-12.6827
▁우계	-12.6828
▁학비	-12.6833
▁슈트라	-12.6834
세나	-12.6835
▁소유주	-12.6837
▁지남	-12.6838
▁티비	-12.6838
런드	-12.6842
▁期	-12.6842
▁원광	-12.6842
▁참관	-12.6845
▁비화	-12.6846
티어	-12.6847
▁로니	-12.6848
uth	-12.6848
▁TR	-12.6851
▁윤회	-12.6854
▁동백	-12.6855
▁에밀리	-12.6856
▁녹스	-12.6857
▁울음	-12.6858
▁퀴리	-12.686
▁합주	-12.686
▁타나	-12.6861
▁락스	-12.6862
▁공사관	-12.6862
▁Beatle	-12.6862
▁여태	-12.6866
▁익사	-12.6867
ua	-12.6867
MX	-12.6868
▁유재	-12.6868
셔먼	-12.6872
737	-12.6878
▁시타	-12.6878
▁세토	-12.6878
TM	-12.6883
▁신재	-12.6886
▁그늘	-12.6887
▁시주	-12.6889
▁모른	-12.689
▁경은	-12.6892
DB	-12.6894
▁계림	-12.6897
oma	-12.6897
섰	-12.6899
▁파수	-12.69
드로	-12.6901
▁장승	-12.6903
▁등기	-12.6904
▁월등	-12.6904
고속	-12.6905
▁미추	-12.6905
▁소각	-12.6907
▁담수	-12.6917
▁대양	-12.6917
가키	-12.692
▁보호구	-12.692
니치	-12.6925
니파	-12.6926
교사	-12.6926
▁킬리	-12.6927
▁선주	-12.6927
▁외장	-12.6929
▁육사	-12.6931
ans	-12.6932
이온	-12.6932
▁양정	-12.6934
▁피노	-12.6935
▁구문	-12.6937
▁사쿠	-12.6938
▁리호	-12.694
▁병인	-12.694
▁메드	-12.6942
▁소정	-12.6942
▁마리나	-12.6942
▁코우	-12.6944
루트	-12.6945
루크	-12.6945
▁근거리	-12.6947
ACE	-12.6949
라기	-12.6951
▁버나	-12.6951
tin	-12.6952
IA	-12.6954
▁우성	-12.6956
▁임해	-12.6958
▁금주	-12.6961
▁성가	-12.6961
▁상작	-12.6962
▁用	-12.6963
▁예일	-12.6967
▁천명	-12.6969
▁신드	-12.6969
무장	-12.6969
▁테무	-12.697
ute	-12.6971
버린	-12.6973
▁Tc	-12.6973
▁480	-12.6976
▁na	-12.6976
▁커크	-12.698
▁뚱	-12.698
▁조승	-12.698
▁소말리	-12.6985
▁호러	-12.6988
▁세세	-12.6989
ju	-12.6991
기름	-12.6992
플리트	-12.6993
▁북인	-12.6993
▁정평	-12.6995
▁225	-12.6997
▁트러스	-12.6999
▁아드	-12.7002
라이즈	-12.7005
▁요네	-12.7015
와트	-12.7017
▁유색	-12.7018
iller	-12.7019
統	-12.7019
▁아르카	-12.7019
lar	-12.702
〉	-12.7021
▁223	-12.7024
▁제보	-12.7025
▁공지	-12.7026
웬	-12.7026
돗	-12.7026
▁라미	-12.7026
리오스	-12.7028
이션	-12.7029
툴	-12.703
産	-12.703
꾼	-12.7031
닷	-12.7031
엥	-12.7031
즙	-12.7032
봐	-12.7034
그램	-12.7034
觀	-12.7034
順	-12.7034
市	-12.7034
寶	-12.7034
慶	-12.7034
종실	-12.7035
rop	-12.7035
▁구강	-12.7036
▁취한다	-12.7036
싸움	-12.7037
▁유상	-12.7037
ois	-12.7041
▁대연	-12.7041
▁UI	-12.7041
▁자갈	-12.7042
zy	-12.7043
▁니체	-12.7048
▁BL	-12.7048
위원	-12.7049
▁속기	-12.705
▁라이스	-12.7052
가상	-12.7052
창동	-12.7054
메츠	-12.7055
▁기틀	-12.7059
RE	-12.7062
ila	-12.7071
▁코니	-12.7072
▁오데	-12.7076
▁Ye	-12.7077
디크	-12.7077
▁224	-12.7077
day	-12.7078
EC	-12.7084
▁친다	-12.7084
스타일	-12.7086
▁NEW	-12.7087
아누스	-12.7088
rs	-12.7091
공원	-12.7096
AS	-12.7097
▁알카	-12.7098
rin	-12.7099
▁사연	-12.7105
▁가창	-12.7106
ful	-12.7107
▁빠진다	-12.7109
NB	-12.7112
▁무쓰	-12.7113
앙카	-12.7118
르헤	-12.7118
트리아	-12.7119
기지	-12.712
스메	-12.7127
▁치뤄	-12.7129
▁이시다	-12.7132
[...]
