[PAD]	0
[UNK]	0
[BOS]	0
[EOS]	0
[SEP]	0
[CLS]	0
[MASK]	0
.	-3.32297
의	-3.70563
,	-3.71064
▁	-4.04637
을	-4.1623
는	-4.26268
)	-4.49115
에	-4.52109
를	-4.55107
(	-4.55253
년	-4.59737
은	-4.64075
가	-4.7314
이	-4.77106
로	-5.13689
과	-5.22669
에서	-5.28913
월	-5.32798
와	-5.4543
이다	-5.45681
으로	-5.4674
▁있다	-5.48732
인	-5.56214
일	-5.58487
▁이	-5.59486
도	-5.63037
한	-5.64305
▁그	-5.8652
▁수	-5.90521
▁1	-6.02753
고	-6.06698
▁2	-6.09059
▁3	-6.25352
하였다	-6.26191
다	-6.34023
하는	-6.39294
▁있는	-6.39628
했다	-6.45459
지	-6.45658
▁제	-6.46524
▁4	-6.48565
하고	-6.49958
▁"	-6.5161
"	-6.52883
기	-6.57139
할	-6.58221
하여	-6.61216
▁5	-6.63266
▁《	-6.6399
시	-6.67772
나	-6.69379
▁(	-6.71024
만	-6.74018
'	-6.7463
해	-6.76725
▁한	-6.77322
▁6	-6.7811
▁'	-6.81263
사	-6.81368
자	-6.83126
▁10	-6.85099
▁중	-6.85468
▁한다	-6.87809
-	-6.87937
서	-6.88567
▁8	-6.88969
》	-6.8903
년에	-6.89981
대	-6.90577
에게	-6.91144
▁7	-6.92419
되었다	-6.93159
된	-6.94629
·	-6.96606
▁이후	-6.97131
하게	-6.99031
▁등	-6.99059
▁다음	-6.99261
▁9	-6.99742
▁~	-6.99771
▁후	-7.00056
게	-7.00147
▁그는	-7.00382
▁되었다	-7.02841
▁다른	-7.04071
▁12	-7.04724
▁같은	-7.07174
▁때	-7.07897
▁대한	-7.07981
스	-7.08404
리	-7.0863
성	-7.11412
▁및	-7.11577
▁일본	-7.11994
한다	-7.14296
▁두	-7.14525
수	-7.14998
라	-7.15383
적	-7.15613
주	-7.15995
어	-7.17706
▁11	-7.17765
),	-7.1899
▁전	-7.19177
적인	-7.19592
이며	-7.20475
부	-7.21633
2	-7.22787
▁함께	-7.22822
()	-7.2353
▁또한	-7.23795
개	-7.24422
▁위해	-7.24447
면	-7.27489
라는	-7.30155
에는	-7.30318
되어	-7.3125
에서는	-7.33184
차	-7.33203
▁주	-7.33333
히	-7.33463
상	-7.35365
명	-7.35455
세	-7.38133
화	-7.38815
제	-7.3993
1	-7.40192
:	-7.40284
▁때문에	-7.40372
아	-7.40539
▁formula	-7.40639
▁시	-7.4136
▁미국	-7.41656
▁)	-7.42414
진	-7.42764
하기	-7.43443
라고	-7.4387
동	-7.46219
까지	-7.46312
▁그러나	-7.46547
조	-7.4661
들이	-7.47323
군	-7.47413
이나	-7.47995
▁된다	-7.48047
▁가장	-7.48131
▁또는	-7.48251
▁있으며	-7.48273
트	-7.48421
▁것을	-7.4928
전	-7.49754
산	-7.50848
▁더	-7.50898
장	-7.50985
▁그리고	-7.51182
회	-7.52171
▁당시	-7.52232
s	-7.52963
우	-7.53778
▁있었다	-7.54147
미	-7.54166
▁했다	-7.54363
▁것으로	-7.54607
▁따라	-7.55006
▁현재	-7.55263
호	-7.55506
m	-7.55553
오	-7.5685
마	-7.57231
▁의해	-7.57414
선	-7.57679
구	-7.57774
비	-7.59281
소	-7.59353
들은	-7.60516
▁역	-7.60736
▁‘	-7.6177
원	-7.62174
▁15	-7.6276
야	-7.62995
▁것이다	-7.63354
신	-7.63573
▁많은	-7.63843
보	-7.64466
정	-7.6469
일에	-7.64816
▁다시	-7.65842
▁통해	-7.65845
하며	-7.66479
드	-7.67484
▁16	-7.67777
▁성	-7.67995
▁경우	-7.68338
▁오	-7.68776
노	-7.69365
▁비	-7.69997
▁아	-7.70478
▁정	-7.70698
하지	-7.71084
타	-7.71586
계	-7.72159
▁세계	-7.72703
▁해	-7.73049
이라는	-7.7428
▁첫	-7.74383
’	-7.74933
▁약	-7.75048
▁신	-7.7518
▁구	-7.75254
위	-7.76801
형	-7.77122
▁강	-7.77277
▁것이	-7.77423
치	-7.77828
▁대한민국의	-7.78416
코	-7.78536
▁사	-7.79345
니	-7.79401
개의	-7.7948
▁하는	-7.79509
▁큰	-7.79643
3	-7.79713
▁세	-7.79756
▁20	-7.8017
▁모두	-7.80439
▁여러	-7.80511
현	-7.80557
들을	-7.80853
▁대	-7.80884
▁말	-7.82431
당	-7.82854
며	-7.83486
천	-7.83491
하면서	-7.84119
▁고	-7.84154
▁유	-7.85061
▁대한민국	-7.85472
▁모든	-7.85708
/	-7.8581
▁14	-7.86046
던	-7.86207
경	-7.86903
되고	-7.87027
▁하였다	-7.87155
파	-7.87539
용	-7.88353
토	-7.89239
무	-7.89541
▁장	-7.90577
이라고	-7.90615
이었다	-7.90857
식	-7.90888
▁데	-7.90913
크	-7.9098
▁한국	-7.91237
국	-7.91419
였다	-7.9147
▁17	-7.91823
즈	-7.919
▁등의	-7.92311
했고	-7.93144
년부터	-7.93232
중	-7.93568
▁같다	-7.93759
하였고	-7.93979
▁뒤	-7.94061
▁소	-7.94151
공	-7.95333
▁13	-7.95672
하	-7.95675
번	-7.95867
관	-7.96546
문	-7.96766
▁것은	-7.97461
▁프랑스	-7.9756
된다	-7.97662
km	-7.98196
▁영화	-7.9851
▁위한	-7.98627
▁자신의	-7.99955
▁원	-8.00805
▁일	-8.00842
▁18	-8.0088
바	-8.01514
적으로	-8.01594
▁할	-8.01675
러한	-8.0183
분	-8.02213
유	-8.02282
▁안	-8.02597
▁조	-8.02758
▁지	-8.0283
강	-8.0298
포	-8.03027
모	-8.03364
년에는	-8.03397
들의	-8.03407
▁양	-8.03793
▁중국	-8.04017
▁등이	-8.04105
▁독일	-8.04398
레	-8.04897
▁다	-8.05158
학	-8.05271
▁도	-8.05589
▁하지만	-8.05904
부터	-8.06114
란	-8.06196
▁미	-8.06314
루	-8.06425
▁-	-8.06444
▁〈	-8.0674
보다	-8.07037
르	-8.0708
여	-8.07097
카	-8.07343
되는	-8.0738
▁알	-8.07862
▁경기	-8.07903
▁바	-8.08072
▁호	-8.081
▁부	-8.0824
▁내	-8.08375
▁축구	-8.08945
▁총	-8.09747
▁조선	-8.10285
들	-8.10703
▁사용	-8.1094
>	-8.11115
▁동안	-8.11195
▁시즌	-8.11199
▁선	-8.11468
석	-8.11612
▁일부	-8.11915
안	-8.11992
▁나	-8.12193
연	-8.12548
프	-8.12557
▁마	-8.12615
▁또	-8.12651
키	-8.13075
영	-8.13365
▁각	-8.13888
▁30	-8.13914
▁가	-8.14133
▁서	-8.14569
▁A	-8.14642
티	-8.14877
▁등을	-8.15189
▁위치한	-8.15291
재	-8.15546
이자	-8.15546
세기	-8.15796
▁2010	-8.16137
▁산	-8.16151
▁대해	-8.16161
▁리	-8.1668
간	-8.17018
단	-8.17621
▁리그	-8.18206
네	-8.18607
년까지	-8.18907
▁2008	-8.19024
▁지역	-8.1905
▁보	-8.1916
▁반	-8.20377
▁상	-8.20432
▁“	-8.20587
종	-8.21083
▁기	-8.21252
데	-8.21265
▁새로운	-8.21267
로부터	-8.21486
▁하고	-8.21745
C	-8.21885
▁국가	-8.22142
4	-8.22291
▁사람	-8.22464
▁활동	-8.22648
▁되어	-8.22812
〉	-8.2307
양	-8.23268
S	-8.2337
디	-8.23773
로서	-8.23839
▁같이	-8.23937
▁있고	-8.23968
▁특히	-8.24098
▁군	-8.24215
▁C	-8.24266
▁전쟁	-8.24511
A	-8.25387
왕	-8.25597
▁진	-8.25616
운	-8.25832
▁된	-8.26458
법	-8.26509
후	-8.26566
▁2007	-8.27431
▁미국의	-8.27743
이고	-8.27786
▁인해	-8.27841
▁무	-8.279
B	-8.28349
▁위	-8.28378
▁2011	-8.28388
방	-8.28402
하였으며	-8.28421
▁자	-8.28472
▁이는	-8.28617
▁게임	-8.28867
교	-8.28933
민	-8.29059
▁하	-8.29468
했던	-8.29938
▁잘	-8.29987
역	-8.30155
▁정부	-8.303
▁대부분	-8.30594
▁<	-8.30869
체	-8.30922
▁19	-8.30929
권	-8.31137
▁2009	-8.31266
▁기록	-8.31393
실	-8.31467
5	-8.31674
거	-8.31932
▁2012	-8.32046
▁주로	-8.3209
▁이를	-8.32141
▁B	-8.32187
에도	-8.32597
되었고	-8.33534
초	-8.33658
▁김	-8.33676
린	-8.3372
▁영국	-8.34013
▁우	-8.34035
▁매우	-8.34093
청	-8.34116
▁당	-8.34121
▁것	-8.34445
류	-8.34614
▁있던	-8.34719
했으며	-8.34776
▁팀	-8.34782
피	-8.35363
▁번째	-8.35374
월에	-8.35985
그	-8.36187
▁2014	-8.36202
▁현	-8.36286
▁명	-8.36514
급	-8.36633
▁받았다	-8.3687
”	-8.37102
두	-8.37151
▁볼	-8.3749
▁아니라	-8.37592
▁연구	-8.37932
▁경	-8.38001
될	-8.38085
▁K	-8.38097
하기도	-8.38363
▁동	-8.3921
▁즉	-8.39905
반	-8.39947
집	-8.40563
▁이상	-8.40567
▁하나	-8.40751
▁않았다	-8.40784
면서	-8.4079
러	-8.40918
▁재	-8.41107
▁초	-8.41368
▁노	-8.41461
▁피	-8.42291
년대	-8.42294
▁단	-8.42418
▁이에	-8.4247
남	-8.42498
요	-8.42688
▁번	-8.43144
▁대학	-8.43311
▁2013	-8.43324
▁러시아	-8.43433
6	-8.43701
승	-8.4382
▁가지고	-8.43829
▁서울	-8.43849
▁결국	-8.44336
▁있어	-8.44354
▁2006	-8.44428
▁카	-8.4456
금	-8.44564
터	-8.44768
질	-8.45045
▁아버지	-8.45252
▁없다	-8.45356
▁S	-8.45399
▁모	-8.46007
D	-8.46251
▁영향	-8.46379
▁25	-8.47147
M	-8.47298
▁로마	-8.47736
▁2015	-8.47798
▁공	-8.47876
▁코	-8.47924
▁남	-8.47937
▁많이	-8.48645
발	-8.48657
▁않고	-8.4888
▁파	-8.48929
▁시작	-8.49126
▁국제	-8.49224
령	-8.49462
병	-8.49787
▁22	-8.49967
으로서	-8.50145
▁없는	-8.50428
▁21	-8.50871
배	-8.51165
일부터	-8.51173
태	-8.51536
▁음악	-8.51749
▁정도	-8.5192
▁도시	-8.521
지만	-8.52262
▁2016	-8.52498
림	-8.52537
▁왕	-8.52547
▁어	-8.52664
")	-8.52868
▁이어	-8.52871
▁이탈리아	-8.52908
▁스	-8.52966
▁라	-8.53111
▁결과	-8.54083
7	-8.54184
▁다양한	-8.54637
하던	-8.5522
였던	-8.55427
▁주요	-8.55509
각	-8.55511
점	-8.55686
K	-8.55907
이라	-8.55962
▁방송	-8.56191
▁24	-8.56443
▁불	-8.56677
물	-8.5688
▁간	-8.56911
▁수도	-8.56951
▁M	-8.57186
테	-8.57304
▁외	-8.57578
▁전투	-8.58148
▁한편	-8.58253
론	-8.58307
▁올림픽	-8.58664
명의	-8.58671
되지	-8.59072
처럼	-8.59195
더	-8.59275
▁연	-8.59417
▁23	-8.59542
량	-8.5965
창	-8.59818
▁만	-8.59865
츠	-8.59942
▁가지	-8.59957
L	-8.60061
▁처음	-8.60071
▁지원	-8.60469
음	-8.60574
▁독립	-8.6058
브	-8.60666
▁2018	-8.60669
층	-8.60703
▁2017	-8.60743
▁따라서	-8.60876
▁섬	-8.60905
▁삼	-8.60907
▁지방	-8.61029
▁본	-8.61047
내	-8.6122
봉	-8.61449
▁포	-8.61603
▁타	-8.6172
▁아들	-8.61728
▁개발	-8.62023
▁조직	-8.62124
으로부터	-8.62176
온	-8.62237
광	-8.62317
▁영	-8.62384
e	-8.6251
주의	-8.62554
▁가운데	-8.62625
▁드라마	-8.62806
암	-8.62957
y	-8.62968
▁각각	-8.63026
▁계속	-8.63054
G	-8.6318
T	-8.63476
▁선수	-8.63575
▁유럽	-8.63746
생	-8.63792
▁배	-8.63792
▁박	-8.63798
속	-8.63866
▁이름을	-8.64636
▁백	-8.64781
▁여성	-8.64828
▁종	-8.65003
등	-8.65107
▁매	-8.65383
되었으며	-8.65487
▁하여	-8.65522
▁있는데	-8.65561
▁2004	-8.65612
▁2000	-8.65757
백	-8.66392
메	-8.665
▁기준	-8.66625
▁거의	-8.6667
▁감독	-8.66784
▁음반	-8.66812
판	-8.67003
감	-8.6702
▁사회	-8.67134
순	-8.67482
▁26	-8.67715
▁T	-8.67737
▁28	-8.67819
▁2005	-8.6786
▁작은	-8.6789
복	-8.68206
▁전체	-8.68212
▁대회	-8.68365
▁높은	-8.6894
저	-8.68947
▁뜻은	-8.69062
▁금	-8.69255
▁대통령	-8.69407
목	-8.69418
▁않은	-8.69824
▁후에	-8.70132
t	-8.7028
n	-8.70393
▁고려	-8.70516
▁문제	-8.70665
▁방	-8.70753
▁문	-8.70834
▁존재	-8.70976
▁서로	-8.70988
족	-8.71103
▁들어	-8.71128
▁따르면	-8.71227
항	-8.71748
▁구조	-8.71834
▁여자	-8.71889
번째	-8.72004
곡	-8.72175
위를	-8.72335
었다	-8.72384
▁달	-8.72484
▁말한다	-8.72652
▁알려져	-8.72745
▁않는다	-8.72753
는데	-8.72825
불	-8.72922
씨	-8.72978
▁되는	-8.73091
▁27	-8.73142
명이	-8.73354
▁경제	-8.73363
하면	-8.73643
▁프로	-8.73671
8	-8.74378
심	-8.74422
▁크게	-8.74457
▁F	-8.7446
▁인구는	-8.74603
▁차	-8.74652
▁열린	-8.74714
▁시리즈	-8.74994
근	-8.75089
희	-8.75282
▁of	-8.75663
▁새	-8.75717
▁인	-8.75748
▁출신	-8.75812
엔	-8.75817
▁않는	-8.75913
▁공격	-8.7601
기도	-8.76028
▁예	-8.76303
▁기술	-8.76547
하자	-8.76683
쿠	-8.76731
▁R	-8.76745
F	-8.76953
했지만	-8.77059
설	-8.77076
▁역시	-8.77101
▁관계	-8.77189
케	-8.77282
▁결정	-8.77383
하였으나	-8.77494
에서도	-8.77603
▁날	-8.77613
▁물	-8.77738
▁직접	-8.778
덕	-8.77977
억	-8.77983
▁H	-8.78251
예	-8.78482
▁열	-8.78768
▁받아	-8.788
9	-8.78809
▁속	-8.78814
▁심	-8.78871
으며	-8.79161
▁시대	-8.79623
▁생산	-8.80025
▁계획	-8.80025
▁생활	-8.80076
▁P	-8.80154
▁100	-8.80154
▁정보	-8.80181
▁관한	-8.80211
▁대학교	-8.80295
▁화	-8.80535
버	-8.80587
들과	-8.80606
되면서	-8.80779
▁네	-8.80824
("	-8.80863
▁2002	-8.80903
▁중요한	-8.80929
하다	-8.81266
▁그리스	-8.8139
▁프로그램	-8.81495
약	-8.81546
탄	-8.81653
일까지	-8.81753
▁키	-8.81946
▁몇	-8.82021
▁발	-8.82219
▁개	-8.82378
▁거쳐	-8.82413
▁원래	-8.82423
초등학교	-8.82515
달	-8.82541
▁여	-8.82598
이었던	-8.82806
▁난	-8.82972
▁문화	-8.83058
H	-8.83061
▁사건	-8.83159
행	-8.8322
▁철도	-8.83332
▁경기도	-8.83449
E	-8.83684
매	-8.838
▁위하여	-8.8381
P	-8.84042
▁사이에	-8.84175
해서	-8.84206
직	-8.84208
려	-8.84248
됐다	-8.84383
건	-8.84416
▁아닌	-8.84509
▁아래	-8.84632
c	-8.84843
▁앨범	-8.84962
▁보통	-8.85024
▁건설	-8.85027
▁2003	-8.85057
▁발매	-8.85087
▁FC	-8.85162
▁적	-8.85317
▁29	-8.8542
색	-8.85769
▁청	-8.85839
환	-8.85926
▁최	-8.86045
▁편	-8.8611
투	-8.86278
▁교육	-8.86462
▁데뷔	-8.86502
▁운영	-8.86858
▁대전	-8.86881
했으나	-8.86978
베	-8.87155
▁회사	-8.87351
▁군사	-8.87399
▁동시에	-8.87468
▁관리	-8.87605
본	-8.87697
해야	-8.87722
19	-8.87723
▁달리	-8.87808
철	-8.8788
▁채	-8.879
金	-8.88131
난	-8.8827
통	-8.88312
▁중앙	-8.88449
i	-8.88517
세의	-8.88573
▁보고	-8.88674
랑	-8.88867
▁시작했다	-8.88879
리그	-8.89137
er	-8.89144
▁있을	-8.89181
▁최초	-8.89597
▁이름	-8.89756
▁용	-8.8982
력	-8.89868
▁가진	-8.89935
준	-8.89936
▁어떤	-8.90275
▁송	-8.90353
▁처음으로	-8.90376
▁:	-8.90454
거나	-8.90455
▁임	-8.90467
▁G	-8.9074
▁발표	-8.90762
▁D	-8.90848
평	-8.90987
▁레	-8.91095
▁그녀	-8.91116
▁초기	-8.91149
절	-8.9151
▁운동	-8.91788
▁우승	-8.9179
▁마지막	-8.91837
▁치	-8.92059
▁토	-8.92161
길	-8.92328
▁자유	-8.92368
▁대표	-8.9241
▁「	-8.92466
락	-8.92555
기를	-8.92652
▁노래	-8.92706
▁E	-8.92792
너	-8.92985
▁행정	-8.93515
▁역할을	-8.93784
▁존	-8.93983
성을	-8.94064
▁대신	-8.94238
▁경기에서	-8.94554
임	-8.94819
▁나라	-8.94914
▁L	-8.94971
▁길이	-8.94997
▁정치	-8.95228
▁그룹	-8.95311
▁황	-8.95329
▁부분	-8.95571
大	-8.9561
I	-8.95669
▁의한	-8.95816
]]	-8.95863
▁법	-8.95973
▁모습	-8.9606
이기도	-8.96403
▁최초의	-8.96549
▁줄	-8.96694
▁되고	-8.96771
▁인도	-8.96918
증	-8.96954
시켰다	-8.9717
▁황제	-8.9737
살	-8.97378
▁변화	-8.9743
송	-8.97456
▁기원전	-8.97545
▁표현	-8.97579
▁홍	-8.97606
▁스페인	-8.97724
▁주장	-8.97748
▁진행	-8.97982
▁언어	-8.98076
▁북	-8.9811
▁교	-8.98154
」	-8.98467
▁별	-8.98481
▁자연	-8.9857
▁그들	-8.98696
山	-8.98705
▁입	-8.98983
▁속하는	-8.99026
▁소속	-8.99029
▁온	-8.99051
g	-8.99134
▁승리	-8.99262
R	-8.99319
▁최대	-8.99601
O	-8.99616
▁손	-8.99625
▁일반적으로	-8.99694
작	-8.99703
져	-8.99714
▁현대	-9.00013
▁향	-9.00015
▁평가	-9.001
▁사상	-9.00169
~	-9.00207
▁책	-9.00227
a	-9.00295
▁[[	-9.00356
빈	-9.0037
▁1990	-9.00422
▁만든	-9.00494
▁자기	-9.00632
칸	-9.00697
al	-9.00803
10	-9.00846
▁2001	-9.00923
▁31	-9.01021
▁발전	-9.01106
상을	-9.01223
▁50	-9.01439
표	-9.01478
李	-9.015
▁혹은	-9.01629
▁공식	-9.01903
N	-9.01936
편	-9.01975
▁최고	-9.01981
▁중심으로	-9.02219
▁출연	-9.02443
▁이야기	-9.02623
링	-9.02631
▁분	-9.02678
▁이미	-9.02756
▁이것은	-9.03029
▁윤	-9.03159
▁겸	-9.03187
▁이때	-9.03212
▁J	-9.03303
▁성공	-9.03406
▁하며	-9.03472
▁서비스	-9.03676
▁길	-9.0394
▁있지만	-9.03963
▁전기	-9.03987
▁개의	-9.04228
o	-9.04228
위원회	-9.0423
▁싱글	-9.04423
▁관련	-9.04478
말	-9.04502
언	-9.04529
▁아이	-9.04557
열	-9.04621
▁소련	-9.0463
)·	-9.04639
▁드	-9.04864
▁승강장	-9.04928
시간	-9.04963
▁상태	-9.05014
▁서울특별시	-9.05021
▁교황	-9.05066
스트	-9.05067
하는데	-9.05095
▁의미	-9.05109
▁고대	-9.0516
▁컴퓨터	-9.05188
▁때문이다	-9.05273
호로	-9.05556
▁어머니	-9.0564
▁이름은	-9.05668
추	-9.0571
》(	-9.0578
▁태어났다	-9.06002
함	-9.06011
▁점	-9.06032
박	-9.06081
▁선거	-9.06083
▁그녀는	-9.06172
▁형태	-9.06285
▁이들	-9.06308
록	-9.06403
▁기준으로	-9.06507
▁배우이다	-9.06673
▁제작	-9.06735
별	-9.06762
▁메	-9.06796
▁없었다	-9.06835
▁공연	-9.06933
▁있다고	-9.06936
▁진출	-9.06941
▁N	-9.06995
례	-9.07024
▁개인	-9.07099
▁집	-9.07142
▁살	-9.07214
▁저	-9.07319
▁·	-9.07395
▁되었고	-9.07419
▁받고	-9.07501
▁바로	-9.07517
이란	-9.07544
▁인구	-9.07551
▁남자	-9.07612
외	-9.07993
▁생각	-9.08228
▁지금	-9.08232
▁루	-9.08418
▁될	-9.08434
▁시기	-9.08502
W	-9.08562
▁시간	-9.08568
▁광	-9.08586
▁곧	-9.08625
▁지정되었다	-9.08722
]	-9.08813
▁없이	-9.08862
▁규모	-9.08869
▁실	-9.08907
▁the	-9.08912
▁있어서	-9.0892
▁베	-9.08979
▁야구	-9.09022
▁선발	-9.09176
중학교	-9.09195
▁밴드	-9.09508
▁공개	-9.09707
극	-9.09814
r	-9.10163
▁이전	-9.10193
▁두고	-9.10251
지는	-9.10269
▁받은	-9.10282
h	-9.10291
▁작품	-9.10424
래	-9.10463
▁영화이다	-9.10483
or	-9.11095
충	-9.11113
▁전자	-9.11298
▁I	-9.11329
▁천	-9.11407
▁야	-9.1146
▁조사	-9.11732
▁U	-9.11796
풍	-9.11829
▁병	-9.11849
품	-9.11863
자가	-9.12072
▁1980	-9.12117
▁곳	-9.12171
▁우리	-9.1235
망	-9.12458
▁애니메이션	-9.12538
커	-9.12703
▁위치	-9.1284
▁자신이	-9.12866
▁자리	-9.13
▁정책	-9.13012
▁사업	-9.13097
향	-9.13124
▁요	-9.13151
▁시스템	-9.13409
▁TV	-9.13444
20	-9.13555
▁공간	-9.13699
▁변	-9.13729
▁창	-9.13737
V	-9.13817
▁발생	-9.13881
▁허	-9.14002
▁대하여	-9.1403
▁판	-9.14033
▁석	-9.14106
▁FIFA	-9.14252
▁건물	-9.14296
▁형	-9.14369
▁W	-9.14442
명을	-9.14583
출	-9.14737
▁추가	-9.14844
▁봉	-9.15197
u	-9.15325
▁변경	-9.15522
▁일반	-9.15652
▁공화국	-9.15747
녀	-9.1575
cm	-9.1583
▁결혼	-9.15932
변	-9.1594
f	-9.15984
▁반대	-9.15986
대학교	-9.16107
▁구성	-9.16116
▁국민	-9.16172
악	-9.16194
▁이런	-9.16213
en	-9.16219
담	-9.16242
▁딸	-9.16305
읍	-9.16327
▁순	-9.16359
▁역사	-9.16541
슈	-9.1666
▁1999	-9.16766
하거나	-9.16768
▁하다	-9.16914
▁행	-9.16934
▁있었던	-9.16936
▁국	-9.17095
▁해당	-9.17107
▁도쿄	-9.17286
되며	-9.17395
▁해군	-9.17467
▁잉글랜드	-9.17504
립	-9.17543
처	-9.17621
▁사람들	-9.17664
업	-9.17681
▁이유로	-9.17689
▁거	-9.17718
▁군대	-9.1773
▁캐나다	-9.17736
릴	-9.17749
▁V	-9.17909
▁걸쳐	-9.18293
▁1970	-9.18296
▁하나이다	-9.18416
▁등으로	-9.18594
애	-9.18595
있다	-9.18764
날	-9.18771
런	-9.18852
삼	-9.18951
U	-9.19068
▁부산	-9.19078
▁40	-9.19144
ing	-9.19152
▁운행	-9.19176
호선	-9.19179
▁권	-9.19311
골	-9.19322
▁가리킨다	-9.19532
l	-9.19534
▁1998	-9.19543
▁공립	-9.19543
▁관	-9.1982
▁전국	-9.19891
▁판매	-9.19921
들에게	-9.19936
합	-9.20066
▁보인다	-9.20121
▁연방	-9.20191
스타	-9.20356
▁뜻	-9.20409
▁유지	-9.20427
▁이적	-9.20452
고등학교	-9.20513
▁기업	-9.20521
▁과거	-9.20714
▁디	-9.20759
총	-9.20787
▁등에	-9.20855
▁남부	-9.20857
▁기타	-9.2103
▁1996	-9.21058
▁1995	-9.2106
▁애	-9.21131
손	-9.21168
▁학교	-9.21189
대로	-9.21209
▁이들은	-9.21239
하지만	-9.21247
▁팔	-9.21264
▁있게	-9.21296
이지만	-9.21373
▁기간	-9.21374
X	-9.21383
▁시절	-9.21385
in	-9.21422
▁전통	-9.21612
▁돌	-9.21841
▁특별	-9.21843
시켜	-9.22079
북	-9.22083
b	-9.2214
▁성장	-9.22161
▁맡았다	-9.2223
훈	-9.22379
규	-9.22754
d	-9.22993
▁지구	-9.23006
▁종교	-9.23077
▁북부	-9.23168
▁지역에	-9.23319
▁과정	-9.23352
!	-9.23356
월부터	-9.23446
▁교회	-9.23608
함으로써	-9.23654
▁1997	-9.2377
개월	-9.23877
숙	-9.23893
▁2019	-9.24015
격	-9.24167
▁분류	-9.24241
▁단체	-9.2425
▁골	-9.2436
▁세력	-9.24463
▁좋은	-9.24595
▁공동	-9.24628
▁이름으로	-9.24631
▁특정	-9.24763
▁아시아	-9.24823
▁체	-9.24957
mm	-9.25013
▁차량	-9.25128
▁제도	-9.2513
▁몸	-9.25275
▁더욱	-9.25315
▁선수이다	-9.25344
세가	-9.25814
▁비해	-9.25938
▁곡	-9.25959
▁이상의	-9.26006
▁목	-9.26023
▁이동	-9.26182
▁이용	-9.26186
▁건	-9.2622
▁우주	-9.26295
독	-9.26329
문화	-9.26453
▁함수	-9.26458
▁기독교	-9.26493
▁폴란드	-9.26623
대학	-9.26715
▁못	-9.26767
▁만들어	-9.26991
▁클럽	-9.27023
장을	-9.27146
▁소설	-9.2718
▁민족	-9.27303
▁비판	-9.27338
▁전에	-9.27413
▁정의	-9.27454
▁네덜란드	-9.2747
▁어느	-9.27552
범	-9.27584
▁교수	-9.27658
_1	-9.27676
p	-9.27762
세는	-9.27993
퍼	-9.28203
돌	-9.28226
The	-9.28313
▁지배	-9.28457
페	-9.28557
▁태양	-9.28596
년간	-9.28702
▁에너지	-9.28733
▁월드컵	-9.28769
팀	-9.28946
쓰	-9.28968
▁행동	-9.2899
▁들	-9.29153
▁사이	-9.29233
▁이후에	-9.29247
re	-9.29294
되기	-9.2941
워	-9.29414
선의	-9.29476
▁뉴욕	-9.29664
▁산업	-9.29682
▁지역의	-9.29834
리에	-9.29849
▁육군	-9.29894
▁배우	-9.29964
▁발견	-9.30032
렌	-9.30056
▁위에	-9.30062
▁그들은	-9.30212
▁하나로	-9.30301
▁면적은	-9.3032
▁감	-9.30426
▁있기	-9.30429
▁중에	-9.30478
▁통합	-9.30587
▁거리	-9.30707
▁높이	-9.30765
▁말했다	-9.30947
술	-9.3105
턴	-9.3117
▁사고	-9.3118
an	-9.31243
▁등과	-9.31246
▁작가	-9.31385
▁사람이	-9.31412
12	-9.31518
▁알려진	-9.31522
11	-9.31599
▁예를	-9.31655
결	-9.3174
했는데	-9.31773
▁확장	-9.3181
촌	-9.31814
축	-9.32002
▁브라질	-9.32002
▁영국의	-9.32098
▁모양	-9.32106
▁널리	-9.32155
▁마을	-9.322
▁친	-9.32256
▁인간	-9.32263
▁1991	-9.3237
▁적용	-9.32383
▁글	-9.32465
ed	-9.32479
▁혁명	-9.32479
▁생	-9.32584
▁제국	-9.32597
▁X	-9.32727
▁도로	-9.32754
▁환경	-9.3276
▁않다	-9.3281
슨	-9.32831
자로	-9.32853
▁중심	-9.32975
머	-9.33094
▁모델	-9.33197
찬	-9.33223
궁	-9.33234
▁고등학교	-9.33238
일에는	-9.33384
경기	-9.33489
▁설립	-9.3357
▁사진	-9.33583
▁1994	-9.33665
▁인천	-9.33671
▁설치	-9.33688
▁자신	-9.33696
▁민	-9.33699
▁전문	-9.33729
▁국내	-9.33734
필	-9.33739
▁투	-9.33923
막	-9.33939
▁차례	-9.33956
▁필요	-9.33988
▁도입	-9.34009
▁하계	-9.34057
▁작업	-9.34078
탈	-9.34091
▁비롯한	-9.34179
▁연속	-9.34264
누	-9.34276
▁사용하는	-9.34291
▁불구하고	-9.34306
▁평균	-9.3438
▁속도	-9.34501
▁페	-9.34568
▁것에	-9.34619
▁보호	-9.34951
▁태	-9.34991
▁추	-9.35036
교육	-9.35038
▁영어	-9.35062
▁통	-9.35119
도록	-9.35127
▁형성	-9.35174
▁많다	-9.35221
▁그대로	-9.35308
▁쿠	-9.35387
▁빈	-9.35417
on	-9.3546
하라	-9.35484
▁가수	-9.35501
하도록	-9.3552
▁연결	-9.35528
▁우승을	-9.35608
패	-9.35674
▁텔레비전	-9.35691
▁졸업	-9.3573
▁노선	-9.35734
▁긴	-9.35834
▁옛	-9.36015
▁식	-9.36038
文	-9.36057
사를	-9.36062
▁1988	-9.36077
성이	-9.36135
▁요구	-9.36155
▁베트남	-9.36357
▁0	-9.36467
홍	-9.36545
▁작전	-9.3671
▁강화	-9.36987
▁목록	-9.37009
입	-9.3718
▁정규	-9.37201
리아	-9.37415
▁포함한	-9.3752
Y	-9.37524
척	-9.37612
시키는	-9.37628
▁사실	-9.37695
▁사이의	-9.37751
▁그를	-9.37787
▁스타	-9.37789
▁자주	-9.37818
▁인정	-9.37908
섬	-9.37909
▁주변	-9.3802
▁현재는	-9.38082
▁신라	-9.38116
▁가능하다	-9.38179
▁연기	-9.38227
▁종류	-9.38295
▁1993	-9.38321
갈	-9.38328
▁기본	-9.38329
▁완전히	-9.38336
▁1992	-9.38548
▁증가	-9.38562
스터	-9.38572
▁못했다	-9.3863
▁여기서	-9.3864
▁인터넷	-9.38661
▁영토	-9.3873
마다	-9.38782
us	-9.38806
▁과학	-9.38816
▁귀	-9.38935
▁이론	-9.39006
윤	-9.39155
▁것이라고	-9.39173
王	-9.39209
▁확대	-9.39224
▁갖고	-9.39266
▁암	-9.39272
▁방식	-9.39286
▁선택	-9.39436
▁확인	-9.39447
헌	-9.39476
15	-9.39514
18	-9.39614
▁있도록	-9.39684
채	-9.39704
▁지냈다	-9.39715
든	-9.39999
▁개념	-9.40006
▁버전	-9.40211
▁후보	-9.40375
▁쓰	-9.40425
되었으나	-9.40447
▁제품	-9.40571
▁반응	-9.40603
다가	-9.40678
▁슈	-9.40702
쇼	-9.40736
졌다	-9.40743
▁존재한다	-9.40752
▁목적으로	-9.40754
▁남아	-9.40769
▁왕국	-9.40785
30	-9.4079
▁명의	-9.40812
▁시도	-9.4082
▁패	-9.40831
▁일제	-9.40861
▁행사	-9.40879
▁음	-9.40918
▁의하여	-9.40932
때	-9.40948
군의	-9.40965
▁1960	-9.41092
▁KBS	-9.41093
▁분석	-9.41208
▁활약	-9.41242
▁아직	-9.41441
▁유명한	-9.41471
옥	-9.41507
▁하지	-9.41564
ar	-9.41628
▁열차	-9.41752
▁눈	-9.41754
▁이와	-9.41816
▁형식	-9.41874
k	-9.41926
▁있으나	-9.42013
▁1989	-9.42024
▁부족	-9.42131
▁맥	-9.42252
▁시장	-9.42464
▁밝혔다	-9.42505
권을	-9.42539
▁이름이	-9.4283
김	-9.42847
▁것이었다	-9.42991
▁구성되어	-9.43064
익	-9.43095
▁능력	-9.43095
▁출전	-9.43246
새	-9.43292
▁이듬해	-9.43373
▁나머지	-9.43435
▁회	-9.43439
▁지난	-9.43546
료	-9.43548
▁극	-9.43581
▁노력	-9.43668
▁형태로	-9.43714
x	-9.4372
▁UEFA	-9.43726
▁사람들이	-9.43785
▁인기	-9.43788
▁지명	-9.43895
▁평	-9.43897
했을	-9.43937
▁최종	-9.4398
▁데이터	-9.44024
▁쇼	-9.44177
▁만화	-9.44322
▁연합	-9.44432
▁가문	-9.44488
▁면	-9.44527
센	-9.44677
견	-9.44699
▁준	-9.44703
▁정도로	-9.44823
▁물질	-9.4492
▁비슷한	-9.45204
50	-9.45293
스는	-9.45361
▁오스트리아	-9.45384
▁앞	-9.45451
하였는데	-9.45482
▁악	-9.45505
▁km	-9.45546
0	-9.45594
▁문학	-9.4561
운동	-9.45666
▁참	-9.45782
▁나무	-9.45792
볼	-9.45819
▁지역에서	-9.45964
▁주의	-9.46066
▁준비	-9.4608
▁피해	-9.46439
위에	-9.46451
먼	-9.46472
▁사망	-9.46474
군은	-9.4673
▁대표적인	-9.46825
▁대구	-9.46829
▁크기	-9.46886
톤	-9.46964
▁집단	-9.47052
▁표준	-9.47079
▁밤	-9.47106
▁경찰	-9.47156
▁사용한다	-9.47157
▁국가대표팀	-9.47163
▁스포츠	-9.47236
▁것과	-9.47257
▁입단	-9.4726
▁부대	-9.47301
▁체제	-9.47359
▁떨어진	-9.47588
▁스스로	-9.47588
▁경상남도	-9.47616
▁올	-9.47681
샤	-9.47725
▁공작	-9.47879
되었던	-9.47946
학교	-9.4805
었고	-9.4806
흐	-9.48077
▁사랑	-9.48224
▁상황	-9.48228
▁기능	-9.48358
월에는	-9.48364
▁명령	-9.48483
▁추진	-9.48488
▁행성	-9.48506
▁계	-9.4851
▁먼저	-9.48588
▁머리	-9.48615
▁명칭	-9.48753
▁경계	-9.48754
ur	-9.48808
▁몇몇	-9.48835
스키	-9.49139
동에	-9.49154
▁소프트웨어	-9.49156
▁상대	-9.49164
▁분야	-9.4917
st	-9.4918
인데	-9.49191
▁사이에서	-9.49194
황	-9.49195
있는	-9.49208
▁계약	-9.49313
▁설계	-9.49323
▁성적	-9.49348
들에	-9.49353
▁본관	-9.49387
le	-9.49453
친	-9.49475
▁곳에	-9.49553
▁수많은	-9.49594
▁인물	-9.496
▁훈련	-9.49785
▁실험	-9.49804
▁함	-9.49848
▁O	-9.49871
▁있었고	-9.49876
자리	-9.49946
▁세포	-9.49976
▁포함	-9.50019
▁북한	-9.50161
자는	-9.50161
▁동부	-9.50186
▁독	-9.5024
▁기반	-9.5024
▁때까지	-9.50244
가지	-9.50324
;	-9.50359
▁수행	-9.50363
▁샤	-9.50497
▁테	-9.50506
▁지도	-9.50625
▁부인	-9.50633
▁멤버	-9.50893
▁수상	-9.51018
▁처리	-9.51094
▁남성	-9.51187
▁집합	-9.5126
▁죽	-9.51273
▁행위	-9.51345
▁초대	-9.51361
▁전라남도	-9.51389
▁식물	-9.51395
16	-9.514
▁1950	-9.51416
▁과정에서	-9.51471
▁버	-9.51581
國	-9.51625
귀	-9.51639
▁실제	-9.51683
▁만에	-9.51737
▁프로젝트	-9.518
▁이렇게	-9.51908
▁다리	-9.51961
▁버스	-9.51996
▁차이	-9.52062
골을	-9.52104
▁절	-9.52117
흥	-9.5216
▁공사	-9.52421
》()	-9.52484
▁중에서	-9.52582
▁보내	-9.52587
▁통일	-9.5262
되기도	-9.52738
알	-9.52745
▁선수권	-9.52747
▁둘	-9.52809
▁방법	-9.52847
▁의하면	-9.53047
▁철	-9.53118
▁식민지	-9.5312
▁의미한다	-9.53146
TV	-9.53197
▁라디오	-9.53238
▁현상	-9.53255
▁지휘	-9.53302
▁설	-9.53309
▁주도	-9.53381
▁발사	-9.53437
▁관심	-9.53446
▁서부	-9.53451
▁제국의	-9.53462
安	-9.53469
▁새로	-9.53553
▁칼	-9.53638
▁정당	-9.53678
▁누	-9.53696
▁1986	-9.53761
▁쓴	-9.53886
▁시에	-9.53919
it	-9.53973
▁경상북도	-9.5401
▁1945	-9.54025
▁본선	-9.54051
80	-9.54086
▁선수로	-9.54088
▁마찬가지로	-9.54104
▁환	-9.54224
)'	-9.54248
▁게	-9.54262
13	-9.54271
나무	-9.54482
▁이유	-9.54507
▁해석	-9.5456
J	-9.54578
▁걸	-9.54595
▁연주	-9.54657
▁디자인	-9.5468
▁있지	-9.54752
협회	-9.54778
▁선정	-9.54815
at	-9.54965
▁국회의원	-9.55098
른	-9.55115
▁벌	-9.55268
▁자체	-9.55286
▁항공	-9.55309
▁왔다	-9.55467
▁개혁	-9.55505
▁『	-9.55538
▁밀	-9.55542
th	-9.55552
▁200	-9.55614
▁그린	-9.55705
▁득점	-9.55723
▁일정	-9.55886
빌	-9.55997
▁상대로	-9.5609
▁사용된다	-9.56106
』	-9.5614
▁않아	-9.56248
▁풀	-9.5628
▁동쪽	-9.56331
▁그것	-9.56354
▁불리는	-9.56393
as	-9.5641
▁본래	-9.56459
▁설명	-9.56488
▁뿐	-9.56515
▁방어	-9.5653
▁감소	-9.56556
▁참여	-9.56585
▁가족	-9.56775
▁들어가	-9.56893
▁오늘날	-9.56915
▁1984	-9.56989
▁의원	-9.57003
완	-9.57037
17	-9.57166
▁점령	-9.57168
14	-9.57203
▁공항	-9.57272
▁조약	-9.57368
▁정권	-9.57405
지를	-9.57438
▁관련된	-9.57485
▁기록했다	-9.57625
▁헌법	-9.57639
▁기관	-9.57709
▁그림	-9.578
▁요청	-9.57819
▁끝에	-9.57851
▁학생	-9.57861
▁관측	-9.57923
▁것도	-9.57932
▁동물	-9.57945
▁갈	-9.57977
▁때는	-9.58008
▁강한	-9.58031
▁개최	-9.58117
좌	-9.58117
묘	-9.5821
▁건축	-9.58233
▁육	-9.58361
하기로	-9.58387
▁왕조	-9.5844
▁오후	-9.58569
▁정리	-9.58592
▁자동차	-9.58716
▁티	-9.58726
▁참가	-9.58808
울	-9.58833
▁아프리카	-9.58881
▁시설	-9.5896
▁국경	-9.58986
▁도시로	-9.59056
▁1987	-9.59201
▁이것	-9.59213
▁총리	-9.5931
으나	-9.59312
▁제안	-9.59338
하려	-9.59341
▁무기	-9.5941
야마	-9.59412
▁색	-9.59445
▁강원도	-9.59541
되자	-9.59624
▁인식	-9.59645
▁담	-9.59652
▁최고의	-9.59656
▁통치	-9.59658
▁문자	-9.59708
명이다	-9.59794
▁멕시코	-9.59833
24	-9.59836
취	-9.59836
▁풍	-9.59839
▁60	-9.59889
▁권력	-9.60004
▁효과	-9.60171
▁제조	-9.60329
▁회의	-9.60368
▁어린	-9.60379
▁런던	-9.60389
▁못한	-9.60412
40	-9.60504
맨	-9.60548
▁부상	-9.60589
▁이집트	-9.60601
▁표	-9.60632
▁이용하여	-9.60789
▁미국에서	-9.60917
▁만들어진	-9.61092
▁그해	-9.6116
▁1985	-9.61183
▁광주	-9.61188
▁보다	-9.61268
시키고	-9.61329
三	-9.61462
▁나중에	-9.61469
▁논란	-9.61474
z	-9.61505
시에	-9.61512
▁정신	-9.61673
▁예술	-9.61682
▁장치	-9.61696
州	-9.61724
▁이루어져	-9.61743
▁부른다	-9.61778
▁발달	-9.61787
▁안에	-9.61883
▁푸	-9.62024
ro	-9.62084
▁마음	-9.62155
▁장군	-9.62207
▁분리	-9.62226
▁대해서는	-9.62317
칠	-9.62568
▁빛	-9.62613
만이	-9.62759
▁파일	-9.62792
▁북쪽	-9.62826
릉	-9.62842
시킨	-9.62967
▁시행	-9.63012
월까지	-9.63012
균	-9.63061
br	-9.63159
▁기존	-9.63169
▁번역	-9.63179
▁위해서	-9.63221
기는	-9.63238
▁조건	-9.6334
is	-9.63534
▁가정	-9.63559
▁자료	-9.63583
ce	-9.63637
▁등장	-9.6365
▁필요한	-9.63657
▁천황	-9.63702
▁개선	-9.63706
東	-9.63755
▁경험	-9.63808
▁레이	-9.63846
▁약간	-9.6386
▁마리아	-9.63865
▁만약	-9.63971
▁낮은	-9.63999
▁아일랜드	-9.64016
력을	-9.64017
▁위치하고	-9.64017
▁다만	-9.64111
▁표기	-9.64141
▁발행	-9.6418
lo	-9.64204
▁핵	-9.64245
룡	-9.64275
▁옥	-9.64306
▁더불어	-9.64353
션	-9.64362
▁오스트레일리아	-9.64374
▁여행	-9.64439
▁복	-9.64456
▁궤도	-9.64461
했다고	-9.64477
긴	-9.64487
▁금지	-9.64516
▁저항	-9.64581
子	-9.64645
▁올랐다	-9.6465
▁투수	-9.6477
▁기존의	-9.64788
▁일을	-9.6484
▁부여	-9.64901
▁활용	-9.64965
▁유리	-9.64988
▁얼마	-9.65006
▁만들었다	-9.65014
id	-9.65017
▁내부	-9.65043
▁조정	-9.65083
▁특수	-9.65122
사업	-9.65151
▁촬영	-9.65181
한다는	-9.65193
▁획득	-9.65237
道	-9.65242
▁적이	-9.65278
▁막	-9.65333
▁권리	-9.65441
▁실시	-9.65448
▁요리	-9.65613
기가	-9.65619
▁MBC	-9.6581
高	-9.65838
▁학	-9.65943
▁전투에서	-9.66202
▁결합	-9.66203
기에	-9.66228
리스	-9.66256
▁서쪽	-9.66283
기관	-9.66312
▁국립	-9.6635
▁엔진	-9.66365
▁수록	-9.66383
法	-9.66438
▁불린다	-9.66477
습	-9.66562
▁내에서	-9.6657
▁각종	-9.66572
▁구단	-9.66622
▁지지	-9.66639
▁못하고	-9.66661
기로	-9.66672
▁폴	-9.66726
▁대회에서	-9.66745
el	-9.6676
▁경쟁	-9.66765
▁지정	-9.66872
▁조각	-9.66877
25	-9.66884
▁표시	-9.66904
▁선언	-9.66912
▁연장	-9.66916
회의	-9.66927
자를	-9.66946
▁접	-9.6698
람	-9.67037
▁아니다	-9.67222
▁체계	-9.6733
▁유일한	-9.6745
▁의회	-9.67544
▁직	-9.67548
▁중화인민공화국	-9.67672
▁항	-9.67877
▁의사	-9.67894
우스	-9.67962
으로써	-9.67973
▁마리	-9.67985
▁항상	-9.68019
곤	-9.68201
▁사용자	-9.68202
액	-9.68234
▁시민	-9.68276
▁만나	-9.683
▁잡	-9.68316
90	-9.68372
ch	-9.68392
씩	-9.68478
▁제공	-9.68492
로써	-9.68544
▁장관	-9.68566
▁제임스	-9.68566
줄	-9.68583
▁원소	-9.68665
▁비디오	-9.68681
▁내용	-9.68691
▁지역을	-9.68691
군이	-9.68708
▁남쪽	-9.68753
▁실제로	-9.68783
▁대상	-9.68807
▁미사일	-9.68921
▁만드는	-9.69166
▁성격	-9.69179
▁니	-9.6944
▁구간	-9.69455
▁따른	-9.69515
-1	-9.69533
▁망	-9.69551
▁업무	-9.69559
▁특징	-9.6967
허	-9.69689
▁거대	-9.69727
▁and	-9.69772
▁시기에	-9.69773
블	-9.69867
▁조선시대	-9.6987
▁설정	-9.6987
엘	-9.69904
시즌	-9.69969
▁기념	-9.69972
▁헤	-9.69972
▁나이	-9.70026
▁배치	-9.7006
▁간의	-9.70061
▁법률	-9.70121
▁물론	-9.70136
▁필	-9.70188
▁되었으며	-9.70322
▁문제가	-9.7033
▁칸	-9.70342
▁사용한	-9.70363
▁복귀	-9.70374
▁교체	-9.70449
▁설립된	-9.70456
▁파괴	-9.70539
▁철도역	-9.70552
방송	-9.70565
▁조선민주주의인민공화국	-9.70574
▁정식	-9.70586
▁통하여	-9.70623
하다가	-9.70642
팅	-9.70708
▁여전	-9.709
寺	-9.71054
▁가까운	-9.71057
▁등에서	-9.71083
▁삼성	-9.71157
▁이전에	-9.7116
ia	-9.71185
▁일반적인	-9.71241
▁대체	-9.7128
이던	-9.71297
▁카드	-9.71347
▁갖춘	-9.71371
▁교통	-9.71379
▁The	-9.71393
▁달러	-9.71454
▁아르	-9.71507
▁폐	-9.71579
벌	-9.71654
▁코드	-9.7171
▁크	-9.71753
▁채널	-9.7177
▁방영	-9.71797
▁정치적	-9.71837
▁아니	-9.71891
씬	-9.72004
▁근	-9.72005
ra	-9.72043
영화	-9.72046
▁시험	-9.72058
▁목적	-9.72108
▁도움	-9.72153
[	-9.72175
▁지하철	-9.72249
▁보도	-9.72338
▁친구	-9.7235
▁한국의	-9.72361
명으로	-9.72389
▁폰	-9.72496
스의	-9.72611
▁센터	-9.72614
▁가능한	-9.72623
였으며	-9.72637
▁조성	-9.72693
v	-9.72724
벨	-9.72739
육	-9.72741
위로	-9.72839
밀	-9.72917
올	-9.7303
▁매년	-9.73042
60	-9.73063
장이	-9.7307
▁웹	-9.73432
▁주었다	-9.73584
라고도	-9.73587
南	-9.73592
▁힘	-9.73599
▁충청남도	-9.73606
▁나가	-9.7363
염	-9.7369
▁바탕으로	-9.73706
es	-9.73736
▁영상	-9.73795
효	-9.73838
▁덕	-9.73923
거리	-9.73955
혜	-9.74065
▁접근	-9.74129
▁범	-9.74131
▁오브	-9.74182
城	-9.74238
차원	-9.74338
이라고도	-9.74505
사가	-9.74558
나라	-9.74582
▁히	-9.74698
▁32	-9.74722
함을	-9.7479
▁프리	-9.74843
▁사실을	-9.7489
활동	-9.74913
▁출시	-9.75089
▁양식	-9.75112
▁/	-9.75185
▁하기	-9.75339
▁아무	-9.75409
天	-9.75559
?	-9.75571
▁꽃	-9.75667
▁투표	-9.75681
▁사실상	-9.75691
았다	-9.75721
책	-9.75786
▁기회	-9.75858
正	-9.75894
▁일어난	-9.75923
▁낙	-9.75942
학년	-9.75958
▁세상	-9.75989
▁협력	-9.7604
▁아내	-9.76104
▁경우도	-9.76115
사회	-9.76161
▁일이	-9.76215
전에서	-9.76338
장으로	-9.76344
▁엘	-9.76354
▁지도자	-9.76358
人	-9.76407
글	-9.76453
ri	-9.76551
세기에	-9.76658
▁집중	-9.76764
▁해외	-9.7678
관리	-9.76824
▁인수	-9.76909
▁언론	-9.76919
▁문서	-9.76926
▁메이저	-9.76936
▁가톨릭	-9.77076
▁임명	-9.77288
▁구역	-9.77314
▁기사	-9.77388
▁평화	-9.77411
▁네트워크	-9.77421
스크	-9.77435
▁공격을	-9.77446
▁뒤를	-9.77492
▁경우에는	-9.77612
▁스위스	-9.77623
▁떠나	-9.77628
측	-9.77656
▁밖에	-9.77679
》,	-9.77691
검	-9.77807
련	-9.7781
자의	-9.77872
宗	-9.77894
▁기능을	-9.77945
21	-9.77956
▁소개	-9.78035
혼	-9.7804
▁지하	-9.78077
▁씨	-9.78168
▁합	-9.78174
氏	-9.78187
▁중학교	-9.7819
▁후반	-9.7825
▁1972	-9.78251
▁수정	-9.78259
▁편성	-9.78282
▁상당	-9.78354
▁통과	-9.78391
ic	-9.78415
▁이해	-9.78444
명은	-9.78481
元	-9.78574
▁이끄는	-9.78575
▁위협	-9.78644
▁정치인	-9.7866
▁강력한	-9.78741
한다고	-9.78892
▁1974	-9.78927
▁1982	-9.78928
▁직후	-9.78948
▁의해서	-9.79
▁점에서	-9.79035
▁인민	-9.7915
▁죽은	-9.7916
▁터키	-9.79244
郡	-9.7925
▁뿐만	-9.79255
택	-9.79258
▁태어난	-9.79261
▁그래서	-9.79272
▁인한	-9.79273
▁500	-9.793
▁록	-9.79357
▁번호	-9.7944
中	-9.79585
▁1973	-9.79612
▁플레이	-9.79674
no	-9.79798
▁완	-9.79801
▁수사	-9.79929
▁비행	-9.79951
▁1983	-9.79952
▁지적	-9.7999
었으며	-9.80043
▁파리	-9.80126
간의	-9.80129
▁초등학교이다	-9.80205
▁성우	-9.80221
▁밀도	-9.80253
▁하자	-9.80291
▁계산	-9.80399
▁통신	-9.8043
▁급	-9.80464
▁승격	-9.80544
▁위치해	-9.80575
il	-9.80611
▁대규모	-9.80638
▁화학	-9.8066
▁소리	-9.80726
▁제정	-9.80754
▁디지털	-9.80776
▁측정	-9.80825
▁홈	-9.80842
하려고	-9.8091
▁지위	-9.80954
경제	-9.80965
▁1971	-9.80994
▁헝가리	-9.81007
센터	-9.81009
▁종종	-9.8107
▁월드	-9.81097
제를	-9.81208
▁승	-9.81258
▁음식	-9.81278
▁붕괴	-9.81329
▁최근	-9.81341
▁1981	-9.81342
▁제외한	-9.81345
▁외부	-9.81345
▁찾아	-9.81345
▁세운	-9.81347
▁신호	-9.81348
▁제한	-9.81355
▁엔	-9.81505
▁쉽게	-9.81544
탁	-9.81562
▁재직	-9.8158
▁공급	-9.81601
▁뒤에	-9.81608
▁전환	-9.8167
▁작곡	-9.81676
몽	-9.81676
▁1968	-9.81711
ad	-9.81749
▁사용되는	-9.8186
▁보면	-9.81868
▁제거	-9.81879
름	-9.81954
▁작용	-9.81958
▁일종이다	-9.81964
▁후기	-9.82034
)"	-9.82034
돈	-9.82053
▁1930	-9.82067
대를	-9.82077
▁충돌	-9.82114
▁질	-9.82164
▁고구려	-9.82168
▁요소	-9.82188
▁규정	-9.82219
▁했으나	-9.82239
▁해안	-9.82279
▁전차	-9.82289
▁속에	-9.82291
▁국왕	-9.82322
▁지나	-9.82381
▁대형	-9.82398
텐	-9.82406
▁여기에	-9.82442
▁수입	-9.82489
▁불교	-9.82514
▁반란	-9.82533
▁특성	-9.82564
▁가는	-9.82624
▁기원	-9.82781
▁전개	-9.8291
▁협회	-9.82925
▁이미지	-9.8299
▁처	-9.82991
되었지만	-9.83019
平	-9.83076
징	-9.83081
임을	-9.83089
하려는	-9.83158
▁뉴	-9.83186
년대에	-9.83315
자와	-9.83338
▁보존	-9.83342
플	-9.83361
▁은하	-9.83422
▁둔	-9.83439
이므로	-9.83534
▁언급	-9.83538
23	-9.83539
▁패배	-9.8356
▁점차	-9.83609
▁돈	-9.83618
▁박사	-9.83822
그룹	-9.83868
일본	-9.83944
▁시작되었다	-9.83945
▁외에	-9.84105
▁대해서	-9.84116
▁전라북도	-9.8416
▁폐지	-9.84165
▁태평양	-9.84168
▁태어나	-9.84191
▁쓰인다	-9.8421
▁주장했다	-9.84238
▁상호	-9.84271
세를	-9.84281
▁너무	-9.84414
▁뉴스	-9.84504
▁예선	-9.84547
▁이스라엘	-9.84567
▁외에도	-9.84625
▁탈	-9.8482
▁녹음	-9.84821
▁땅	-9.84831
▁1979	-9.84895
▁1976	-9.84899
)》	-9.84919
▁동생	-9.84939
걸	-9.84954
▁투자	-9.85079
▁시대의	-9.85127
컵	-9.85165
▁나서	-9.85197
川	-9.85234
틀	-9.85313
26	-9.85331
▁신문	-9.85332
▁유로	-9.85367
▁제작된	-9.85376
▁동계	-9.85467
▁슈퍼	-9.85531
틴	-9.85543
▁하이	-9.85551
▁de	-9.85565
▁이것이	-9.85592
▁분포	-9.85597
▁1969	-9.85625
70	-9.85687
▁출판	-9.85723
▁핀란드	-9.85743
응	-9.85878
니아	-9.85914
▁동맹	-9.86154
▁실행	-9.8618
▁이래	-9.86234
▁가리키는	-9.86251
▁응	-9.86327
▁공군	-9.86331
십	-9.86336
▁판단	-9.8634
▁중간	-9.86364
▁병력	-9.86437
▁중심지	-9.86597
▁검사	-9.86641
▁장비	-9.86654
벽	-9.86691
▁있었으며	-9.8671
se	-9.8675
▁사용하여	-9.86832
▁온도	-9.86857
▁타이	-9.86883
▁주인공	-9.86917
▁전시	-9.87034
동음이의	-9.87076
▁죄	-9.87136
▁하루	-9.87138
▁평양	-9.87143
▁통한	-9.87173
했기	-9.87175
▁위의	-9.87192
▁a	-9.87196
상의	-9.87262
▁발견된다	-9.87266
▁종료	-9.87289
렸다	-9.87394
▁연맹	-9.874
▁수비	-9.87429
▁백제	-9.87465
▁1975	-9.87467
▁기자	-9.87512
푸	-9.87529
▁안전	-9.87569
회사	-9.87665
▁옮겨	-9.87744
침	-9.87774
▁거부	-9.87859
(18	-9.87881
▁근무	-9.88012
07	-9.8808
▁기후	-9.88172
▁다섯	-9.8819
▁지상역	-9.88268
▁여름	-9.88319
▁사회적	-9.88329
갑	-9.88354
팔	-9.88472
事	-9.88564
▁케	-9.88601
▁승인	-9.88653
la	-9.88668
▁범위	-9.88714
지역	-9.88734
▁선의	-9.88741
▁캐릭터	-9.88781
27	-9.88844
레스	-9.88857
칭	-9.88879
29	-9.88896
▁80	-9.88908
▁개통	-9.88912
▁했지만	-9.88922
▁포지션	-9.88941
쥐	-9.88949
um	-9.88956
냐	-9.89
▁폭	-9.89001
슬	-9.89023
▁은행	-9.89026
▁설치되어	-9.89085
▁민주당	-9.89165
▁가치	-9.89227
▁원인	-9.89233
엽	-9.89296
▁있었지만	-9.89322
▁등록	-9.89323
▁발표했다	-9.8936
▁인사	-9.89365
▁결성	-9.89375
▁종목	-9.8941
▁때에는	-9.89439
▁내각	-9.89448
▁운	-9.89467
▁이루어진	-9.89491
▁끝	-9.89558
▁위원회	-9.8957
▁힘을	-9.8961
▁대중	-9.8967
▁받는	-9.89716
▁아르헨티나	-9.89727
▁사회주의	-9.89743
▁1920	-9.8975
▁말이다	-9.8977
▁위치한다	-9.89848
법을	-9.89875
▁경영	-9.89886
▁해방	-9.89915
▁잠시	-9.89921
▁측	-9.89924
되었는데	-9.8994
▁지식	-9.89986
▁시각	-9.90042
▁계열	-9.90074
+	-9.90075
長	-9.90077
▁II	-9.90152
▁대사	-9.90171
▁남쪽으로	-9.90204
▁의견	-9.90216
▁임무	-9.90347
랜드	-9.90411
▁사람들은	-9.90447
▁해체	-9.90456
▁뛰어난	-9.90463
▁1940	-9.90492
▁감독의	-9.90513
▁반면	-9.90513
▁오사카	-9.90522
▁때에	-9.90582
▁조지	-9.90603
▁[	-9.90608
▁공부	-9.90699
▁검	-9.90706
▁포르투갈	-9.90725
▁침공	-9.90857
▁윌리엄	-9.90921
▁35	-9.90945
움	-9.90985
▁북쪽으로	-9.91021
▁용어	-9.91031
▁이제	-9.91066
▁형제	-9.91066
▁속에서	-9.91233
▁윈도우	-9.91251
▁전혀	-9.91278
▁대립	-9.91314
시설	-9.91342
▁다수	-9.91359
▁선수들	-9.91401
▁무역	-9.91406
▁인간의	-9.91476
▁s	-9.91502
▁증	-9.91531
이었고	-9.91553
▁내용을	-9.91641
▁창설	-9.91655
-2	-9.91669
▁돌아가	-9.91676
w	-9.91682
부대	-9.91732
율	-9.91756
▁장면	-9.91791
▁역사상	-9.91803
콘	-9.91809
리는	-9.91832
▁부문	-9.91862
▁그것은	-9.91883
▁보이는	-9.91886
라운드	-9.91948
▁작	-9.91961
산업	-9.91993
▁계약을	-9.9207
▁즉위	-9.92092
▁관찰	-9.92108
받았다	-9.92121
▁노동	-9.92194
▁건강	-9.92253
▁f	-9.92322
리오	-9.9233
▁장식	-9.92455
▁회복	-9.92489
▁일본에서	-9.9249
▁실패	-9.92529
▁구분	-9.92563
▁대륙	-9.92627
▁m	-9.92686
폭	-9.92779
▁1977	-9.92799
▁잔	-9.92801
▁1966	-9.92801
22	-9.92823
▁수학	-9.92825
▁능	-9.92901
롱	-9.92934
스와	-9.92967
돼	-9.93012
튼	-9.93037
었던	-9.93037
▁in	-9.9304
▁지역은	-9.93071
쳐	-9.93109
▁적은	-9.93135
▁전략	-9.93156
기술	-9.93181
▁세웠다	-9.93215
▁만큼	-9.93303
사건	-9.93344
▁가능	-9.93362
▁울	-9.93399
▁사용되었다	-9.93471
▁묘사	-9.93477
버스	-9.93522
▁단어	-9.93532
으	-9.93535
▁훨	-9.9357
▁온라인	-9.93573
48	-9.93592
관계	-9.93606
에게서	-9.93613
화를	-9.937
▁이곳	-9.93709
公	-9.93724
▁시호	-9.93789
정부	-9.93817
▁결	-9.93824
협	-9.93827
▁토지	-9.93833
▁오전	-9.9385
▁개봉한	-9.93882
▁70	-9.9391
▁알고	-9.93937
▁맡고	-9.93961
▁1964	-9.93983
들로	-9.94014
▁재산	-9.94018
정책	-9.94046
▁음력	-9.9411
▁방식으로	-9.94118
▁회장	-9.94166
▁소장	-9.94193
▁이후로	-9.9421
▁철학	-9.94214
▁종합	-9.94245
▁나온	-9.94286
▁기초	-9.94324
te	-9.94337
▁흔히	-9.94382
▁휴	-9.94397
▁잡지	-9.94418
농	-9.94472
_2	-9.94633
▁중단	-9.94648
▁출생	-9.9467
▁스웨덴	-9.9467
▁무장	-9.9469
셔	-9.94709
▁중세	-9.94721
一	-9.94756
明	-9.94757
▁형태의	-9.94764
조선	-9.94855
생활	-9.94963
▁뇌	-9.94968
닝	-9.95046
▁동쪽으로	-9.9513
成	-9.95156
장은	-9.95197
▁서쪽으로	-9.95372
겨	-9.95421
▁귀족	-9.95473
▁농업	-9.95477
▁인근	-9.95518
▁처음에는	-9.95522
▁질량	-9.95574
▁다이	-9.9561
man	-9.95708
▁비밀	-9.95754
참	-9.95799
▁뜻이	-9.95864
▁됐다	-9.95947
▁시의	-9.95963
존	-9.95977
▁요새	-9.9598
연대	-9.96024
86	-9.96057
▁치료	-9.96221
▁사후	-9.96249
▁기획	-9.96267
28	-9.96303
▁신경	-9.96318
▁콜	-9.96321
學	-9.96339
▁여객철도	-9.96367
▁있었으나	-9.96369
▁가스	-9.96393
▁증명	-9.96395
였고	-9.96449
▁기대	-9.96491
▁빌	-9.96493
▁합류	-9.96508
▁차지했다	-9.9651
▁LG	-9.9655
▁인하여	-9.96589
교회	-9.96637
▁염	-9.96725
▁담당	-9.96755
▁넓은	-9.96772
▁짧은	-9.96772
▁행정구역	-9.9678
▁유명하다	-9.96784
▁영역	-9.96884
▁탑재	-9.97052
대의	-9.97088
음악	-9.97128
上	-9.9718
▁1963	-9.97204
▁성립	-9.97237
▁있음	-9.97258
▁장기	-9.9726
▁정부의	-9.97299
▁등장하는	-9.97387
국가	-9.97464
▁참여하였다	-9.97466
▁예수	-9.97478
▁홀	-9.9748
▁취임	-9.9749
▁발매되었다	-9.9749
▁참석	-9.97497
▁숲	-9.97534
딩	-9.9754
35	-9.97598
춘	-9.97652
▁떨어져	-9.97659
▁만들	-9.97666
앙	-9.97771
▁잠	-9.97833
▁가입	-9.97888
▁Z	-9.979
인지	-9.97999
▁1978	-9.98016
▁전달	-9.98035
▁유도	-9.98067
▁묘	-9.98073
▁방문	-9.98099
▁군인	-9.98111
▁임명되었다	-9.98127
▁아메리카	-9.98129
군에	-9.98147
▁?	-9.98151
점을	-9.98182
젠	-9.98329
un	-9.98357
문을	-9.98387
海	-9.98395
▁어떻게	-9.98415
石	-9.98415
▁지상	-9.98458
▁개정	-9.98475
▁비교적	-9.98489
▁나오는	-9.9849
55	-9.98512
▁없고	-9.9853
탑	-9.98535
▁보수	-9.98541
▁논	-9.98581
없이	-9.98638
▁300	-9.98677
이었으며	-9.98714
▁팀은	-9.98775
▁필리핀	-9.9883
현재	-9.98832
▁잘못	-9.98836
▁수립	-9.98958
하나	-9.98966
시킬	-9.98967
▁충분	-9.99022
85	-9.99032
95	-9.99059
▁단위	-9.99081
로스	-9.99144
▁타이틀	-9.99225
▁주는	-9.99234
▁홍콩	-9.99244
西	-9.99247
▁방법으로	-9.99247
▁반도	-9.99252
▁대상으로	-9.99271
함에	-9.99271
▁달성	-9.99272
▁추정된다	-9.99279
▁류	-9.99397
▁부정	-9.99407
▁쌍	-9.99451
▁동일한	-9.99459
38	-9.99486
▁받지	-9.99515
▁연극	-9.99554
▁뜻한다	-9.99571
어로	-9.99597
수가	-9.99615
▁편지	-9.99636
▁발표한	-9.99658
▁구성된	-9.99692
▁이끌고	-9.99779
98	-9.99906
▁시대에	-9.99914
▁사용하고	-10.0006
▁독일군	-10.0011
▁벨기에	-10.0011
▁내에	-10.002
▁계승	-10.0025
▁하는데	-10.0026
▁의식	-10.0027
義	-10.0033
▁확보	-10.0043
▁미군	-10.0043
▁역대	-10.0047
▁경기장	-10.0048
제도	-10.0048
▁요시	-10.0049
▁앤	-10.0056
ol	-10.0057
▁미디어	-10.0062
▁이란	-10.0079
▁아주	-10.008
▁제기	-10.0084
학과	-10.0086
▁세워	-10.0088
▁젊은	-10.0089
빛	-10.009
▁투입	-10.0095
▁&	-10.0095
▁한국어	-10.0096
▁것이라	-10.0098
▁전력	-10.0103
▁해결	-10.0107
수를	-10.011
▁되지	-10.0123
▁제목	-10.0125
혁	-10.0125
▁얼굴	-10.0125
&	-10.0134
▁핵심	-10.014
▁공산당	-10.0153
▁맞	-10.0155
▁임시	-10.0156
▁양성	-10.0158
▁따	-10.0167
공사	-10.0176
75	-10.0177
▁WWE	-10.0179
찰	-10.0179
▁청나라	-10.018
▁거주	-10.0182
▁라인	-10.0184
▁산맥	-10.0186
Z	-10.0187
▁헨리	-10.019
다고	-10.0195
▁요한	-10.0205
▁보급	-10.0213
▁지속	-10.0214
▁1947	-10.0224
▁진화	-10.0227
▁관할한다	-10.0228
▁기계	-10.0231
▁홈런	-10.0236
▁고종	-10.0239
▁육상	-10.0242
ta	-10.0244
▁현실	-10.0245
▁교토	-10.0246
▁재정	-10.0252
▁개편	-10.0257
▁투어	-10.0258
"(	-10.0263
▁마드리드	-10.0264
은행	-10.0265
▁열렸다	-10.0266
▁기구	-10.0269
▁입학	-10.0271
▁고향	-10.0273
▁다르다	-10.0275
세대	-10.0275
▁폭발	-10.0283
▁내려	-10.0284
▁공포	-10.0284
08	-10.0287
▁이번	-10.0288
▁좌	-10.029
▁체포	-10.0304
▁얻었다	-10.0308
▁흡수	-10.0308
▁원자	-10.0311
▁않을	-10.0317
▁국회	-10.0319
▁조치	-10.0324
▁살고	-10.0329
▁바다	-10.0331
▁마사	-10.0332
▁칠	-10.0335
▁고전	-10.0341
▁통제	-10.0342
▁사례	-10.0349
▁완성	-10.0349
시장	-10.0353
▁1967	-10.0353
▁경력	-10.0359
ation	-10.0362
릭	-10.0367
▁한때	-10.0374
▁통해서	-10.0382
시마	-10.0395
▁시작한	-10.0406
▁Y	-10.0408
▁자는	-10.0408
▁없어	-10.0412
▁무덤	-10.0417
▁자신들	-10.0419
사에	-10.0425
▁나오	-10.0436
풀	-10.0437
잔	-10.0438
▁운용	-10.0444
▁이슬람	-10.0445
▁되면	-10.0452
▁사건이	-10.0461
▁계급	-10.0462
▁간주	-10.0472
▁가격	-10.0477
45	-10.048
덴	-10.0483
▁유나이티드	-10.0483
武	-10.0483
德	-10.0483
▁있었는데	-10.0483
에게는	-10.0484
65	-10.0486
사로	-10.0492
▁메이	-10.0494
▁견해	-10.0496
89	-10.0499
▁혼	-10.0504
▁항성	-10.051
▁방향	-10.0511
",	-10.0515
▁전용	-10.0518
▁지낸	-10.0519
▁대응	-10.0519
97	-10.0524
▁그런	-10.0526
▁소비에트	-10.0527
▁1958	-10.0529
한국	-10.053
연구	-10.0539
▁가사	-10.0553
os	-10.0559
▁생성	-10.056
▁등은	-10.0569
구조	-10.0586
-3	-10.0592
▁역임	-10.0592
et	-10.0597
▁앞에	-10.0601
47	-10.0608
정보	-10.0609
▁보아	-10.0616
▁시간이	-10.0616
水	-10.0616
(15	-10.0617
▁발생한	-10.0631
▁성경	-10.0631
력이	-10.0636
▁앞서	-10.0637
▁b	-10.0637
▁공주	-10.064
ir	-10.0646
▁c	-10.0648
▁나치	-10.0657
▁입장	-10.0659
레이	-10.0665
▁연합군	-10.0667
▁기억	-10.0671
▁타고	-10.0674
▁당시의	-10.0674
∼	-10.0676
▁항복	-10.0677
▁위험	-10.0679
착	-10.0684
▁허용	-10.0685
▁제어	-10.0686
되	-10.0686
▁순위	-10.0687
▁기반으로	-10.0691
수는	-10.0703
었으나	-10.0705
▁썼다	-10.0706
▁울산	-10.0707
▁이룬다	-10.0712
▁한번	-10.0717
▁불러	-10.0718
▁족	-10.0728
차전	-10.0733
▁성과	-10.0741
▁금속	-10.0746
▁일대	-10.0746
겐	-10.0749
▁엔터테인먼트	-10.0752
▁1962	-10.0754
▁파견	-10.0754
▁1965	-10.0754
▁1948	-10.0754
▁때부터	-10.0758
39	-10.0763
▁합병	-10.0763
▁사망했다	-10.0763
▁탈출	-10.0766
na	-10.0768
▁오랜	-10.0784
▁무리	-10.0788
과학	-10.0793
▁저장	-10.0797
部	-10.0797
▁1949	-10.0799
▁그런데	-10.08
혈	-10.0801
▁선수단	-10.0801
선을	-10.0804
▁체결	-10.0805
▁왼쪽	-10.0807
▁남편	-10.0808
들도	-10.0809
ne	-10.081
베르	-10.0819
이기	-10.0822
▁출발	-10.0822
▁농	-10.0823
▁커	-10.0825
▁되면서	-10.0828
ot	-10.083
▁법원	-10.0834
▁보냈다	-10.0845
사의	-10.0846
핀	-10.0848
▁소재	-10.0852
▁400	-10.0854
▁비록	-10.0855
▁스타일	-10.0861
성과	-10.0865
카와	-10.0867
▁의무	-10.0873
▁생명	-10.0876
▁불상	-10.0881
▁팀이	-10.0882
▁PC	-10.0883
▁잎	-10.0886
▁1946	-10.089
▁하면서	-10.0892
전을	-10.0893
▁민주	-10.0895
▁CD	-10.0896
셀	-10.09
▁코치	-10.0902
▁전사	-10.0914
▁판결	-10.092
▁가능성	-10.0922
압	-10.0928
▁경주	-10.0929
▁스코틀랜드	-10.0934
▁부산광역시	-10.0934
▁공기	-10.0937
▁했으며	-10.094
▁이중	-10.0943
▁영업	-10.0947
같은	-10.0947
li	-10.0952
식을	-10.0958
▁무대	-10.096
▁브	-10.0961
▁고유	-10.097
▁털	-10.0974
몬	-10.0976
新	-10.098
▁동료	-10.0985
지로	-10.0986
▁우크라이나	-10.099
▁시즌에	-10.0991
ine	-10.0994
까	-10.0995
경기에	-10.0996
▁생물	-10.0997
▁사이트	-10.1001
▁근처	-10.1005
▁기록하였다	-10.1007
▁그에게	-10.101
▁술	-10.1011
▁건립	-10.1013
헤	-10.1014
▁우선	-10.1014
▁부터	-10.1015
▁정복	-10.1018
▁좋아	-10.104
▁넘	-10.1042
▁역임했다	-10.1044
▁세계에서	-10.1044
▁이유는	-10.1046
스가	-10.1049
▁추정	-10.105
im	-10.1052
▁광고	-10.1052
▁보장	-10.1053
▁변호사	-10.1055
▁대기	-10.1057
▁p	-10.106
▁엄	-10.1062
▁미술	-10.1065
었는데	-10.107
▁오히려	-10.1074
)’	-10.1075
▁영입	-10.1078
▁브랜드	-10.1079
▁응용	-10.1079
화가	-10.1089
클	-10.1097
보다는	-10.1098
▁공원	-10.1099
▁축	-10.1103
▁하였고	-10.1104
▁그리	-10.111
▁잇는	-10.1116
상으로	-10.1117
문학	-10.1121
▁목표로	-10.1123
▁국도	-10.1124
▁신설	-10.1126
▁90	-10.1129
지고	-10.1136
▁현재까지	-10.1139
▁무렵	-10.1144
학자	-10.1146
▁배경	-10.1146
기간	-10.1148
▁이용해	-10.1149
▁플레이어	-10.115
▁베이징	-10.1153
94	-10.1164
▁상품	-10.1164
▁저서	-10.1167
▁비난	-10.1168
뉴	-10.1168
▁개최된	-10.1168
33	-10.1172
▁향상	-10.1178
▁것처럼	-10.1179
▁대수	-10.118
▁에도	-10.118
▁속한다	-10.1181
▁수술	-10.1181
▁군주	-10.1184
▁성인	-10.1185
행위	-10.119
직을	-10.1196
▁만주	-10.1196
▁학생들	-10.1203
▁뮤직	-10.1205
칼	-10.1207
▁지진	-10.1209
▁1941	-10.1218
▁발매된	-10.1219
▁맨	-10.122
단체	-10.122
▁올라	-10.1223
▁이승만	-10.1223
킹	-10.1228
▁주목	-10.1235
개발	-10.1239
▁작성	-10.1244
▁성질	-10.1245
▁없다고	-10.1245
▁트랙	-10.1248
욱	-10.125
▁권한	-10.1253
▁입자	-10.1253
대가	-10.1257
▁단계	-10.126
光	-10.1262
▁근대	-10.1263
▁충청북도	-10.1263
▁코미디	-10.1263
▁불과	-10.1266
하였던	-10.1266
▁휘	-10.1266
▁비용	-10.1272
▁시위	-10.1273
▁공식적으로	-10.1273
멘	-10.1278
▁청소년	-10.128
▁예상	-10.1281
▁교사	-10.1282
▁기지	-10.1289
▁굴	-10.129
▁나타내는	-10.1292
▁하나는	-10.1293
▁녹	-10.1311
▁로버트	-10.1312
▁옷	-10.1312
=	-10.1313
진다	-10.1317
▁본사	-10.1319
▁꼬리	-10.1319
▁이주	-10.1319
쉬	-10.1322
▁은퇴	-10.1322
▁후에는	-10.1326
▁지급	-10.1331
세포	-10.1331
▁마르	-10.1334
▁도서관	-10.1336
▁강제	-10.1338
31	-10.1338
▁분자	-10.1338
▁등장한다	-10.1339
▁점을	-10.1342
▁포로	-10.1348
44	-10.1351
▁높이는	-10.1352
▁국가의	-10.1352
▁말았다	-10.1365
▁작품을	-10.1367
▁숫자	-10.1367
섭	-10.1367
▁영향력	-10.1373
▁선출	-10.1374
▁존재하는	-10.1377
▁수용	-10.1384
▁사단	-10.1387
54	-10.1392
▁캘리포니아	-10.1399
▁맡아	-10.1407
▁곳에서	-10.1408
▁소년	-10.1408
▁1956	-10.141
▁솔로	-10.1414
▁제주	-10.1414
▁않았고	-10.1415
▁지시	-10.1416
▁연대	-10.1418
▁위성	-10.142
폰	-10.1428
to	-10.1429
▁신성	-10.1431
▁팬	-10.1436
▁시작으로	-10.1436
▁이들의	-10.1439
▁모여	-10.1439
▁봄	-10.144
34	-10.1443
▁회전	-10.1447
▁협상	-10.1447
▁사망하였다	-10.1448
▁듯	-10.1448
▁해서	-10.145
▁보였다	-10.145
田	-10.1456
▁루이	-10.1458
세에	-10.146
▁완공	-10.1461
▁상징	-10.1461
▁콘	-10.1463
▁빠른	-10.1467
사는	-10.147
▁초기에	-10.1471
▁전쟁이	-10.1476
웨이	-10.1477
▁변환	-10.148
▁학문	-10.148
▁시조	-10.148
▁증거	-10.1485
▁활동하였다	-10.1489
사와	-10.1494
▁측면	-10.1494
▁격	-10.1495
▁모스크바	-10.1495
▁자원	-10.1503
▁공개된	-10.1507
▁서양	-10.1518
▁창단	-10.1518
▁고정	-10.1518
▁시리아	-10.1518
▁세종	-10.1519
▁오픈	-10.1521
▁전후	-10.1525
▁이르는	-10.1527
벤	-10.1528
'(	-10.1529
▁원정	-10.1532
▁지대	-10.1536
이었으나	-10.1536
▁기록한	-10.1544
지에	-10.1547
▁공공	-10.1547
▁했고	-10.1549
▁포함되어	-10.155
하겠다	-10.1553
家	-10.1554
▁인도네시아	-10.1554
68	-10.1554
09	-10.1557
▁마이크로소프트	-10.1557
하고자	-10.1557
▁좀	-10.1568
▁의료	-10.1571
▁겨울	-10.1572
96	-10.1574
오카	-10.1574
▁항구	-10.1578
예술	-10.158
▁괴	-10.158
▁머	-10.1583
▁전부	-10.1584
▁관할	-10.1588
닌	-10.1591
▁규칙	-10.1592
書	-10.1602
▁마침내	-10.1603
로서의	-10.1605
▁타격	-10.1608
▁두었다	-10.1612
▁해에	-10.1613
▁표면	-10.1637
▁정비	-10.1637
66	-10.1643
▁해산	-10.1647
비아	-10.165
▁중화민국	-10.1652
▁상륙	-10.1653
56	-10.1654
▁회원	-10.1658
음을	-10.1658
▁쓰이는	-10.1659
▁사는	-10.1659
▁포위	-10.166
▁카를	-10.1661
37	-10.1663
▁흥	-10.1665
▁에피소드	-10.1665
99	-10.1665
▁재판	-10.1669
▁다카	-10.1669
▁SBS	-10.1672
_5	-10.1676
▁편입	-10.1677
공원	-10.1678
▁합의	-10.169
陽	-10.1701
軍	-10.1702
神	-10.1702
▁덴마크	-10.1704
▁1952	-10.1705
▁인류	-10.1714
▁건국	-10.1714
▁상승	-10.1724
▁시작하여	-10.1724
▁보컬	-10.173
아이	-10.1731
▁사용되고	-10.1732
▁뜻으로	-10.1736
능	-10.1745
▁하였으나	-10.1746
▁취급	-10.1751
위원	-10.1752
▁챔피언스리그	-10.1752
▁앞두고	-10.1752
▁36	-10.1752
▁수출	-10.1753
▁하면	-10.1754
▁혼란	-10.1756
▁진입	-10.1758
▁출신으로	-10.1761
▁양자	-10.1766
_4	-10.1766
세계	-10.1769
▁약속	-10.1769
탕	-10.1772
▁노동자	-10.1774
▁단지	-10.1775
힌	-10.1781
▁넘어	-10.1782
되면	-10.1784
사랑	-10.1786
▁하게	-10.1787
▁얻어	-10.1788
뿐만	-10.1793
▁33	-10.1798
北	-10.1802
면에	-10.1803
▁태풍	-10.1805
▁갔다	-10.1808
36	-10.181
88	-10.1815
▁진주	-10.1816
▁부르	-10.1816
▁박물관	-10.1826
솔	-10.1828
▁소유	-10.1832
▁맹	-10.1832
▁라이브	-10.1833
▁명이	-10.1833
77	-10.1834
▁유명	-10.1846
ig	-10.1846
연구소	-10.1849
화된	-10.1849
으면	-10.185
▁희	-10.1851
▁플랫폼	-10.1853
▁출간	-10.1855
▁외교	-10.1856
64	-10.1858
▁구축	-10.1864
▁아들로	-10.1867
용으로	-10.1868
67	-10.1873
자들이	-10.1874
님	-10.1881
▁부모	-10.1882
얼	-10.1882
▁유전자	-10.1883
하였지만	-10.1898
문제	-10.19
▁받았고	-10.1901
▁전주	-10.1902
▁캐	-10.1903
스케	-10.1903
▁숙	-10.1903
였으나	-10.1903
白	-10.1904
▁이사	-10.1906
▁소식	-10.191
냈다	-10.1913
▁항공기	-10.1918
▁롯데	-10.1921
▁해당하는	-10.1925
・	-10.1935
53	-10.1936
▁넘는	-10.1938
▁수상했다	-10.1941
▁전까지	-10.1944
▁도착	-10.1953
▁깊은	-10.1955
龍	-10.1955
▁충격	-10.1956
▁세계대전	-10.1956
▁1939	-10.1957
▁1961	-10.1958
▁1955	-10.1958
▁사건을	-10.1958
76	-10.1968
▁기여	-10.1969
▁오른쪽	-10.197
▁멸망	-10.1973
▁번째로	-10.1974
▁이용한	-10.1975
100	-10.1975
▁터	-10.1976
▁고도	-10.1977
차례	-10.1978
▁도중	-10.198
▁외국	-10.1981
▁역사적	-10.1984
▁임의	-10.1987
▁보안	-10.1992
서를	-10.1995
▁오래	-10.2003
51	-10.2005
《	-10.2006
델	-10.2009
▁출장	-10.201
▁선거에서	-10.2011
▁편집	-10.2012
▁쓰는	-10.2014
▁백작	-10.2019
▁부활	-10.202
▁했던	-10.2022
▁합격	-10.2023
▁FA	-10.2026
ly	-10.2037
▁위기	-10.2041
▁주기	-10.205
▁조합	-10.2051
자들은	-10.2052
▁살해	-10.2052
▁하늘	-10.2054
▁나이로	-10.2057
대회	-10.2063
84	-10.2066
만큼	-10.2066
▁수가	-10.2066
라이	-10.2072
▁끝난	-10.2074
▁쪽	-10.2078
▁탄생	-10.2081
도시	-10.2087
싱	-10.2089
뢰	-10.209
▁교환	-10.209
▁예정이다	-10.2096
▁일본군	-10.2097
▁역을	-10.2099
é	-10.2099
▁정상	-10.2101
▁챔피언십	-10.211
▁삶	-10.2116
▁솔	-10.2121
▁가졌다	-10.2124
▁대학교에서	-10.2128
분에	-10.2129
폐	-10.213
▁창립	-10.2131
▁반발	-10.2132
감을	-10.2133
▁지은	-10.2137
(2	-10.2137
▁효	-10.2138
▁사립	-10.2141
홀	-10.2142
▁설치된	-10.2144
▁대표팀	-10.2146
▁탑	-10.2149
▁퍼	-10.2149
▁흑	-10.215
▁경기에	-10.2157
▁붉은	-10.2159
縣	-10.2161
▁몽골	-10.2162
▁일어나	-10.2165
▁신학	-10.2167
웅	-10.2174
▁우려	-10.2175
▁작품이다	-10.2197
지도	-10.2199
▁마치	-10.2204
▁취득	-10.2214
▁둘째	-10.2214
▁개시	-10.2216
▁1954	-10.2217
▁오르	-10.2218
▁군의	-10.2223
▁자살	-10.2226
▁개조	-10.2228
▁선수가	-10.2229
주는	-10.2231
곳	-10.2237
린다	-10.2239
▁외국인	-10.2241
▁주교	-10.2243
텔	-10.2244
▁후지	-10.2244
빙	-10.2244
▁시인	-10.2249
개국	-10.2252
▁명예	-10.2252
객	-10.2254
▁그와	-10.2255
▁필요하다	-10.2258
▁문제로	-10.2265
興	-10.2266
▁에드워드	-10.2266
▁본명	-10.2268
61	-10.2273
▁1919	-10.2276
▁건너	-10.2281
▁채용	-10.2281
왔다	-10.229
Q	-10.2292
▁성당	-10.2293
▁받게	-10.2297
▁이야기를	-10.2304
▁보낸	-10.2304
▁주제	-10.231
▁일종	-10.231
co	-10.2311
리가	-10.2311
려고	-10.2315
地	-10.2319
▁논의	-10.2319
시키기	-10.2319
▁제작한	-10.232
▁일찍	-10.232
▁올렸다	-10.232
▁1959	-10.2322
▁알려졌다	-10.2323
▁Re	-10.2326
43	-10.2328
▁벽	-10.2329
이닝	-10.233
▁부진	-10.2331
▁최소	-10.2336
▁검찰	-10.2337
▁암살	-10.2338
▁서구	-10.2342
▁방출	-10.2344
▁알게	-10.2345
▁안정	-10.2348
▁신앙	-10.2349
맥	-10.2351
▁상업	-10.2352
▁호텔	-10.2355
▁작사	-10.2365
사단	-10.2371
▁범죄	-10.2371
▁계기로	-10.2372
메이	-10.2375
-19	-10.2382
▁모아	-10.2382
▁수원	-10.2383
▁차지	-10.2384
▁받기	-10.2388
시킨다	-10.2388
63	-10.239
▁최다	-10.2391
▁들어서	-10.2398
▁학습	-10.2403
▁유사한	-10.2404
▁시티	-10.2405
72	-10.2406
▁것이며	-10.2415
▁프	-10.2421
▁팝	-10.2424
▁추측	-10.2425
行	-10.2426
▁나폴레옹	-10.2426
▁1936	-10.2429
▁특	-10.2431
▁전반	-10.2431
▁올림픽에서	-10.2432
▁정지	-10.2432
▁연재	-10.2435
00	-10.2436
▁화면	-10.2436
▁나왔다	-10.2437
46	-10.2438
쪽	-10.2441
▁반복	-10.2442
▁전공	-10.2446
▁기술을	-10.245
▁지붕	-10.2452
인들이	-10.2452
69	-10.2452
시아	-10.2456
▁지금까지	-10.246
▁졸업하고	-10.2462
국의	-10.2466
▁연구소	-10.2476
仁	-10.2479
ang	-10.248
▁적극적	-10.2483
▁정착	-10.2484
▁문장	-10.2486
▁박정희	-10.2487
▁원리	-10.2489
ie	-10.2492
▁태국	-10.2501
지방	-10.2504
ard	-10.2506
▁번주	-10.2512
▁운전	-10.2515
▁역할	-10.2516
▁낮	-10.2517
▁유대인	-10.2517
▁사장	-10.2533
▁어떠한	-10.2534
▁오스만	-10.2538
시대	-10.2539
선이	-10.254
▁위상	-10.254
지원	-10.2545
정치	-10.2549
▁조금	-10.2553
억원	-10.2556
▁반대로	-10.2556
▁사태	-10.2558
▁시간을	-10.2561
od	-10.2562
▁중부	-10.2562
▁차트	-10.2563
▁공을	-10.2564
▁준다	-10.2574
am	-10.2576
▁불렀다	-10.2588
▁손자	-10.2588
▁KBO	-10.2589
▁거래	-10.259
▁위해서는	-10.259
▁베르	-10.2591
▁1944	-10.2591
▁사전	-10.2594
▁왜	-10.2596
▁고리	-10.2599
▁활동했다	-10.2599
49	-10.2606
▁받는다	-10.2607
▁상하이	-10.2608
▁=	-10.261
▁진압	-10.2612
제가	-10.2622
▁블랙	-10.2623
호는	-10.2624
▁공장	-10.2632
▁막부	-10.2633
ul	-10.2633
▁이하	-10.2635
기원전	-10.2636
부를	-10.2641
▁불법	-10.2641
▁챔피언	-10.2642
▁오랫동안	-10.2643
島	-10.2643
▁마무리	-10.2643
▁오래된	-10.2653
▁화산	-10.2654
▁모리	-10.2655
▁가서	-10.2657
▁출시되었다	-10.2659
랄	-10.2662
▁수송	-10.2663
▁자동	-10.2667
스티	-10.2674
▁향해	-10.2675
▁이외	-10.2676
▁농구	-10.2683
▁순서	-10.2691
▁동원	-10.2697
無	-10.2698
▁갈등	-10.2698
04	-10.2702
▁구현	-10.2707
▁유형문화재	-10.2708
▁변수	-10.2709
▁빠르게	-10.2709
▁동안에	-10.271
▁오페라	-10.271
제는	-10.271
▁가까이	-10.2715
▁연료	-10.2715
▁그러한	-10.2716
콜	-10.272
ma	-10.2727
만원	-10.2732
▁교류	-10.2737
▁작곡가	-10.2738
득	-10.2744
륜	-10.2751
經	-10.2752
ᆞ	-10.2753
和	-10.2753
▁마이클	-10.2753
▁출범	-10.2754
▁아시안	-10.2754
▁선생	-10.2758
▁발견된	-10.2759
▁to	-10.2759
▁되기	-10.2759
▁고문	-10.2761
킨	-10.2764
▁연안	-10.2766
▁맞아	-10.2773
▁콘서트	-10.2779
주년	-10.2784
▁금융	-10.2785
▁고용	-10.2786
▁죽었다	-10.2787
엄	-10.2787
▁보는	-10.279
상태	-10.2793
41	-10.2796
▁탄	-10.2797
▁자치	-10.2801
▁방향으로	-10.2801
▁단일	-10.2805
▁창조	-10.2806
官	-10.2808
▁1953	-10.2812
▁일원	-10.2813
원을	-10.2814
이치	-10.2819
ag	-10.2819
전에	-10.2822
▁포함한다	-10.2825
▁나는	-10.2825
<	-10.2826
▁안에서	-10.2827
▁에이	-10.283
▁지닌	-10.2834
접	-10.2838
죄	-10.2838
▁대한민국에서는	-10.2839
▁취	-10.284
었지만	-10.2841
32	-10.2849
성은	-10.2852
딘	-10.2854
로도	-10.2857
▁목표	-10.2863
世	-10.2864
▁나뉜다	-10.2864
▁당나라	-10.2869
▁있었기	-10.287
▁원칙	-10.2871
▁프로듀서	-10.2871
▁선조	-10.2877
▁무게	-10.2877
▁충	-10.2883
(1	-10.2884
인들은	-10.289
신문	-10.2897
ion	-10.2904
누스	-10.2904
▁SK	-10.2906
핑	-10.2909
스테	-10.2912
▁도달	-10.2914
kg	-10.2919
▁맞이	-10.292
▁받을	-10.2925
▁레코드	-10.2925
마리	-10.2927
▁도전	-10.2931
▁선고	-10.2937
▁후손	-10.2942
항공	-10.2942
▁왕이	-10.2945
▁구속	-10.2948
▁유엔	-10.295
▁참가한	-10.2951
▁대부분은	-10.2952
▁말기	-10.2952
▁처형	-10.2958
▁절대	-10.2959
혀	-10.2961
▁수영	-10.2966
▁법칙	-10.2974
▁전파	-10.2976
▁마지막으로	-10.2976
▁장소	-10.2976
번째로	-10.2979
서울	-10.2981
▁작위	-10.2983
▁게이	-10.299
▁질병	-10.299
▁병원	-10.2992
타이	-10.3001
치는	-10.3001
끼	-10.3002
▁가진다	-10.3006
랜	-10.3006
▁시작된	-10.3008
▁감염	-10.301
기구	-10.301
물을	-10.3012
▁분열	-10.3015
▁경성	-10.3022
(16	-10.3025
▁스튜디오	-10.3028
▁스토리	-10.3029
분류	-10.3029
▁당시에는	-10.3031
스러운	-10.3033
▁조조	-10.3034
▁독특	-10.3035
▁거두었다	-10.3035
기와	-10.3036
▁시작한다	-10.3036
▁가능성이	-10.3036
조직	-10.3038
▁소녀	-10.3038
▁곡을	-10.3043
_8	-10.3043
▁감독으로	-10.3046
▁타이완	-10.3048
▁제시	-10.3049
▁익	-10.306
▁마크	-10.3065
▁방영된	-10.3071
▁소수	-10.3074
▁글자	-10.3084
_6	-10.3084
太	-10.309
▁민간	-10.3091
▁인쇄	-10.3093
반드시	-10.3094
▁대개	-10.3104
59	-10.3107
▁복원	-10.3107
▁주장하였다	-10.3108
▁별도	-10.3111
트라	-10.3112
▁수집	-10.3112
▁벡터	-10.3113
▁견	-10.3117
▁다수의	-10.3117
기업	-10.3122
▁유학	-10.3133
▁갖는	-10.3133
▁한국에서	-10.3134
de	-10.3142
▁분할	-10.3143
會	-10.3148
부인	-10.3148
힐	-10.3149
▁탈퇴	-10.3149
▁국제공항	-10.3149
▁징역	-10.315
▁1932	-10.3151
▁트리	-10.3152
▁바뀌었다	-10.3153
▁노예	-10.3154
▁서버	-10.3162
▁영국군	-10.3164
▁45	-10.3169
▁셀	-10.3176
▁살아	-10.318
▁위원	-10.3182
▁쉬	-10.3185
▁남은	-10.3186
사상	-10.3186
▁일본어	-10.3188
▁정원	-10.3191
▁테러	-10.3193
93	-10.3193
▁크고	-10.3195
▁곡은	-10.3205
▁귀국	-10.3206
日	-10.3206
生	-10.3206
▁얻은	-10.3206
▁나와	-10.3207
▁발굴	-10.3207
▁해당한다	-10.3212
원이	-10.3213
바르	-10.3219
▁중이다	-10.3221
▁나타난다	-10.3223
▁갑	-10.3229
▁환자	-10.3231
_3	-10.3235
▁예정	-10.3236
▁철수	-10.3239
▁이익	-10.3243
▁범주	-10.3243
▁주민들	-10.3245
87	-10.3247
▁사원	-10.3255
▁150	-10.3255
▁공유	-10.3256
▁노르웨이	-10.3259
の	-10.3264
▁정확한	-10.3264
相	-10.3264
▁1943	-10.3267
▁강점기	-10.3269
폴	-10.3269
ss	-10.3273
▁원형	-10.3276
▁원년	-10.3279
▁워	-10.328
▁맞서	-10.3283
▁남북	-10.3286
▁연출	-10.3291
▁문신	-10.3293
▁완전	-10.3295
▁가상	-10.3296
▁뜻하는	-10.3296
▁유행	-10.3298
네스	-10.3304
▁참여했다	-10.3304
▁가지는	-10.3307
▁소스	-10.3307
▁린	-10.331
큐	-10.3313
君	-10.332
▁위로	-10.332
우리	-10.3323
▁분위기	-10.3323
▁의심	-10.3325
▁채택	-10.3325
▁1957	-10.3326
▁먹	-10.3326
▁예측	-10.3327
▁동의	-10.3328
▁배출	-10.3329
▁활동하고	-10.3329
▁크로아티아	-10.3331
▁지속적	-10.3336
최	-10.3337
▁호수	-10.3338
지게	-10.3339
세이	-10.3343
▁찬	-10.3353
리를	-10.3353
▁상주	-10.3354
▁로봇	-10.3358
▁전화	-10.3359
▁참가했다	-10.3369
▁이전에는	-10.3381
▁데이비드	-10.3382
▁듣고	-10.3382
▁1942	-10.3384
▁늘	-10.3385
▁1951	-10.3386
▁협정	-10.3386
▁사무실	-10.3386
쌍	-10.3386
공학	-10.3387
동안	-10.3388
06	-10.3389
▁한자	-10.3389
▁프로그램을	-10.339
▁갖추고	-10.3391
▁우수	-10.3394
▁병합	-10.3396
▁이루고	-10.3398
량이	-10.3401
▁세르비아	-10.3402
ac	-10.3402
▁속한	-10.3403
▁웨스트	-10.3404
▁미국과	-10.3404
▁사항	-10.3407
▁예산	-10.3407
▁활발	-10.3407
▁로켓	-10.3411
▁재료	-10.3412
▁넓이는	-10.3416
▁주고	-10.3417
▁보조	-10.342
▁중화	-10.3423
특	-10.3424
▁연결하는	-10.3426
▁의학	-10.3427
▁일본인	-10.3429
▁왕위	-10.3431
법에	-10.3435
▁베를린	-10.3439
▁하위	-10.3439
原	-10.344
▁훗날	-10.3441
記	-10.3441
▁인천광역시	-10.3441
▁침입	-10.3442
▁없으며	-10.3442
▁아이돌	-10.3443
▁실수	-10.3447
▁개설	-10.3449
▁내용은	-10.345
세와	-10.345
▁물체	-10.3451
▁주민	-10.3454
▁제공하는	-10.3456
바로	-10.3457
서는	-10.3458
▁카라	-10.3459
▁순간	-10.3459
▁사제	-10.346
군과	-10.346
▁로드	-10.3461
▁되며	-10.3463
▁뿌리	-10.3465
▁재학	-10.3466
(17	-10.3467
▁하였으며	-10.3473
▁곤	-10.3475
▁벤	-10.3479
하므로	-10.348
왕후	-10.3481
과정	-10.3482
▁아침	-10.3489
▁에어	-10.3492
.”	-10.3495
▁St	-10.3497
▁명확	-10.3498
▁임진왜란	-10.35
永	-10.35
▁어린이	-10.3501
▁않으며	-10.3501
▁못하였다	-10.3504
and	-10.3504
▁분야에서	-10.3506
▁근처에	-10.3507
▁부친	-10.3508
92	-10.3508
(14	-10.351
▁가로	-10.3517
굴	-10.3521
시로	-10.3522
▁선정되었다	-10.3524
적이고	-10.3527
▁층	-10.3528
▁처벌	-10.3529
▁38	-10.3538
▁놓	-10.3538
▁아파트	-10.3547
만으로	-10.3554
▁앞에서	-10.3555
5%	-10.3555
忠	-10.356
▁나들목	-10.356
▁열대	-10.356
니스	-10.3561
▁남겼다	-10.3561
▁싸우	-10.3562
ter	-10.3563
▁대략	-10.3563
▁화물	-10.3571
코프	-10.3576
▁값	-10.3576
▁서식지	-10.3578
▁명단	-10.3579
▁아랍	-10.3581
미터	-10.3585
▁인용	-10.3586
되던	-10.359
▁기체	-10.3593
▁인권	-10.3594
▁왕실	-10.3595
▁청년	-10.3595
병원	-10.3596
▁신체	-10.3603
렬	-10.3605
▁유사	-10.3609
▁태조	-10.3612
회를	-10.3613
밍	-10.362
▁항의	-10.362
府	-10.362
▁말레이시아	-10.3621
▁어깨	-10.3621
▁직업	-10.3625
▁왕자	-10.3626
▁멀리	-10.3627
-4	-10.3629
▁하나인	-10.3629
▁부근	-10.363
▁추천	-10.3635
연맹	-10.3636
▁이로써	-10.3636
院	-10.3644
▁루이스	-10.3646
▁트	-10.3651
지가	-10.3652
▁대부분이	-10.3652
부분	-10.3658
ph	-10.3659
당시	-10.366
▁장르	-10.3668
52	-10.3672
▁보여	-10.3674
▁성공적	-10.3674
▁망명	-10.3679
▁목소리	-10.368
57	-10.368
里	-10.3681
▁비교	-10.3681
▁흐름	-10.3681
▁장애	-10.3681
▁확정	-10.3687
▁취소	-10.3689
▁사실이	-10.3691
지구	-10.3696
능력	-10.3699
▁1000	-10.3704
▁제공한다	-10.3708
▁가치가	-10.3712
▁구원	-10.3719
▁곳이다	-10.3721
▁주연으로	-10.3723
▁세계적으로	-10.3727
연합	-10.3729
▁자금	-10.3729
▁논쟁	-10.373
행정	-10.3731
부의	-10.3732
▁계통	-10.3739
門	-10.3742
▁경제적	-10.3743
▁1934	-10.3745
▁저술	-10.3748
▁의장	-10.3749
▁재배	-10.3751
▁금메달을	-10.3751
▁개봉	-10.3753
82	-10.3758
▁되자	-10.3759
스카	-10.3761
01	-10.3761
▁상태로	-10.3766
대사	-10.3767
ex	-10.3767
▁초등학교	-10.3767
▁축제	-10.3769
마르	-10.377
당했다	-10.3772
머리	-10.3772
▁계기	-10.3774
▁플라	-10.3774
▁변경되었다	-10.3777
▁발견되었다	-10.378
▁장착	-10.3782
▁내리	-10.3782
▁본인	-10.3783
▁작품은	-10.3783
▁현지	-10.3786
▁작품으로	-10.3787
카이	-10.3787
▁부르는	-10.3789
▁반영	-10.3792
멸	-10.3795
▁도모	-10.3796
▁사령관	-10.3796
죽	-10.3797
ge	-10.3799
善	-10.3803
▁그래픽	-10.3805
▁폭력	-10.3805
▁분쟁	-10.3806
ton	-10.3807
▁1938	-10.3807
▁이루어졌다	-10.3811
▁소송	-10.3813
박물관	-10.3816
갔다	-10.3816
▁숙종	-10.3817
▁후원	-10.3817
ut	-10.3819
▁인상	-10.382
▁경우는	-10.3821
▁발음	-10.3822
05	-10.3826
▁따로	-10.3827
ent	-10.3827
▁신화	-10.3828
me	-10.3835
▁카메라	-10.3839
▁알리	-10.3842
▁신인	-10.3859
▁쓰고	-10.3867
▁수여	-10.3867
▁감독을	-10.387
▁대한제국	-10.3873
ant	-10.3874
▁석유	-10.3878
몰	-10.3878
되었을	-10.388
트로	-10.388
▁붙	-10.3882
▁업체	-10.3882
▁집안	-10.3885
▁승려	-10.3891
▁노벨	-10.3895
카드	-10.3895
▁좋지	-10.3897
▁없다는	-10.3904
73	-10.3906
000	-10.3908
▁관계가	-10.3919
단의	-10.392
성에	-10.392
▁부르기	-10.3921
▁창작	-10.3922
▁새롭	-10.3923
수로	-10.3926
洞	-10.3927
▁바이에른	-10.3927
鄭	-10.3927
째	-10.3928
데스	-10.3929
▁바이	-10.3929
컬	-10.3932
▁학살	-10.3932
▁이르렀다	-10.3932
▁가게	-10.3932
02	-10.3932
▁1914	-10.3933
▁점점	-10.3935
낭	-10.3937
58	-10.3938
▁선출되었다	-10.3941
4%	-10.3942
▁그들이	-10.3943
▁for	-10.3944
▁제출	-10.3946
▁문화재	-10.3946
▁구별	-10.3947
▁전신	-10.395
대상	-10.3955
▁수준	-10.3956
▁전선	-10.3959
낸	-10.3964
au	-10.3967
▁합성	-10.3968
▁조카	-10.3973
▁함대	-10.3973
▁완료	-10.3975
▁목사	-10.3976
▁바르	-10.3979
▁마이	-10.3979
▁만다	-10.3982
▁활	-10.3982
▁다다	-10.3984
▁내용이	-10.3985
▁찰스	-10.3989
性	-10.399
小	-10.399
朴	-10.399
▁매장	-10.3991
▁피아노	-10.3992
81	-10.3996
▁역사를	-10.3996
▁기법	-10.3997
ti	-10.3997
▁대통령이	-10.3997
받은	-10.4
▁건조	-10.4001
▁이벤트	-10.4002
핵	-10.4003
본부	-10.4009
▁시내	-10.4009
▁주연	-10.4011
▁강의	-10.4022
▁나누어	-10.4026
71	-10.4028
▁승진	-10.4032
▁혜	-10.4033
▁근거	-10.4034
sh	-10.4041
룸	-10.4052
▁엄청난	-10.4053
▁1933	-10.4056
▁사퇴	-10.4056
조사	-10.406
▁종이	-10.4062
▁상대식	-10.4063
▁소비	-10.4064
▁방면	-10.4069
드는	-10.4071
▁베이	-10.4071
▁이로	-10.4074
계약	-10.4075
▁홍보	-10.4078
-20	-10.4083
펜	-10.4087
▁놓고	-10.4091
▁의지	-10.4096
▁탈락	-10.4099
트리	-10.4107
토스	-10.4108
ry	-10.411
요시	-10.4111
공업	-10.4113
▁지방의	-10.4114
▁프랑스군	-10.4115
趙	-10.4116
▁그렇게	-10.4116
▁높다	-10.4116
中學校	-10.4116
▁페르시아	-10.4116
▁어려운	-10.4116
▁안동	-10.4118
▁조지아	-10.4119
라면	-10.4121
▁유일하게	-10.4122
▁주둔	-10.4122
▁올림픽에	-10.4125
▁십자군	-10.4126
▁수단	-10.413
중에	-10.4131
▁여부	-10.4131
▁쓸	-10.4131
▁방해	-10.4132
▁불만	-10.4135
ap	-10.4137
종의	-10.4141
▁기록이	-10.4142
▁받았으며	-10.4144
등의	-10.4147
▁특징이다	-10.4148
▁전설	-10.4154
▁임금	-10.4155
▁자리에	-10.416
▁만들고	-10.4165
42	-10.4166
또는	-10.4167
치고	-10.4168
▁대화	-10.4171
에선	-10.4172
베이	-10.4178
都	-10.4179
▁조선총독부	-10.418
▁초반	-10.418
▁창당	-10.4183
▁비롯하여	-10.4184
▁만들어졌다	-10.4185
▁진보	-10.4186
▁해도	-10.4187
욕	-10.4187
▁크다	-10.4191
모토	-10.4192
롤	-10.4195
시스	-10.4195
▁운영하고	-10.4196
▁중인	-10.4196
▁않게	-10.42
▁중에는	-10.4201
03	-10.4202
▁나온다	-10.421
세력	-10.4214
▁천체	-10.4215
▁연간	-10.4216
브라	-10.4219
▁영지	-10.4221
▁제작에	-10.4222
▁날개	-10.4224
▁곳으로	-10.4225
▁주력	-10.4226
▁허가	-10.4227
▁임대	-10.423
▁마련	-10.423
촉	-10.4235
재위	-10.4235
원은	-10.4235
ay	-10.4236
▁되	-10.4237
▁대체로	-10.4238
▁Me	-10.4239
▁힐	-10.4243
林	-10.4244
▁맡은	-10.4244
▁화가	-10.4245
▁1937	-10.4247
▁당초	-10.4249
▁1918	-10.4251
▁주변에	-10.4252
▁니시	-10.4256
▁양쪽	-10.4259
잠	-10.4264
▁않기	-10.4267
▁마쓰	-10.4272
▁대장	-10.4273
▁지역으로	-10.4279
어를	-10.4281
세로	-10.4282
▁여왕	-10.4287
틱	-10.429
▁몰	-10.4291
▁교육을	-10.4292
▁황금	-10.4298
값	-10.43
프로	-10.4301
▁수소	-10.4302
▁아카데미	-10.431
▁관료	-10.4311
▁라이	-10.4312
▁인물로	-10.4312
▁사냥	-10.4312
▁오른	-10.4314
비트	-10.4321
▁검은	-10.4327
시오	-10.4328
부는	-10.4331
▁DNA	-10.4332
▁산하	-10.4333
▁실력	-10.4336
j	-10.4339
▁유래	-10.4341
▁장수	-10.4347
▁관직	-10.4348
왕의	-10.4348
▁원작	-10.4349
200	-10.435
▁모드	-10.4351
▁천주교	-10.4357
▁경우에	-10.4359
▁만족	-10.4365
▁미래	-10.4367
성의	-10.4369
▁지어	-10.4369
▁플레이오프	-10.437
▁들고	-10.4371
사이	-10.4373
五	-10.4373
▁확립	-10.4373
▁접촉	-10.4374
▁내렸다	-10.4379
▁공헌	-10.4379
▁프로그래밍	-10.4383
▁이른다	-10.4385
게임	-10.4391
▁감독이	-10.4391
꽃	-10.4392
▁동방	-10.4393
〉,	-10.4395
▁e	-10.4398
로운	-10.44
▁일어나는	-10.4405
▁폭탄	-10.4405
▁낭	-10.4406
▁만들기	-10.4408
▁이전의	-10.441
▁포함하고	-10.4411
▁성분	-10.4415
▁나타나	-10.4417
▁태도	-10.4419
▁인공	-10.442
라스	-10.443
▁재건	-10.443
ni	-10.443
▁중반	-10.4434
장에서	-10.4438
▁넣어	-10.4439
理	-10.4439
▁벨	-10.4439
▁끝내	-10.4441
▁1928	-10.4443
▁사망한	-10.4445
마이	-10.4446
▁홋카이도	-10.4446
▁이혼	-10.4448
▁재임	-10.4449
▁1910	-10.4449
▁명성	-10.445
▁출마	-10.4451
▁지니고	-10.4452
만명	-10.4453
▁실현	-10.4459
▁등급	-10.446
▁보관	-10.446
▁결승전	-10.4463
자들	-10.4466
▁도시이다	-10.4472
▁역은	-10.4473
▁칭	-10.4476
▁주전	-10.4478
▁광장	-10.4482
▁인종	-10.4483
▁파악	-10.4484
조의	-10.4486
티스	-10.4489
79	-10.449
▁터미널	-10.4491
▁동경	-10.4498
▁Q	-10.4499
ci	-10.4501
ell	-10.4501
▁습격	-10.4504
▁침략	-10.4504
▁루마니아	-10.4505
▁공산주의	-10.4505
▁워싱턴	-10.4505
▁토론토	-10.4507
_7	-10.4508
혁명	-10.4508
▁베스트	-10.4508
▁학위를	-10.4511
▁차별	-10.4515
대한	-10.4517
했었다	-10.4517
▁주택	-10.4518
▁곽	-10.4522
▁차지하고	-10.4526
▁통산	-10.4526
원의	-10.4531
▁음악을	-10.4533
스코	-10.4535
▁내의	-10.4537
▁있었다고	-10.4539
▁숨	-10.454
▁보기	-10.4543
▁전통적	-10.4543
▁운동을	-10.4545
▁제대	-10.4546
▁심판	-10.455
▁조절	-10.4569
▁폐쇄	-10.4571
▁상태에서	-10.4575
▁나타낸다	-10.4576
▁서울대학교	-10.4579
Ch	-10.4585
▁발간	-10.4587
▁결론	-10.4589
▁유형	-10.4599
▁모형	-10.46
▁혐의로	-10.4601
▁논리	-10.4602
▁제외	-10.4603
▁총선	-10.4605
▁대회에	-10.4606
▁센	-10.4611
시험	-10.4611
▁방송국	-10.4611
▁위반	-10.4614
▁발언	-10.4619
▁개발한	-10.4629
▁갈색	-10.4631
民	-10.4637
▁급격	-10.4639
▁카르	-10.4639
▁칠레	-10.4643
▁화려	-10.4645
▁기도	-10.4647
▁연설	-10.4649
▁꿈	-10.465
▁De	-10.4656
둔	-10.4656
▁비중	-10.4665
▁메인	-10.4666
▁유적	-10.4668
뿐	-10.467
▁디스크	-10.4674
▁공중	-10.4676
▁설득	-10.4677
▁전직	-10.4679
62	-10.4682
받아	-10.4683
▁빅	-10.4684
▁진행되었다	-10.4685
▁서서	-10.4685
▁세대	-10.4691
부에	-10.4694
▁목록이다	-10.4699
▁극장	-10.47
릿	-10.4703
敎	-10.4704
八	-10.4704
▁인터페이스	-10.4704
聖	-10.4704
▁상황에서	-10.4705
om	-10.4707
all	-10.4713
▁복무	-10.4713
▁부부	-10.4714
▁성능	-10.4715
▁흑인	-10.4716
루스	-10.472
▁사운드	-10.472
▁구매	-10.4727
▁대비	-10.4727
물이	-10.4732
▁라틴어	-10.4733
▁캠퍼스	-10.4733
▁발생하는	-10.4738
▁본부	-10.4738
▁아들인	-10.4751
▁결승전에서	-10.4752
▁개신교	-10.4759
로프	-10.4762
에서만	-10.4768
▁국가들	-10.477
배우	-10.4771
학회	-10.4771
尹	-10.4772
▁여섯	-10.4772
첩	-10.4776
군으로	-10.4777
▁폴리	-10.4778
▁중기	-10.4779
▁방언	-10.4779
▁37	-10.4782
~19	-10.4782
▁한글	-10.479
▁한계	-10.4791
함과	-10.4792
end	-10.4796
▁강조	-10.4812
▁사무	-10.4814
▁가설	-10.4818
74	-10.4819
▁핀	-10.4825
▁열차가	-10.4826
▁메이지	-10.4829
법이	-10.4839
▁출력	-10.4839
▁히틀러	-10.484
▁거듭	-10.484
됨	-10.4841
권의	-10.4842
▁들어갔다	-10.4842
▁다르게	-10.4844
▁상대적으로	-10.4849
무라	-10.485
▁스탈린	-10.4854
▁보유하고	-10.4854
▁DVD	-10.4855
▁올려	-10.4855
▁경로	-10.4855
▁중요	-10.4856
▁사용된	-10.4857
▁소속으로	-10.4858
전쟁	-10.4868
▁위원장	-10.487
▁대한민국에서	-10.4872
사키	-10.4873
▁행렬	-10.4873
da	-10.4875
▁기록하며	-10.4881
▁책임을	-10.4899
▁바둑	-10.4903
▁대표로	-10.4904
▁프리드리히	-10.4908
▁어려움	-10.4909
▁여겨진다	-10.4909
▁이끌었다	-10.491
▁패션	-10.491
▁걸친	-10.4913
▁논문	-10.4915
▁델	-10.4917
▁말에	-10.4918
부르크	-10.4919
휴	-10.4924
▁참조	-10.4926
▁요코하마	-10.4926
▁섬식	-10.4938
▁보물	-10.4941
▁촉	-10.4941
등이	-10.4947
교통	-10.4948
자인	-10.4948
op	-10.4951
▁인디언	-10.4957
ow	-10.4958
▁신청	-10.4958
박쥐	-10.4961
▁확률	-10.4964
▁시절에	-10.4966
▁군단	-10.4969
쇄	-10.497
혹	-10.4973
확	-10.4975
▁짐	-10.4976
▁뛰고	-10.4977
▁갑자기	-10.4978
▁초점	-10.4978
▁로스앤젤레스	-10.4982
▁싸움	-10.4985
▁절반	-10.4985
라인	-10.4991
당한	-10.4991
렉	-10.4992
밖에	-10.4996
개가	-10.4998
▁그리하여	-10.4999
▁비상	-10.5001
▁점수	-10.5001
▁단순한	-10.5004
휘	-10.5004
▁입력	-10.5012
디스	-10.5012
▁헤이	-10.5014
▁묵	-10.5019
국제	-10.502
▁그곳에서	-10.5021
▁지형	-10.5024
▁후보로	-10.5025
녕	-10.5032
▁평등	-10.5033
▁이루는	-10.5035
▁재개	-10.5039
慶	-10.5046
▁저녁	-10.5047
▁알고리즘	-10.5047
▁벌어진	-10.5047
▁앞으로	-10.505
▁1906	-10.505
칙	-10.505
▁주소	-10.505
▁1923	-10.5052
▁1921	-10.5052
▁사용하였다	-10.5054
▁연락	-10.5056
▁조작	-10.5056
▁진격	-10.5056
넬	-10.5058
▁간단	-10.506
▁존재하지	-10.5062
장의	-10.5063
▁덴	-10.5064
▁데이	-10.5064
▁학자	-10.5065
▁대선	-10.5067
▁레드	-10.5068
방식	-10.5075
하다고	-10.5078
▁매일	-10.5078
▁복수	-10.5081
▁변형	-10.5087
▁선전	-10.5087
▁맛	-10.5088
▁화재	-10.509
심각한	-10.5091
원으로	-10.5096
▁기록되어	-10.5097
▁분해	-10.5099
▁지구의	-10.5103
▁서명	-10.5108
▁정수	-10.5109
▁소멸	-10.5111
▁소련군	-10.5115
知	-10.5117
定	-10.5117
스를	-10.5118
석을	-10.5121
▁보여준다	-10.5122
▁궁	-10.5123
▁보이지	-10.5127
기지	-10.5132
▁단백질	-10.5135
▁병사	-10.5139
펠	-10.514
▁임신	-10.5148
▁세이	-10.5149
’(	-10.5153
▁음성	-10.5157
▁동양	-10.5159
▁부임	-10.5163
▁일부를	-10.5165
케이	-10.5168
▁방법은	-10.5169
▁바이러스	-10.517
럼	-10.5175
▁기둥	-10.5177
▁요인	-10.518
▁장교	-10.518
▁다소	-10.5184
▁도쿄도	-10.5185
필드	-10.5185
本	-10.5187
▁뮌헨	-10.5187
面	-10.5187
▁티베트	-10.5187
▁않지만	-10.5188
▁1931	-10.5191
▁1935	-10.5192
▁히로	-10.5193
▁아우	-10.5194
▁나타나는	-10.5196
제국	-10.5197
▁일어났다	-10.5202
▁1900	-10.5203
▁쿠데타	-10.5204
▁사막	-10.5206
▁나뉘어	-10.5206
▁열리는	-10.5206
▁왕비	-10.5207
▁이민	-10.5211
라도	-10.5217
▁떠	-10.5217
▁통계	-10.5218
다른	-10.5224
사령부	-10.5229
▁농민	-10.523
▁컵	-10.5233
선은	-10.5239
▁제일	-10.5242
est	-10.5245
▁모음	-10.5248
▁데에	-10.5251
▁혼인	-10.5251
▁사임	-10.5255
▁못하는	-10.5255
▁김구	-10.5255
韓	-10.5256
였지만	-10.5257
▁있으므로	-10.5258
▁불가리아	-10.5259
▁심지어	-10.5259
▁현역	-10.5259
▁물리학	-10.526
▁올해	-10.5263
▁애플	-10.5264
▁사용했다	-10.5266
▁아라	-10.5266
멜	-10.5266
▁문명	-10.5268
▁나아가	-10.5269
▁관광	-10.527
▁아름다운	-10.5273
▁연산	-10.5274
▁나고야	-10.5274
라며	-10.5275
▁성향	-10.5277
AT	-10.528
마루	-10.528
▁대공	-10.5281
▁집행	-10.5285
▁칭호	-10.5285
▁파크	-10.5287
▁노부	-10.5291
▁소집	-10.5292
▁대통령은	-10.5294
▁죽음	-10.5294
ment	-10.5299
▁아이들	-10.5299
▁전작	-10.5301
500	-10.5301
▁보유	-10.5301
접한다	-10.5302
▁오류	-10.5302
▁자녀	-10.5303
▁활약을	-10.5307
계획	-10.5308
▁42	-10.5312
▁노출	-10.5315
디아	-10.5316
검사	-10.5322
냥	-10.5325
江	-10.5329
▁떠났다	-10.533
▁아동	-10.533
▁김일성	-10.5331
점이	-10.5331
▁신분	-10.5333
▁각국	-10.5334
▁라이트	-10.5337
▁34	-10.5342
▁부담	-10.5342
인조	-10.5342
▁돌아와	-10.5343
▁이라크	-10.5344
▁타율	-10.5345
옹	-10.5346
▁헬	-10.5346
▁절차	-10.5353
▁인구가	-10.5355
▁역에서	-10.5357
▁문헌	-10.5357
▁궁전	-10.5359
잡	-10.5362
▁기본적으로	-10.5363
납	-10.5368
공화국	-10.5372
▁동일	-10.5377
▁개체	-10.5379
▁포함된다	-10.5381
▁벗어나	-10.5384
▁주장한다	-10.5385
체계	-10.5386
▁바위	-10.5387
▁강력	-10.539
ue	-10.5392
▁자본	-10.5393
▁상원	-10.5394
▁당선	-10.5395
소를	-10.5395
▁공업	-10.5396
부가	-10.5399
▁점이	-10.5399
▁주식회사	-10.54
▁얻을	-10.5401
昌	-10.5401
▁세인트	-10.5402
▁말하는	-10.5402
▁유럽의	-10.5402
▁면적	-10.5404
▁잭슨	-10.5404
▁산성	-10.5405
▁임기	-10.5407
단을	-10.5409
▁보병	-10.541
91	-10.5416
▁주석	-10.5419
시티	-10.5426
_9	-10.5427
ill	-10.5428
▁속의	-10.5435
장군	-10.5439
▁미국인	-10.5441
▁전한	-10.5443
켄	-10.5445
▁즉시	-10.5449
▁사마	-10.5469
미국	-10.5472
▁의문	-10.5473
논	-10.5474
▁완벽	-10.5475
▁불렸다	-10.5478
▁명나라	-10.548
▁메모리	-10.548
▁보았다	-10.548
78	-10.5487
▁선박	-10.5489
▁앙	-10.549
▁참전	-10.5494
지대	-10.5495
▁마감	-10.5496
▁뮤지컬	-10.5496
서원	-10.5502
▁저지	-10.5522
▁좁은	-10.5522
▁갖는다	-10.5523
▁생존	-10.5523
bo	-10.5525
2%	-10.5527
장치	-10.5529
▁수상하였다	-10.5529
▁추기경	-10.5531
일간	-10.5533
▁확산	-10.5533
전자	-10.5535
▁눈에	-10.5544
▁위에서	-10.5545
▁역으로	-10.5546
化	-10.5546
所	-10.5547
▁모바일	-10.5547
▁브라운	-10.5549
학원	-10.555
▁1905	-10.555
|	-10.5552
ong	-10.5553
졌고	-10.5555
▁무료	-10.5555
▁설치류	-10.5555
▁승객	-10.5555
▁그때	-10.5556
▁서독	-10.5558
대장	-10.5558
son	-10.5559
▁커버	-10.5559
▁39	-10.5561
▁전쟁에서	-10.5564
퇴	-10.5564
▁악기	-10.5566
▁등판	-10.5573
▁킹	-10.5577
▁누구	-10.5578
▁아래에	-10.558
▁한정	-10.558
▁연결되어	-10.5584
제로	-10.5587
▁주어	-10.5589
▁움직임	-10.5589
▁상당한	-10.559
▁장악	-10.5593
▁+	-10.5601
▁후속	-10.5603
동맹	-10.5603
▁교구	-10.5604
▁상위	-10.5607
▁의도	-10.5614
▁흘러	-10.562
렛	-10.562
張	-10.5621
▁탄핵	-10.5621
▁남아프리카	-10.5621
%	-10.5622
구역	-10.5628
▁경남	-10.5628
▁망원경	-10.5632
▁관여	-10.5633
▁이웃	-10.5636
▁고양이	-10.5637
pe	-10.5641
▁리더	-10.5641
▁프로이센	-10.5642
▁칼리지	-10.5645
ca	-10.5645
습니다	-10.5649
▁SS	-10.5652
▁차단	-10.5653
▁원수	-10.5657
▁들면	-10.5664
▁선포	-10.5664
▁에스	-10.5665
▁완전한	-10.5665
▁단편	-10.5666
낼	-10.5667
▁불리	-10.5667
▁포함하여	-10.5669
▁대량	-10.5669
▁몽	-10.567
▁별명	-10.5676
대표	-10.5677
▁세부	-10.5679
▁꾸	-10.568
▁않으면	-10.5684
▁대상이	-10.5686
▁장남	-10.5688
▁지점	-10.5691
▁손실	-10.5691
해졌다	-10.5693
▁베네치아	-10.5695
▁덕분에	-10.5696
▁밝혀졌다	-10.5698
▁1907	-10.5699
해진	-10.5699
▁단순히	-10.57
▁허락	-10.57
ho	-10.5704
▁메리	-10.5705
▁중력	-10.5705
–	-10.5706
▁의혹	-10.5706
▁명단에	-10.5707
▁공무원	-10.5707
▁포함하는	-10.571
▁당대	-10.571
▁여러가지	-10.5715
▁추가로	-10.5716
▁퇴	-10.5716
데이	-10.5717
▁전쟁에	-10.572
▁자격	-10.5721
▁페이지	-10.5721
▁하에	-10.5723
▁복잡한	-10.5724
▁방정식	-10.5729
der	-10.573
▁재위	-10.573
▁가리	-10.5734
▁팬들	-10.5735
▁출신이다	-10.5735
▁발명	-10.5735
com	-10.5737
형을	-10.5738
vi	-10.5741
▁비트	-10.5743
▁가야	-10.5744
‘	-10.5747
▁공화국의	-10.5747
▁권위	-10.575
▁법안	-10.5753
▁본다	-10.5761
▁영국에서	-10.5762
바라	-10.5766
▁깊이	-10.5769
▁꾸준	-10.5771
▁1927	-10.5774
▁십	-10.5776
▁계속해서	-10.5779
식이	-10.5781
▁잇	-10.5784
▁정교회	-10.5784
hi	-10.5792
▁특별히	-10.5795
▁오직	-10.5795
활	-10.5797
정도	-10.5801
▁돈을	-10.5802
▁원시	-10.5802
하여야	-10.5805
▁미니	-10.5806
▁학술	-10.5807
▁입장을	-10.5807
법은	-10.5808
▁업적	-10.5809
▁복합	-10.5811
▁물을	-10.5811
▁잡아	-10.5814
▁구성원	-10.5814
층에	-10.582
▁단선	-10.582
얀	-10.5821
▁아마	-10.5825
▁유물	-10.5827
선거	-10.5833
▁도구	-10.5838
ha	-10.5841
▁받아들여	-10.5843
장에	-10.5845
▁속해	-10.5845
MA	-10.5846
어는	-10.5849
▁1929	-10.5849
▁콩	-10.585
사에서	-10.5854
si	-10.5855
동물	-10.5856
▁인원	-10.5856
1922	-10.5858
▁아카	-10.5859
▁출	-10.5862
화학	-10.5864
▁줄여	-10.5864
체를	-10.5873
8%	-10.5874
▁법정	-10.5878
▁써	-10.5878
▁녹색	-10.588
▁전송	-10.5882
되는데	-10.5886
테스	-10.5886
▁만든다	-10.5887
▁부지	-10.5888
발전	-10.589
▁태종	-10.589
에만	-10.5895
민족	-10.5895
시스템	-10.59
고속도로	-10.5901
하이	-10.5902
ru	-10.5906
▁기소	-10.591
▁함락	-10.5912
▁일어난다	-10.5914
▁원인이	-10.5916
▁시카고	-10.592
▁그려져	-10.5921
▁다양	-10.5923
▁올라가	-10.5923
으로도	-10.5926
▁철거	-10.5927
▁훈	-10.5928
▁포트	-10.5932
▁가시	-10.5933
▁자극	-10.5935
▁보고서	-10.5937
▁진영	-10.5939
▁불가능	-10.594
▁지불	-10.5943
에서부터	-10.5943
▁선로	-10.5946
▁본격적으로	-10.5946
▁정식으로	-10.5951
▁주재	-10.5952
▁상실	-10.5954
MS	-10.5955
▁강요	-10.5957
▁후에도	-10.5958
▁군수	-10.5966
▁김영	-10.5967
▁바람	-10.597
괴	-10.597
▁덜	-10.597
▁In	-10.5972
▁중구	-10.5977
▁메시지	-10.5977
소설	-10.5979
▁다니	-10.5979
대에	-10.5981
▁놀	-10.5982
▁전술	-10.5985
▁포인트	-10.5987
주에	-10.5987
중앙	-10.5989
▁전투기	-10.5989
▁담고	-10.599
▁전원	-10.5991
스턴	-10.5994
▁암컷	-10.5997
▁AFC	-10.5999
치를	-10.6004
므로	-10.6004
▁대칭	-10.6005
▁뉴질랜드	-10.6005
▁1912	-10.6006
▁d	-10.6007
▁호주	-10.6008
▁노선을	-10.601
▁말이	-10.601
▁인생	-10.6012
▁작동	-10.6013
▁사랑을	-10.6017
▁희망	-10.6019
▁판사	-10.6019
="	-10.602
▁가난	-10.6021
age	-10.6024
▁오토	-10.6026
▁기호	-10.6032
철도	-10.6032
▁입고	-10.6037
AR	-10.6038
1%	-10.6039
수록	-10.6039
▁편찬	-10.6043
▁한반도	-10.6047
▁많아	-10.6051
으면서	-10.6053
▁조선의	-10.6054
▁주위	-10.6055
▁세조	-10.6057
▁g	-10.6058
▁업	-10.606
프라	-10.6061
▁자세	-10.6062
▁그것이	-10.6063
▁척	-10.6069
▁화석	-10.6069
▁크로	-10.607
▁직원	-10.607
▁나타났다	-10.6073
▁리처드	-10.6073
들에서	-10.6075
▁이용할	-10.6076
▁게다가	-10.6077
조차	-10.6077
▁1908	-10.6078
▁히로시마	-10.6084
▁독자적	-10.6085
▁이외에	-10.6087
▁압력	-10.6089
▁농장	-10.6094
▁유력	-10.6095
士	-10.6097
비를	-10.6098
▁탐사	-10.6099
▁집권	-10.61
모리	-10.6103
▁되는데	-10.6115
OS	-10.6117
▁배열	-10.612
분의	-10.6121
▁부분을	-10.6124
간다	-10.6124
계에	-10.6124
▁대대	-10.6126
▁참가하였다	-10.6127
략	-10.6128
▁무관	-10.613
듯	-10.6136
보호	-10.614
▁t	-10.6142
▁악화	-10.6143
▁내셔널	-10.6148
▁강도	-10.6149
▁통상	-10.615
之	-10.6151
▁그렇다면	-10.6151
▁느낌	-10.6151
▁남아메리카	-10.6151
▁알바니아	-10.6151
▁언덕	-10.6153
▁형식으로	-10.6155
▁보험	-10.6168
▁손을	-10.6173
▁일본에	-10.6175
권이	-10.6177
pa	-10.6177
▁겐	-10.6183
▁너	-10.6184
▁작품들	-10.6186
▁부분이	-10.6187
▁간행	-10.6195
지마	-10.6196
량을	-10.6199
▁생긴	-10.6203
▁시사	-10.6205
▁블루	-10.6205
▁영구	-10.621
▁공통	-10.6214
ga	-10.6217
오리	-10.6218
드라마	-10.6219
▁가수이다	-10.6228
▁싱가포르	-10.6229
▁자이언츠	-10.6229
▁빌보드	-10.6229
▁엄격	-10.6231
▁동해	-10.6231
▁48	-10.6231
이었지만	-10.6233
▁명명	-10.6233
▁없게	-10.6238
되어야	-10.6242
▁구입	-10.6247
▁되기도	-10.6249
▁실천	-10.6251
▁후인	-10.6251
▁혼합	-10.6253
둥	-10.6256
종이	-10.6257
▁물고기	-10.6257
▁국가에서	-10.6261
씨는	-10.6267
▁해양	-10.6269
▁한국인	-10.6271
ian	-10.6272
관을	-10.6272
▁연구에	-10.6272
▁조상	-10.6274
이드	-10.6275
▁적도	-10.6276
83	-10.6278
▁미리	-10.6278
▁유럽에서	-10.6281
느	-10.6283
▁지지를	-10.6285
윈	-10.6286
▁감시	-10.6286
▁언	-10.6286
▁신부	-10.6286
여자	-10.6287
▁비행기	-10.6288
▁동기	-10.6294
io	-10.6295
▁식품	-10.6295
감독	-10.6304
▁페르	-10.6306
使	-10.6307
▁정확히	-10.6308
佛	-10.6308
星	-10.6308
、	-10.6308
▁화성	-10.6308
▁머물	-10.6309
TS	-10.6309
짐	-10.6311
▁1926	-10.6313
▁축소	-10.632
▁자치구	-10.6322
바이	-10.6328
제의	-10.6329
▁전역	-10.6335
▁쓰기	-10.6338
▁최근에는	-10.6338
▁전북	-10.6339
▁항해	-10.6341
▁테스트	-10.6342
▁사건은	-10.6346
▁개성	-10.6349
천군	-10.6351
▁55	-10.6351
▁병사들	-10.6352
▁사양	-10.6354
▁유비	-10.6358
▁케이	-10.6366
▁?)	-10.6366
▁단종	-10.6367
행동	-10.6369
컨	-10.6371
▁본선에	-10.6371
▁선물	-10.6374
▁참고	-10.6382
ud	-10.6382
▁강등	-10.6386
漢	-10.6387
史	-10.6387
侯	-10.6387
堂	-10.6387
▁펼쳤	-10.6387
▁공동체	-10.6388
▁대다수	-10.6388
▁클래식	-10.6388
▁영혼	-10.6391
▁민주주의	-10.6395
▁순환	-10.6397
)>	-10.6397
▁탄소	-10.6399
▁구성하는	-10.6405
▁연고	-10.641
▁품	-10.6415
▁가져	-10.6417
▁서기	-10.6419
▁내전	-10.642
▁때문	-10.6427
궤	-10.643
ab	-10.6434
▁소비자	-10.6443
we	-10.6443
▁소화	-10.6444
셰	-10.6446
▁먹는	-10.6447
비가	-10.6448
호가	-10.6452
▁현장	-10.6452
하였다고	-10.6453
-5	-10.6458
▁반대하는	-10.6458
이지	-10.6466
宮	-10.6467
古	-10.6467
河	-10.6467
▁촌	-10.6469
▁곤충	-10.6469
▁이른바	-10.6469
▁재능	-10.6471
▁옆에	-10.6471
▁커피	-10.6471
▁삭제	-10.6472
▁이날	-10.6473
▁제자	-10.6474
학적	-10.6475
상과	-10.6478
겠다	-10.6481
았던	-10.6482
▁샤를	-10.6483
▁피부	-10.6483
▁끝나	-10.6484
▁규제	-10.6484
▁만한	-10.6488
▁대우	-10.6489
▁총독	-10.649
▁잭	-10.6491
프레	-10.6492
▁프랑스어	-10.6492
▁민법	-10.6493
▁모임	-10.6495
▁이용하는	-10.6497
차전에서	-10.6498
▁히트	-10.6498
▁사이를	-10.65
▁사정	-10.6503
▁외계	-10.6505
▁h	-10.6506
▁보상	-10.6511
▁펜	-10.6515
소리	-10.6519
데르	-10.6524
▁그리스어	-10.6528
잉	-10.6534
sc	-10.6534
▁존스	-10.6535
삭	-10.6537
대신	-10.6542
▁포함된	-10.6544
▁페이	-10.6545
▁이들이	-10.6548
▁임시정부	-10.6549
▁밀려	-10.6552
년경	-10.6552
▁한나라당	-10.6552
▁회색	-10.6554
대와	-10.6555
베리	-10.6556
되거나	-10.6559
▁얼	-10.6559
▁핫	-10.6563
▁서술	-10.6564
▁빠져	-10.6567
▁달려	-10.6568
▁보여주는	-10.657
▁손상	-10.6576
상에	-10.6578
▁하나가	-10.658
▁사건으로	-10.6585
▁해발	-10.6588
▁경전	-10.659
▁국방부	-10.6592
▁수리	-10.6592
▁단독	-10.6593
중국	-10.6594
▁마법	-10.6595
▁형사	-10.6596
도서관	-10.6601
▁이어져	-10.6605
▁인터뷰에서	-10.6605
▁찬성	-10.6607
▁무사	-10.6609
▁해상	-10.6613
▁붙여	-10.6613
켈	-10.6618
롬	-10.6619
랭	-10.6619
▁혐의	-10.6619
부장	-10.6623
▁구에	-10.6625
our	-10.6626
업체	-10.6627
司	-10.6628
淸	-10.6628
▁탄압	-10.663
▁흰색	-10.6631
▁할아버지	-10.6631
▁참여한	-10.6635
▁1924	-10.6636
▁과학적	-10.6637
▁검토	-10.6638
▁열었다	-10.664
▁많았다	-10.6641
비치	-10.6641
▁직무	-10.6642
▁동명	-10.6643
러스	-10.6644
별로	-10.6645
관이	-10.6648
▁리그에서	-10.6649
St	-10.6651
▁세워진	-10.6651
조는	-10.6653
▁살인	-10.6653
▁깨	-10.6655
리와	-10.6659
▁신뢰	-10.6662
▁설립되었다	-10.6668
▁성씨	-10.6671
▁종교적	-10.6672
▁쥐	-10.6673
동으로	-10.6674
▁구체적	-10.6675
노스	-10.6677
▁백인	-10.6677
▁41	-10.6681
까지는	-10.6689
▁수십	-10.669
▁개명	-10.6693
▁늘어	-10.6699
▁피터	-10.67
▁고속	-10.6701
▁경제학	-10.6709
方	-10.6711
▁맨체스터	-10.6711
▁삽입	-10.6711
四	-10.6711
▁북아메리카	-10.6711
▁산지	-10.6713
▁골든	-10.6715
▁브라	-10.6715
▁일련	-10.6721
▁뒤로	-10.6725
▁코파	-10.6727
리지	-10.673
▁수치	-10.6731
政	-10.6737
▁동작	-10.6738
▁경고	-10.674
▁줄기	-10.6743
룬	-10.6744
▁약칭	-10.6745
▁자라	-10.6746
▁적극	-10.675
▁징	-10.6751
▁다음날	-10.6752
했	-10.6756
▁진학	-10.6757
▁시신	-10.6758
▁주장하는	-10.6759
mo	-10.6762
▁위치에	-10.6765
▁끝으로	-10.6766
▁스카이	-10.6775
▁Le	-10.6776
등을	-10.6778
▁상수	-10.6778
퍼드	-10.6779
▁IC	-10.678
토리	-10.6785
▁소형	-10.6785
ate	-10.6785
으니	-10.6787
▁호소	-10.6793
▁무시	-10.6793
松	-10.6793
▁샌프란시스코	-10.6794
▁트레이드	-10.6794
▁가끔	-10.6795
▁필름	-10.6795
코스	-10.68
▁액체	-10.68
▁초에	-10.6802
기능	-10.6804
▁구글	-10.6805
▁하느님	-10.6809
▁입었다	-10.6811
▁중국에서	-10.6812
▁크리스	-10.6816
▁없	-10.6825
ve	-10.6826
다시	-10.6826
▁의미하는	-10.6832
놓은	-10.6836
▁46	-10.6836
▁레오	-10.6836
▁수도원	-10.6839
▁막기	-10.6842
▁착	-10.6844
▁사촌	-10.6847
▁여객	-10.6851
단이	-10.6851
▁보이고	-10.6851
부터는	-10.6852
▁입법	-10.6853
하에	-10.6853
▁알파	-10.6854
▁전형적	-10.6854
정을	-10.6868
지지	-10.687
체제	-10.687
백만	-10.6873
▁이어서	-10.6876
心	-10.6877
▁무릎	-10.6877
▁옮겼다	-10.6877
페이	-10.6877
▁않았지만	-10.6878
▁알아	-10.6878
▁거둔	-10.6878
넷	-10.6879
▁빅토리아	-10.6879
▁순수	-10.688
▁운항	-10.6882
▁1925	-10.6884
▁사찰	-10.6885
▁1911	-10.6887
▁스승	-10.6901
▁비롯해	-10.6906
▁영향으로	-10.6907
▁타자	-10.691
▁Ro	-10.691
▁못한다	-10.6913
ace	-10.6914
va	-10.6915
어서	-10.6916
률	-10.6919
▁고급	-10.692
▁제외하고	-10.6921
비는	-10.693
드로	-10.693
▁주립	-10.6932
부사	-10.6936
▁급제	-10.6941
▁것들	-10.6946
▁광복	-10.6947
구가	-10.6948
▁상속	-10.6952
▁밝은	-10.6952
리나	-10.6952
버그	-10.6957
됨에	-10.6959
▁맺었다	-10.6961
內	-10.6961
黃	-10.6961
▁연평균	-10.6961
통신	-10.6962
▁가톨릭교회	-10.6962
▁매주	-10.6966
▁유한	-10.6967
▁제사	-10.6971
300	-10.6972
▁유치	-10.6972
▁리눅스	-10.6974
▁토너먼트	-10.6974
▁명칭을	-10.6982
더스	-10.6982
em	-10.6983
개로	-10.6984
렐	-10.6984
▁글로벌	-10.6984
▁사형	-10.6994
▁답	-10.6994
▁기관차	-10.7002
럴	-10.7016
▁총재	-10.7018
▁운영하는	-10.7019
▁증상	-10.7019
▁대법원	-10.702
▁해야	-10.7021
▁경향	-10.7021
▁n	-10.7021
▁지역이	-10.7023
단계	-10.7024
▁귀족들	-10.7025
ep	-10.7029
one	-10.7033
▁뼈	-10.7036
▁지역에서는	-10.7037
▁블	-10.7041
▁항공사	-10.7043
▁사라	-10.7043
驛	-10.7046
寧	-10.7046
렘	-10.7046
禮	-10.7046
▁웹사이트	-10.7046
▁목숨	-10.7046
▁받으며	-10.7048
▁새벽	-10.7049
역으로	-10.705
▁일으켰다	-10.7051
투스	-10.7052
치가	-10.7053
▁베이스	-10.7056
▁석방	-10.7058
▁흐르는	-10.7059
▁파이	-10.7059
▁받았	-10.706
심을	-10.706
ver	-10.7061
▁관련이	-10.7065
이후	-10.7066
▁좋다	-10.707
연구원	-10.7072
건설	-10.7073
▁재단	-10.7077
관으로	-10.7078
▁막대	-10.7079
▁롱	-10.708
끼리	-10.7081
▁휘하	-10.7083
▁글씨	-10.7084
▁진술	-10.7084
▁책임	-10.7094
였는데	-10.7099
▁고지	-10.7099
공간	-10.7102
▁숭	-10.7107
▁나카	-10.7111
▁일부가	-10.7121
Re	-10.7123
▁저자	-10.7123
뜨	-10.713
羅	-10.7131
陵	-10.7131
푼	-10.7131
▁주니어	-10.7132
▁데뷔전	-10.7135
▁정면	-10.7136
학생	-10.7137
▁가득	-10.7138
▁발발	-10.7139
▁총장	-10.714
았으며	-10.714
틸	-10.7144
▁해리	-10.7146
▁이념	-10.7157
▁아들이다	-10.7159
▁국방	-10.7159
▁닥터	-10.7161
졌으며	-10.7163
▁위대한	-10.7163
▁마산	-10.7164
▁매체	-10.7166
학부	-10.7168
▁띠	-10.717
▁성공했다	-10.7173
킬	-10.718
▁이루어진다	-10.7182
▁인지	-10.7183
▁사격	-10.7183
▁밥	-10.7183
gu	-10.7185
맹	-10.7189
▁자국	-10.72
웨	-10.7201
젤	-10.7205
▁독립운동	-10.7207
不	-10.7217
▁끝났다	-10.7217
▁균형	-10.7218
▁터널	-10.7219
▁보스턴	-10.7221
▁유통	-10.7224
▁서일본	-10.7225
▁주식	-10.7227
▁소속의	-10.7227
표를	-10.7228
▁이곳에	-10.723
▁가슴	-10.7236
▁보건	-10.7236
▁계곡	-10.7236
▁입은	-10.7239
▁발표된	-10.724
▁재생	-10.7244
▁심장	-10.7244
▁혁신	-10.7244
▁포함되었다	-10.7251
론을	-10.7252
▁이끌	-10.7255
▁사법	-10.7261
부로	-10.7264
티아	-10.7267
▁졸	-10.727
ers	-10.7272
馬	-10.7273
라이트	-10.7275
▁사용하기	-10.7288
▁잡고	-10.7289
▁개방	-10.7297
경찰	-10.7301
▁Be	-10.7303
主	-10.7303
社	-10.7304
입니다	-10.7305
▁삶을	-10.7305
▁동영상	-10.7305
앤	-10.7307
▁사자	-10.7308
▁선거구	-10.7311
▁You	-10.7317
</	-10.7319
강에	-10.732
▁세우고	-10.732
▁교향곡	-10.7321
▁죽음을	-10.7321
▁윈도	-10.7322
극장	-10.7322
꼬리	-10.7322
▁지었다	-10.7323
오스	-10.7327
▁120	-10.7328
▁당시에	-10.7328
▁땅을	-10.7333
▁중지	-10.7333
▁흰	-10.7337
장과	-10.7337
▁도중에	-10.734
▁분산	-10.7341
ist	-10.7345
▁연계	-10.7348
▁내지	-10.7351
▁쇠	-10.7351
▁청주	-10.7352
▁코스	-10.7353
▁롤	-10.7358
피스	-10.7361
▁소방	-10.7361
▁희생	-10.7362
닉	-10.7362
▁프레	-10.7362
▁유역	-10.7366
▁가담	-10.7366
▁성종	-10.7367
▁달라	-10.7368
▁이종	-10.7371
▁거두	-10.7376
▁시민들	-10.7378
▁없을	-10.738
▁판매량	-10.7382
▁수석	-10.7383
▁격파	-10.7384
중인	-10.7385
쯤	-10.7389
名	-10.7392
樂	-10.7392
論	-10.7392
後	-10.7392
▁지중해	-10.7392
▁이명박	-10.7392
▁대구광역시	-10.7392
▁벼슬	-10.7392
▁프리미어리그	-10.7393
▁디젤	-10.7393
저우	-10.7395
잎	-10.7395
▁관습	-10.7395
▁적응	-10.7396
▁1904	-10.7396
▁사람으로	-10.7397
▁차원	-10.7397
▁차트에서	-10.7398
▁갖게	-10.7399
▁흥미	-10.7403
▁사람들에게	-10.7403
▁이르러	-10.7408
되게	-10.741
▁분노	-10.7413
▁따서	-10.7413
▁파키스탄	-10.7416
▁철저	-10.742
▁개량	-10.7427
▁교차로	-10.7428
▁활성화	-10.7431
국사	-10.7433
▁동서	-10.7435
▁법인	-10.7437
역사	-10.7437
▁소위	-10.7438
▁주요한	-10.7443
ity	-10.7443
▁직전	-10.7444
▁부상으로	-10.7445
쳤다	-10.7448
▁클	-10.7448
▁계층	-10.7448
▁당국	-10.745
▁동치	-10.7453
탐	-10.7455
▁토론	-10.7459
▁제주도	-10.7461
▁르	-10.7465
▁죽고	-10.7466
▁조선인	-10.7466
▁대표하	-10.7469
분야	-10.747
▁사직	-10.747
▁가량	-10.7472
▁시스템을	-10.7473
▁주간	-10.7474
닐	-10.7474
市	-10.748
帝	-10.7481
殿	-10.7481
體	-10.7481
▁동메달	-10.7481
▁비틀즈	-10.7481
孝	-10.7481
信	-10.7481
자이다	-10.7481
ー	-10.7481
▁등장인물	-10.7481
▁대전광역시	-10.7481
▁야기	-10.7481
▁화이트	-10.7482
▁멸종	-10.7483
▁새끼	-10.7483
▁이루	-10.7485
▁무인	-10.7486
구의	-10.7486
▁어렵다	-10.7487
▁진나라	-10.7489
▁크루	-10.749
▁중대	-10.7492
▁방위	-10.7496
▁불화	-10.7498
▁이어지는	-10.7498
▁성을	-10.75
▁체코	-10.7503
▁고속도로	-10.7504
▁액션	-10.7507
▁밑	-10.7514
파의	-10.7517
▁주에	-10.7518
하였기	-10.7521
EC	-10.7522
▁내장	-10.7522
▁메탈	-10.7523
▁1,000	-10.7524
▁거절	-10.7525
▁이외에도	-10.7527
없는	-10.7528
▁옆	-10.753
▁댄스	-10.7531
▁피해자	-10.7533
여명	-10.7537
▁문을	-10.754
▁HD	-10.7543
▁압	-10.7545
▁텍사스	-10.7549
▁그러	-10.755
▁독재	-10.7552
▁스키	-10.7552
▁모델로	-10.7553
▁전문가	-10.7553
▁북쪽에	-10.7556
국이	-10.7556
아르	-10.7557
▁올리	-10.7558
▁사람이다	-10.7558
눈	-10.7561
더라도	-10.7566
有	-10.757
▁안드로이드	-10.757
▁일으켜	-10.757
孫	-10.757
雲	-10.757
洪	-10.757
▁프로세서	-10.757
崔	-10.757
▁김대중	-10.7571
▁압축	-10.7571
▁케이블	-10.7571
▁봉해졌다	-10.7571
▁중동	-10.7572
▁토벌	-10.7574
▁착용	-10.7574
▁크리	-10.7574
SS	-10.7585
▁사기	-10.7587
▁쿠바	-10.759
▁김성	-10.759
▁800	-10.7592
▁말로	-10.7594
▁운동에	-10.7594
▁codi	-10.7599
▁아테네	-10.76
▁대지	-10.7604
▁영주	-10.7605
▁짜	-10.7607
하라고	-10.7609
▁부서	-10.761
▁흉	-10.7612
이라며	-10.7612
▁대동	-10.7612
▁주관	-10.7616
▁고등	-10.7618
▁무력	-10.7619
▁서울시	-10.762
▁La	-10.762
자유	-10.7622
▁이하의	-10.763
집단	-10.7632
▁자식	-10.7633
▁영국과	-10.7636
▁64	-10.7636
▁파티	-10.7636
▁관하여	-10.7637
3%	-10.7638
▁한강	-10.7642
▁개장	-10.7646
군단	-10.765
1917	-10.7651
함수	-10.7651
쾌	-10.7654
▁먼	-10.7654
▁이행	-10.7656
▁주지	-10.7658
찌	-10.7658
▁춤	-10.7658
혔	-10.766
▁맺고	-10.766
▁유고슬라비아	-10.766
劉	-10.766
木	-10.766
▁등장한	-10.766
▁사단법인	-10.766
▁근육	-10.7662
▁드러나	-10.7665
▁검색	-10.7665
낙	-10.7666
▁개입	-10.7666
베르크	-10.7667
금을	-10.7668
밤	-10.7669
겸	-10.7669
▁자전거	-10.7671
▁당했다	-10.7672
오는	-10.7674
▁왕의	-10.7676
▁콜롬비아	-10.7677
▁추방	-10.7683
▁빌딩	-10.7684
▁문제는	-10.7686
▁44	-10.7691
▁수업	-10.7693
시와	-10.7696
▁죽자	-10.7698
것	-10.7701
▁복잡	-10.7701
▁투쟁	-10.7705
▁하원	-10.7708
승을	-10.771
리우스	-10.7712
▁동화	-10.7716
▁하천	-10.7717
▁유인	-10.7718
족의	-10.7718
▁여론	-10.7723
▁나타난	-10.7725
▁만난	-10.7726
속도	-10.7735
▁가나	-10.7736
산성	-10.7743
▁바깥	-10.7746
자원	-10.7747
뇌	-10.7748
(6	-10.7748
集	-10.7751
▁미사	-10.7751
▁기능이	-10.7753
▁킬	-10.7754
▁개찰구	-10.7755
▁정치가	-10.7755
▁틀	-10.7757
▁부탁	-10.7759
6%	-10.776
▁전해진다	-10.776
지방법원	-10.776
우드	-10.776
▁무산	-10.7761
주의적	-10.7762
▁상처	-10.7764
▁소리를	-10.7766
▁테마	-10.777
▁편곡	-10.7775
▁동반	-10.7776
▁인터뷰	-10.7777
▁전체적으로	-10.7778
▁관점	-10.7779
▁파워	-10.7782
네이	-10.7784
▁정조	-10.7785
전문	-10.7785
▁차지하였다	-10.7787
▁타워	-10.7787
▁보이	-10.7788
▁라고	-10.7788
▁소관	-10.7791
▁공룡	-10.7792
▁진동	-10.7793
▁손에	-10.7794
스톤	-10.7795
▁고기	-10.7795
▁거치	-10.7797
대대	-10.7797
▁지향	-10.7798
▁미드필더	-10.7799
▁출전하여	-10.7802
▁결과로	-10.7803
▁전면	-10.7806
선수	-10.7812
tic	-10.7815
▁아니고	-10.7818
스토	-10.7819
▁국기	-10.7821
▁자본주의	-10.7822
▁스미스	-10.7823
▁후퇴	-10.7828
▁Se	-10.7828
▁차체	-10.7834
▁주류	-10.7835
들로부터	-10.7838
▁듀	-10.7839
▁전남	-10.784
▁연습	-10.784
▁쓴다	-10.7841
▁방안	-10.7841
▁OS	-10.7842
첸	-10.7842
▁배경으로	-10.7842
康	-10.7843
▁송시열	-10.7843
的	-10.7843
者	-10.7843
▁이정	-10.7844
였기	-10.7845
▁자유롭게	-10.7845
▁발효	-10.7847
▁생애	-10.7847
먹	-10.7849
▁첫째	-10.7849
▁결심	-10.785
▁동일본	-10.7851
털	-10.7853
뼈	-10.7854
센트	-10.7854
방법	-10.7856
중심	-10.7856
▁육성	-10.7857
▁데뷔했다	-10.7858
▁모습이	-10.7858
모델	-10.7861
▁비서	-10.7863
▁이사장	-10.7868
▁공정	-10.7869
▁부속	-10.7872
▁시내버스	-10.7872
po	-10.7875
스로	-10.7876
▁소설가	-10.7879
▁수밖에	-10.7879
▁소금	-10.788
▁차지한다	-10.788
▁부정적	-10.7881
마을	-10.7883
(13	-10.7888
르트	-10.7891
▁사령부	-10.7892
정신	-10.7892
▁의미로	-10.7902
▁사과	-10.7907
환경	-10.7908
▁신고	-10.7909
▁일으킨	-10.7912
▁발생했다	-10.7913
▁민중	-10.7916
조약	-10.7918
ree	-10.7919
타카	-10.792
▁건축물	-10.7921
려는	-10.7922
▁영감	-10.7923
들어	-10.7923
▁필요성	-10.7924
ind	-10.7925
▁신사	-10.793
▁스티븐	-10.7933
비스	-10.7934
▁영화의	-10.7935
省	-10.7935
▁상호작용	-10.7936
▁대사관	-10.7936
식으로	-10.7939
▁간에	-10.7941
▁수요	-10.7947
▁물건	-10.7947
뒤	-10.7949
▁도심	-10.7949
▁동독	-10.7951
▁출입	-10.7954
받고	-10.7955
▁달하는	-10.7955
▁정체	-10.796
▁수컷	-10.7963
▁민족주의	-10.7964
▁간다	-10.7968
▁국적	-10.7968
▁클래스	-10.797
▁막을	-10.7971
▁시작했고	-10.7971
×	-10.7974
he	-10.7977
▁심각	-10.7984
▁양주	-10.7984
▁포기	-10.7991
▁그리스도	-10.7993
▁와서	-10.7996
▁거리에	-10.7997
▁상황에	-10.7999
컷	-10.8
이라면	-10.8
▁끈	-10.8001
▁단순	-10.8002
▁유효	-10.8004
▁일단	-10.8004
ung	-10.8008
▁세력이	-10.801
주로	-10.8013
▁지원한다	-10.8014
▁인기가	-10.8018
▁주인	-10.8026
▁힙합	-10.8029
▁마쓰다이라	-10.8029
月	-10.8029
е	-10.8029
▁뮤직비디오	-10.8029
▁국립공원	-10.803
▁감사	-10.803
▁화합물	-10.8031
▁잠수함	-10.8032
▁우리나라	-10.8032
▁소득	-10.8033
▁토마스	-10.8033
▁별자리	-10.8034
▁불리며	-10.8034
▁창건	-10.8037
▁연관	-10.8044
묵	-10.8045
▁무한	-10.8045
▁유전	-10.8046
▁차남	-10.8047
들이다	-10.8051
카르	-10.8052
▁봉기	-10.8052
▁미국에	-10.8053
AL	-10.8054
ba	-10.8056
체의	-10.8059
▁정부에	-10.8059
▁합동	-10.806
▁스타디움	-10.8061
▁모르	-10.8061
ris	-10.8066
▁커다	-10.8067
▁왕족	-10.8067
미술	-10.8068
▁건물은	-10.8069
또다른	-10.8069
▁앞면	-10.8071
▁야당	-10.8073
▁지연	-10.808
▁부하	-10.8083
▁일치	-10.8084
▁실제로는	-10.809
▁게임이다	-10.8091
go	-10.8095
타임	-10.8097
▁통화	-10.8103
▁문제에	-10.8104
▁다룬	-10.8106
▁종전	-10.811
▁에르	-10.811
지와	-10.8116
▁독일어	-10.8118
주를	-10.812
▁약물	-10.8121
同	-10.8123
▁사가	-10.8123
年	-10.8123
α	-10.8123
▁센트럴	-10.8123
吉	-10.8123
圖	-10.8123
守	-10.8123
建	-10.8123
▁쇠퇴	-10.8123
분교	-10.8123
▁타임	-10.8124
ance	-10.8124
▁정통	-10.8125
▁동아시아	-10.8125
▁증언	-10.8126
▁일원으로	-10.8128
▁남긴	-10.813
▁기름	-10.8131
합니다	-10.8131
▁당해	-10.8132
드라	-10.8133
▁명문	-10.8137
▁평면	-10.8137
독립	-10.8141
▁자매	-10.8143
▁슬	-10.8145
▁대단	-10.8148
▁물리	-10.8153
▁처분	-10.8155
포스	-10.8157
명과	-10.816
해져	-10.816
▁그래프	-10.8161
▁섬에	-10.8161
ct	-10.8163
▁원조	-10.8164
▁x	-10.8164
▁거친	-10.8167
▁산화	-10.8176
▁크레	-10.8177
▁청구	-10.8179
IC	-10.818
▁참가하여	-10.8184
▁인조	-10.8184
▁경사	-10.8185
▁별로	-10.819
일보	-10.819
▁밖	-10.8191
▁신장	-10.8193
▁방송된	-10.8195
우라	-10.8195
AP	-10.8196
▁감정	-10.8196
▁기기	-10.8197
▁개국	-10.8199
상이	-10.8202
▁쌀	-10.8202
▁주어진	-10.8204
▁복제	-10.8204
▁히데	-10.8206
종으로	-10.8207
브리	-10.8209
ll	-10.821
짓	-10.821
▁창원	-10.8212
▁후반에	-10.8214
▁정차	-10.8215
ip	-10.8217
六	-10.8218
賢	-10.8218
죠	-10.8218
▁전두환	-10.8218
▁겨우	-10.8219
▁그러므로	-10.8219
▁않았으며	-10.8219
▁대성당	-10.8225
법의	-10.8226
기록	-10.823
▁이상이	-10.8231
「	-10.8234
▁창간	-10.8235
프랑스	-10.8238
▁()	-10.8239
▁돌파	-10.8239
권에	-10.8242
▁결의	-10.8245
▁75	-10.8245
▁들여	-10.8246
▁마시	-10.8251
호의	-10.8257
▁Th	-10.8258
▁경향이	-10.8259
▁접속	-10.8259
▁SF	-10.8263
▁43	-10.8266
800	-10.8266
▁집에	-10.8269
▁추가되었다	-10.8271
▁히가시	-10.8271
▁한신	-10.8272
▁공개되었다	-10.8274
량은	-10.8275
▁주문	-10.8275
구는	-10.8276
▁사우스	-10.8276
이스	-10.8277
▁추적	-10.8277
▁학부	-10.8282
겼	-10.8282
ina	-10.8285
미르	-10.8289
▁발표되었다	-10.829
▁이재	-10.8297
넌	-10.8304
▁공자	-10.8304
▁모습으로	-10.8311
버린	-10.8314
二	-10.8314
▁여덟	-10.8314
▁시드니	-10.8316
▁레알	-10.832
▁삼았다	-10.832
▁개별	-10.832
▁알렉산더	-10.8322
롭	-10.8323
▁아프가니스탄	-10.8324
▁고객	-10.8326
▁총선에서	-10.8326
▁모래	-10.8327
▁스페셜	-10.8329
▁합계	-10.833
do	-10.8332
▁출연하였고	-10.8336
▁노선이	-10.8338
▁위치하며	-10.834
었기	-10.8341
▁시가	-10.8342
▁곳이	-10.8343
▁내가	-10.8345
하면서도	-10.8347
▁대신에	-10.8348
▁집필	-10.8349
▁영조	-10.8359
▁분화	-10.836
NA	-10.8362
▁국군	-10.8364
▁전임	-10.8364
ick	-10.8365
per	-10.8365
켓	-10.8366
조에	-10.8369
커스	-10.837
어가	-10.837
▁황후	-10.8381
▁가즈	-10.8383
▁대학원	-10.8385
▁전철	-10.8393
ae	-10.8393
▁세금	-10.8393
▁발탁	-10.8399
▁사유	-10.8402
▁레이다	-10.8402
하다는	-10.8405
▁발생한다	-10.8405
臣	-10.841
▁골키퍼	-10.8412
美	-10.8412
▁웨일스	-10.8412
▁하드웨어	-10.8412
▁색깔	-10.8412
▁생겼다	-10.8412
▁대해서도	-10.8413
드리	-10.8413
▁뿐이다	-10.8414
▁정자	-10.8415
▁실시된	-10.8415
▁살았다	-10.8415
▁출현	-10.8419
▁것인지	-10.8419
▁가을	-10.8427
▁스웨덴의	-10.8429
첨	-10.8432
▁벌였다	-10.8432
숭	-10.8433
▁집회	-10.8433
▁2020	-10.8434
▁조명	-10.8435
▁지역구	-10.8436
ger	-10.8437
식은	-10.8437
so	-10.8439
▁여름에	-10.8442
▁편의	-10.8442
▁준우승	-10.845
▁전진	-10.8452
▁놓여	-10.8453
700	-10.8456
모양	-10.846
▁미스	-10.8463
시키	-10.8463
▁되었는데	-10.8465
▁연호	-10.8467
▁삼아	-10.8469
▁프라	-10.848
속에	-10.8483
안에	-10.8491
▁바꾸	-10.8492
▁나라에서	-10.8493
▁추대	-10.8496
당은	-10.8498
▁들었다	-10.8499
▁공세	-10.8503
▁라틴	-10.8503
장관	-10.8504
下	-10.8509
全	-10.8509
대학원	-10.8509
等學校	-10.8509
▁베네수엘라	-10.851
▁오리지널	-10.851
直	-10.851
重	-10.851
▁MVP	-10.851
▁몸무게	-10.851
像	-10.851
▁판타지	-10.851
▁주최	-10.851
▁라이벌	-10.8511
▁환승	-10.8511
▁문제점	-10.8512
▁소재지	-10.8514
▁1896	-10.8516
ica	-10.8518
▁기부	-10.8518
▁기습	-10.8519
▁돌아왔다	-10.8521
▁체육	-10.8522
▁공격수	-10.8524
리스트	-10.8528
▁목포	-10.8529
처리	-10.8533
▁65	-10.8534
▁중앙에	-10.8535
ies	-10.8536
훈련	-10.8538
▁짓	-10.8541
공격	-10.8543
▁본토	-10.8545
▁발전소	-10.8546
경찰서	-10.8548
▁바라	-10.8548
지기	-10.8551
▁구사	-10.8553
▁운송	-10.8555
▁상영	-10.8556
▁노리	-10.8557
▁원자력	-10.856
▁확실	-10.8564
▁수호	-10.8565
세에게	-10.8565
▁교리	-10.8569
대교	-10.8569
▁때마다	-10.8571
구치	-10.8571
▁뒷	-10.8572
▁수백	-10.8575
▁미국으로	-10.8583
유키	-10.8584
국은	-10.8586
▁융	-10.8586
600	-10.8589
▁회로	-10.8592
▁대학에서	-10.8592
열차	-10.8593
국민	-10.8593
▁부분에	-10.8597
▁마스터	-10.8597
▁반면에	-10.86
짜리	-10.8601
7%	-10.8602
▁감지	-10.8602
키아	-10.8604
師	-10.8606
템	-10.8607
보이	-10.8607
▁스펙트럼	-10.8609
넨	-10.8609
▁포유류	-10.8609
(2011	-10.8609
▁규슈	-10.861
▁발휘	-10.8611
land	-10.8612
▁간섭	-10.8613
▁타이틀곡	-10.8615
▁아웃	-10.862
로드	-10.8621
▁설립한	-10.8621
▁주자	-10.8621
▁감각	-10.8622
▁최종적으로	-10.8622
▁Mo	-10.8626
▁많고	-10.8627
▁존슨	-10.8627
▁수도권	-10.8628
여성	-10.863
달러	-10.863
▁이곳에서	-10.8631
통일	-10.8632
다리	-10.8634
웰	-10.8634
▁배포	-10.8634
▁풍부한	-10.8635
빅	-10.8635
즉	-10.8636
▁선형	-10.8636
▁없기	-10.8639
▁기병	-10.8646
▁면에서	-10.8646
타운	-10.8649
FC	-10.865
주기	-10.865
▁바람에	-10.8651
▁조종	-10.8652
▁정기	-10.8653
▁공국	-10.8654
▁내놓	-10.8655
에너지	-10.8655
▁일은	-10.8657
▁걸려	-10.8658
▁친일	-10.8658
▁대리	-10.8658
▁방향을	-10.8661
구를	-10.8664
▁하다가	-10.8664
▁카이	-10.8665
▁상소	-10.8666
▁수반	-10.8666
ak	-10.8669
씨가	-10.867
BA	-10.867
▁부동산	-10.8672
▁k	-10.8673
▁나이에	-10.8677
ea	-10.8678
▁w	-10.8679
교수	-10.8679
▁47	-10.8681
마사	-10.8684
▁얻는	-10.8685
▁제공하고	-10.8689
▁교전	-10.8693
역을	-10.8696
▁졸업한	-10.87
따	-10.8704
▁천안	-10.8704
받는	-10.8705
▁플	-10.8705
▁사용하지	-10.8705
▁바르셀로나	-10.8709
谷	-10.8709
開	-10.8709
▁도쿠가와	-10.8709
宋	-10.8709
▁포크	-10.8709
▁다이묘	-10.871
▁돌려	-10.871
▁빼	-10.8711
▁송나라	-10.8713
▁영웅	-10.8713
▁했는데	-10.8716
▁파울	-10.8716
▁아키	-10.8716
▁힘이	-10.8717
▁1895	-10.8717
▁수감	-10.8717
▁아리	-10.8717
▁흥행	-10.8718
▁아이디어	-10.872
▁반격	-10.8723
▁미치는	-10.8723
▁비슷하다	-10.8723
▁버지니아	-10.8724
▁매각	-10.8726
▁밖으로	-10.8729
▁56	-10.873
작가	-10.8731
텍	-10.8731
▁진단	-10.8732
▁있	-10.8733
▁복구	-10.8736
『	-10.8738
▁("	-10.874
CC	-10.8741
▁바닥	-10.8741
▁동굴	-10.8744
▁북미	-10.8744
▁서방	-10.8749
▁원주민	-10.8749
▁냉	-10.8749
▁지나지	-10.8753
▁자신은	-10.8756
식물	-10.8757
나미	-10.8761
▁실질적	-10.8768
▁이내	-10.8768
대부	-10.8772
▁트라	-10.8773
▁태자	-10.8774
▁종사	-10.8777
형으로	-10.878
▁일체	-10.8792
▁대회이다	-10.8792
▁로스	-10.8793
▁사면	-10.8793
▁올린	-10.8796
▁대령	-10.8797
▁맞는	-10.8799
시까지	-10.8802
부문	-10.8802
트를	-10.8804
▁강릉	-10.8805
▁부유	-10.8806
京	-10.8809
▁요미우리	-10.881
▁이르기까지	-10.881
뇨	-10.881
시켰고	-10.881
分	-10.881
根	-10.881
九	-10.881
泰	-10.881
▁일요일	-10.881
▁체험	-10.881
▁모험	-10.8811
▁BBC	-10.8811
▁없지만	-10.8812
▁내륙	-10.8812
▁아래로	-10.8813
▁납치	-10.8814
▁산타	-10.8815
▁타인	-10.8817
▁중요성	-10.882
▁위기에	-10.8823
▁다루고	-10.8824
Le	-10.8828
▁600	-10.8834
편성	-10.8836
▁학위	-10.8837
CD	-10.8839
▁로즈	-10.8841
▁양국	-10.8843
▁–	-10.8844
▁종족	-10.8846
▁당연	-10.8848
sa	-10.8849
▁까지	-10.885
▁주말	-10.8851
▁복지	-10.8853
▁부처	-10.8855
▁주체	-10.8855
▁설치되었다	-10.8856
▁사건에	-10.8857
안전	-10.8858
▁재즈	-10.8859
▁남쪽에	-10.8859
▁입문	-10.8863
▁급속	-10.8863
▁직선	-10.8864
▁고조	-10.8865
di	-10.8866
▁링	-10.8866
▁기용	-10.8868
▁명칭으로	-10.8869
년만에	-10.8869
웠	-10.8869
La	-10.8871
▁FM	-10.8875
▁획득하였다	-10.8875
▁반환	-10.8876
▁서원	-10.8878
▁원작으로	-10.8878
▁음원	-10.8879
▁구성된다	-10.8879
▁윌	-10.888
자들에게	-10.8881
답	-10.8888
▁열어	-10.8889
▁인사들	-10.8891
석이	-10.8895
진이	-10.8896
브로	-10.8902
▁원하는	-10.8905
타로	-10.8906
▁오버	-10.8907
▁문화적	-10.8907
란트	-10.8907
▁이수	-10.8908
▁자신에게	-10.8911
▁유신	-10.8911
制	-10.8911
通	-10.8912
立	-10.8912
▁업데이트	-10.8912
▁잃고	-10.8912
▁스타크래프트	-10.8912
▁지정되어	-10.8912
▁않도록	-10.8912
▁없었고	-10.8913
▁소규모	-10.8913
▁황해도	-10.8913
▁나폴리	-10.8914
▁전류	-10.8915
▁야스	-10.8915
있	-10.8916
▁탈환	-10.8916
▁하와이	-10.8917
▁뽑	-10.8918
▁호칭	-10.892
▁해협	-10.8924
작전	-10.8926
▁러	-10.8928
체가	-10.8929
▁서경	-10.8929
주와	-10.8931
▁먹는다	-10.894
▁진군	-10.894
▁코르	-10.8941
▁나타내	-10.8944
▁국장	-10.8945
맛	-10.8945
▁켄	-10.8945
▁예전	-10.8946
SA	-10.8947
▁사무소	-10.8948
▁출판사	-10.895
▁사회의	-10.8951
▁수록되어	-10.8951
지사	-10.8952
▁교역	-10.8952
공주	-10.8952
자료	-10.8955
▁말하고	-10.8956
▁못하게	-10.8959
▁그동안	-10.8962
▁반사	-10.8968
▁여기에서	-10.897
▁찍	-10.897
▁작고	-10.8975
▁움직이	-10.8976
▁입지	-10.8977
자키	-10.8978
▁MC	-10.8979
_10	-10.8983
▁공전	-10.8987
▁곰	-10.8989
▁택	-10.8992
▁대표적	-10.8992
▁성립한다	-10.8994
ts	-10.8996
▁전투에	-10.8997
▁소속사	-10.8999
mon	-10.9001
▁진실	-10.9003
▁예방	-10.9004
▁말해	-10.9006
▁페루	-10.9008
▁포함해	-10.9012
9%	-10.9013
플레이	-10.9014
時	-10.9014
華	-10.9014
▁나섰다	-10.9015
▁얻기	-10.9015
字	-10.9015
貞	-10.9015
▁맞춰	-10.9015
▁셋째	-10.9015
▁디비전	-10.9015
▁농촌	-10.9017
▁모집	-10.9018
위원장	-10.9019
▁방법이	-10.902
전선	-10.9022
▁계획이	-10.9023
▁석탄	-10.9024
▁집에서	-10.9028
▁당선되었다	-10.9029
▁조별	-10.903
▁건의	-10.903
▁Love	-10.9035
▁제약	-10.9037
하러	-10.9037
_15	-10.9041
▁묘소	-10.9041
▁대서양	-10.9041
▁서인	-10.9042
▁인근에	-10.9044
▁콩고	-10.9047
▁생일	-10.9049
▁결과적으로	-10.905
Sh	-10.9051
작용	-10.9056
▁발매한	-10.9056
▁비슷	-10.9057
▁가공	-10.9059
▁타입	-10.9059
▁되었으나	-10.906
▁폐위	-10.9061
선과	-10.9062
ka	-10.9063
ran	-10.9063
▁불안	-10.9066
▁엑스	-10.9067
▁찾는	-10.9069
▁침	-10.907
단은	-10.9075
▁빠	-10.9075
▁약화	-10.9075
▁탐	-10.9079
▁돌아온	-10.908
▁양산	-10.9081
하기에	-10.9082
▁추구	-10.9082
▁역사가	-10.9083
뉴스	-10.9083
▁맞추어	-10.9084
사인	-10.9087
▁그려	-10.9089
쿠스	-10.9092
▁Con	-10.9093
작품	-10.9094
▁상황이	-10.9095
▁혈	-10.9095
▁각자	-10.9096
▁리드	-10.9097
▁두번째	-10.9104
함이	-10.9105
순위	-10.9106
족이	-10.9109
지금	-10.911
▁가도	-10.9111
▁나갔다	-10.9112
▁곡으로	-10.9114
노프	-10.9116
▁직장	-10.9119
점으로	-10.9119
▁사우디아라비아	-10.9119
▁찾기	-10.9119
福	-10.9119
▁싱어송라이터	-10.9119
▁몸길이	-10.912
▁토머스	-10.912
▁맡았으며	-10.912
▁Ma	-10.912
크리	-10.9123
▁평생	-10.9127
▁우주선	-10.9128
▁섭정	-10.9129
▁1913	-10.9129
▁예루살렘	-10.9129
▁필라델피아	-10.9129
RA	-10.913
▁어릴	-10.9131
▁열매	-10.9131
▁지방에	-10.9133
-10	-10.9133
▁미나미	-10.9134
▁이시	-10.9136
▁후쿠오카	-10.9138
▁기념물	-10.9139
▁대결	-10.914
▁무선	-10.914
▁맞게	-10.9141
▁적어도	-10.9142
▁실내	-10.9143
군에서	-10.9146
▁이성	-10.9147
▁지원하는	-10.9148
▁준공	-10.9148
▁협	-10.9151
▁발견했다	-10.9152
민주	-10.9156
▁작품이	-10.9158
▁생각했다	-10.9158
금융	-10.9159
TC	-10.9161
되지만	-10.9165
때문에	-10.9165
▁캘리포니아주	-10.9166
▁딴	-10.9167
che	-10.9169
집합	-10.9169
▁회의에서	-10.917
회에	-10.917
▁과일	-10.9175
▁구리	-10.9175
▁파라	-10.9176
안을	-10.9178
하였을	-10.918
▁되었다고	-10.918
▁쪽으로	-10.9185
ID	-10.9187
ley	-10.9191
위가	-10.9194
▁걸어	-10.9196
양군	-10.9197
▁서쪽에	-10.9197
번호	-10.9198
수사	-10.9199
▁시간에	-10.9201
▁사신	-10.9204
▁고통	-10.9205
▁관계에	-10.9206
체로	-10.9207
▁퀸	-10.9207
ME	-10.9207
▁와이	-10.9208
▁인물이다	-10.9208
▁끌	-10.9209
▁역전	-10.921
▁멜	-10.9211
흘	-10.9218
▁수준의	-10.9221
▁오가	-10.9223
▁안내	-10.9223
祖	-10.9224
源	-10.9224
族	-10.9224
▁포맷	-10.9224
▁밀라노	-10.9225
▁대항	-10.9225
어족	-10.9226
▁않았던	-10.9227
▁군사적	-10.9227
▁돌아갔다	-10.9228
▁데리고	-10.9228
▁들어간	-10.923
▁이스트	-10.923
협의회	-10.9232
▁신자	-10.9232
▁삼각형	-10.9232
PC	-10.9234
▁초반에	-10.9234
생산	-10.9238
▁써서	-10.9239
▁정벌	-10.9239
▁화살	-10.9242
▁반박	-10.9242
▁한일	-10.9243
▁승부	-10.9247
▁기록하고	-10.9251
▁흙	-10.9251
▁좌우	-10.9251
▁적절한	-10.9252
물질	-10.9253
que	-10.9256
▁골드	-10.9258
겔	-10.9259
졸	-10.9259
▁홀로	-10.9261
▁다루는	-10.9262
▁복사	-10.9263
▁들어가는	-10.9265
헬	-10.9265
목에	-10.9266
▁관계자	-10.927
▁전승	-10.9271
츠키	-10.9272
▁나선	-10.9272
▁여인	-10.9274
▁미치	-10.9276
서비스	-10.9277
단으로	-10.9278
럭	-10.9281
▁빨리	-10.9283
년대부터	-10.9284
까지도	-10.9285
▁법적	-10.9286
▁료	-10.9286
▁목조	-10.9289
자로서	-10.9294
리고	-10.9297
▁제작되었다	-10.9297
▁뜻이다	-10.9298
성으로	-10.9298
▁필요로	-10.9299
▁금강	-10.9302
▁하우스	-10.9303
▁부품	-10.9304
▁개칭	-10.9306
▁아들이	-10.9313
▁학사	-10.9313
되었기	-10.9315
되었다고	-10.9316
▁클라	-10.9319
치기	-10.932
▁담당하는	-10.9324
▁공적	-10.9325
철학	-10.9326
궐	-10.9329
а	-10.933
랴	-10.933
權	-10.9331
號	-10.9331
▁맡기	-10.9331
▁믿음	-10.9331
▁오디션	-10.9331
見	-10.9331
▁블록	-10.9332
▁하버드	-10.9332
▁퇴각	-10.9333
tra	-10.9334
▁일환으로	-10.9334
▁결정했다	-10.9335
▁있어야	-10.9336
▁크기의	-10.9336
▁목적은	-10.9336
▁탑승	-10.9336
▁때문이었다	-10.9338
▁국민의	-10.9339
▁겸임	-10.9339
▁돔	-10.9341
▁시청	-10.9343
중이다	-10.9345
▁일상	-10.9345
▁모델이다	-10.9347
▁유키	-10.9347
아노	-10.935
▁지내고	-10.9352
▁존중	-10.9357
▁남아있다	-10.9357
▁인디	-10.9357
관은	-10.9359
공신	-10.9359
▁초청	-10.9362
▁사실은	-10.9363
▁보스	-10.9364
▁앨범은	-10.9365
쿠라	-10.9366
▁공학	-10.9366
▁특이한	-10.9369
▁권고	-10.937
▁가족들	-10.9372
밥	-10.9373
▁곱	-10.9375
▁명칭이	-10.9376
▁빚	-10.9376
▁색상	-10.9378
▁학교를	-10.938
▁헌	-10.9381
▁오다	-10.9382
▁영양	-10.9383
됐	-10.9384
▁호흡	-10.9386
하우스	-10.9386
▁붙어	-10.9387
축구	-10.9392
▁기수	-10.9394
등급	-10.9394
▁부호	-10.9399
로서는	-10.9408
▁웨이	-10.9408
▁들어와	-10.9408
▁먹이	-10.9409
▁파운드	-10.9411
사항	-10.9412
▁두산	-10.9413
▁Co	-10.9414
▁개수	-10.9414
이었기	-10.9418
▁안타	-10.9423
▁설립하였다	-10.9425
▁배정	-10.9428
▁SC	-10.943
병을	-10.9432
지며	-10.9435
▁인간이	-10.9437
順	-10.9437
音	-10.9438
▁루트비히	-10.9438
▁앉아	-10.9438
花	-10.9438
▁나타낼	-10.9438
▁전동차	-10.9438
▁문화재자료	-10.9438
▁과학자	-10.9439
브레	-10.9439
▁의병	-10.944
▁바꾸었다	-10.944
▁좌익	-10.944
▁유닛	-10.9441
프트	-10.9441
▁랩	-10.9442
▁충실	-10.9444
▁춘	-10.9444
▁시점	-10.9444
▁시작되어	-10.9447
▁물러나	-10.9448
▁미분	-10.9448
▁현급	-10.9449
De	-10.945
ary	-10.945
▁이르고	-10.945
▁쓰이고	-10.9451
▁않았기	-10.9452
▁수천	-10.9452
▁보이며	-10.9454
산군	-10.9456
▁효과가	-10.9456
▁약탈	-10.946
▁김씨	-10.9461
▁성주	-10.9461
▁공동으로	-10.9462
우는	-10.9466
▁근거로	-10.9466
▁유기	-10.9467
▁민주화	-10.9467
스포츠	-10.9468
놀	-10.9474
▁밝	-10.9475
▁중에서도	-10.9476
위의	-10.9477
받	-10.9479
▁성서	-10.948
〈	-10.9483
캐	-10.9487
▁이승	-10.9491
▁마치고	-10.9492
즘	-10.9493
▁낸	-10.9495
▁정도이다	-10.9496
▁수록된	-10.9499
▁좌석	-10.9501
▁이론은	-10.9501
여객	-10.9502
ide	-10.9503
▁백성들	-10.9504
진은	-10.9506
▁소요	-10.9511
판이	-10.9511
▁실패했다	-10.9513
▁사도	-10.9513
▁크라	-10.9513
▁돌아	-10.9513
▁당신	-10.9514
▁지방에서	-10.9518
▁그랜드	-10.9519
▁노인	-10.9519
▁프랑스에서	-10.9521
▁JR	-10.9521
▁강이	-10.9524
▁아스	-10.9524
▁당한	-10.9525
TA	-10.953
ES	-10.9532
▁했다고	-10.9533
▁한화	-10.9538
▁기술이	-10.954
▁중국어	-10.954
mer	-10.9542
▁상당수	-10.9543
▁빌리	-10.9543
았으나	-10.9544
▁모양으로	-10.9547
▁울산광역시	-10.9547
▁섭취	-10.9547
▁않았으나	-10.9547
▁없으나	-10.9548
▁배터리	-10.9548
▁밀접	-10.9548
▁중성자	-10.9549
▁아티스트	-10.9551
▁레벨	-10.9552
▁인가	-10.9553
▁파트너	-10.9553
▁개업	-10.9557
▁입증	-10.9557
▁정찰	-10.9558
▁긴급	-10.9558
▁성벽	-10.9561
▁무제	-10.9562
▁선임	-10.9563
▁유지하고	-10.9563
▁지어진	-10.9564
up	-10.9565
▁서적	-10.9565
▁보여주고	-10.9566
▁진지	-10.9567
▁지휘관	-10.9567
IS	-10.9569
▁빙	-10.957
▁멀티	-10.9571
amp	-10.9571
(11	-10.9572
▁유언	-10.9573
포트	-10.9574
▁책은	-10.9576
▁폐지되었다	-10.9577
작업	-10.9578
판을	-10.9579
▁리투아니아	-10.9582
▁명으로	-10.9585
▁중요하다	-10.9586
▁전부터	-10.9586
ner	-10.9589
▁사적	-10.9591
▁후보자	-10.9592
前	-10.9593
▁i	-10.9593
ive	-10.9597
▁영화로	-10.9598
▁보좌	-10.9599
▁동시	-10.9601
운동을	-10.9601
ub	-10.9604
▁소속되어	-10.9607
▁예비	-10.9607
▁질서	-10.9608
▁차지하는	-10.9611
▁투구	-10.9612
▁전하	-10.9612
동이	-10.9617
불교	-10.9621
▁고위	-10.9621
▁제외하고는	-10.9623
지면서	-10.9623
▁흔	-10.9626
▁문법	-10.9629
▁계수	-10.9632
▁메달	-10.9632
주의를	-10.9637
▁놀이	-10.9637
한다면	-10.9641
▁이온	-10.9643
▁더블	-10.9643
▁교수로	-10.9646
개혁	-10.9647
▁있으면	-10.9647
▁독자	-10.9648
▁그러다	-10.9648
▁모토	-10.9649
▁자리에서	-10.965
▁말하며	-10.9655
펀	-10.9656
唐	-10.9657
▁아이슬란드	-10.9657
▁태어났으며	-10.9657
路	-10.9657
▁우연히	-10.9657
▁최우수	-10.9657
鎭	-10.9657
▁스마트폰	-10.9657
▁몰락	-10.9659
하였	-10.9659
▁대주교	-10.9659
▁광산	-10.966
수와	-10.966
천만	-10.9661
▁급행	-10.9662
▁아니지만	-10.9664
▁시대에는	-10.9664
▁자회사	-10.9665
▁마틴	-10.9666
▁상대방	-10.9668
▁아니었다	-10.9668
스에	-10.967
▁아르메니아	-10.9673
▁구간은	-10.9674
법으로	-10.9675
▁분지	-10.9681
▁v	-10.9682
▁컴	-10.9686
▁아기	-10.9687
▁주제로	-10.9688
les	-10.969
▁생명체	-10.9691
▁포르	-10.9691
즐	-10.9692
▁냈다	-10.9694
-7	-10.9695
▁식량	-10.9696
-0	-10.9697
▁멀	-10.9698
리안	-10.9699
▁집계	-10.9701
▁항일	-10.9702
▁플레	-10.9703
룽	-10.9706
▁51	-10.9706
큰	-10.9706
▁DJ	-10.9708
▁Man	-10.971
▁결승	-10.9711
▁접하고	-10.9711
)」	-10.9711
▁선두	-10.9712
선조	-10.9712
▁멤버로	-10.9714
▁수상자	-10.9715
▁란	-10.9716
▁락	-10.9717
▁거기에	-10.9717
▁조건으로	-10.9719
왕이	-10.9719
IA	-10.972
버리	-10.9723
▁명제	-10.9728
▁율	-10.9747
▁영어로	-10.9748
▁유교	-10.9749
▁관련하여	-10.9749
인들	-10.9749
헤이	-10.9751
▁곡선	-10.9751
bi	-10.9751
▁지켜	-10.9753
▁기업인	-10.9759
十	-10.9767
▁성공한	-10.9767
▁디자이너	-10.9768
▁비잔티움	-10.9768
▁디즈니	-10.9768
▁훼손	-10.9768
▁NHK	-10.9768
wiki	-10.9768
ft	-10.9768
▁압박	-10.9769
▁형상	-10.977
▁앨런	-10.977
▁시청률	-10.9771
▁회담	-10.9773
▁알려지지	-10.9775
등에	-10.9776
하시	-10.9776
▁부르며	-10.9777
▁출산	-10.9778
▁포격	-10.9778
▁1916	-10.9779
▁연애	-10.9779
▁우익	-10.9779
▁1915	-10.978
▁커뮤니티	-10.9781
▁수록곡	-10.9782
▁동래	-10.9783
기획	-10.9784
▁엠	-10.9784
▁코너	-10.9784
▁피난	-10.9785
이거나	-10.9786
▁뒤인	-10.9787
▁포드	-10.979
겠다고	-10.9791
▁제휴	-10.9793
▁총독부	-10.9796
▁직위	-10.9797
’,	-10.9804
▁양의	-10.9804
ik	-10.9805
▁몬	-10.9809
▁승점	-10.9809
▁거주하는	-10.9811
▁젖	-10.9814
쇠	-10.9817
_	-10.982
▁예로	-10.9821
역과	-10.9824
▁안쪽	-10.9826
독일	-10.9827
▁유일	-10.9827
▁밀리	-10.9829
-15	-10.9833
▁버리고	-10.9835
▁해주	-10.9835
만한	-10.9836
▁보전	-10.9836
산면	-10.9845
물로	-10.9845
자들을	-10.9846
▁배제	-10.9847
ten	-10.985
▁페리	-10.9851
▁김동	-10.9853
▁구간이	-10.9853
▁설이	-10.9857
▁홍수	-10.9862
▁여기	-10.9866
▁흐	-10.9867
겼다	-10.9867
▁표지	-10.9871
점은	-10.9874
페르	-10.9875
▁행정부	-10.9875
▁의석	-10.9876
팽	-10.9879
外	-10.988
▁뛰었	-10.988
▁다큐멘터리	-10.988
▁그럼에도	-10.988
▁두려워	-10.988
▁지니	-10.988
▁배웠다	-10.9881
▁아이템	-10.9882
▁공략	-10.9883
▁당사자	-10.9884
보드	-10.9884
시키며	-10.9887
▁묘지	-10.9887
▁크림	-10.9888
▁EP	-10.989
▁남녀	-10.9893
▁가능하며	-10.9894
OR	-10.9896
제품	-10.9898
소가	-10.9903
▁한동안	-10.9904
파리	-10.9906
▁김정	-10.9908
▁코어	-10.9909
▁사망자	-10.991
▁산소	-10.9912
▁왕가	-10.9912
▁끝나고	-10.9913
▁틈	-10.9914
▁게이트	-10.9914
▁변신	-10.9914
▁나누	-10.9915
▁방영되었다	-10.9915
▁두루	-10.9915
▁값을	-10.9917
상은	-10.9925
하니	-10.9925
테르	-10.9928
▁관점에서	-10.9931
이트	-10.9931
카타	-10.9932
▁식사	-10.9934
▁공식적인	-10.9934
formula	-10.9935
득점	-10.9939
▁모델은	-10.9941
기념	-10.9941
▁가르	-10.9941
놀이	-10.9944
▁아메리칸	-10.9945
피아	-10.9946
▁의존	-10.9948
에게도	-10.9949
▁하사	-10.9949
▁이토	-10.9952
▁싱글이다	-10.9955
▁닫	-10.9956
살이	-10.9963
럽	-10.9963
주간	-10.9964
(5	-10.9965
▁제국은	-10.9965
▁경북	-10.9969
▁농도	-10.9971
▁《》	-10.9973
▁우리는	-10.9975
▁졸업했다	-10.9975
성군	-10.9977
황제	-10.9979
▁도시는	-10.9981
▁마주	-10.9985
▁250	-10.9987
▁내부에	-10.9991
준다	-10.9992
▁내외	-10.9992
▁자바	-10.9993
▁꺾고	-10.9994
▁싶다	-10.9994
▁얻게	-10.9994
い	-10.9994
▁자산	-10.9994
▁도메인	-10.9994
▁둥근	-10.9995
▁불리기도	-10.9996
▁프랑크	-10.9998
▁공의회	-10.9999
▁1909	-10.9999
▁귀환	-11.0001
▁운반	-11.0001
cc	-11.0002
▁소재로	-11.0003
▁이어졌다	-11.0004
▁브리	-11.0004
▁공채	-11.0004
▁나주	-11.0005
▁원나라	-11.0006
정당	-11.0007
▁치러진	-11.0007
▁추모	-11.0011
▁도시를	-11.0012
▁땅에	-11.0015
▁자유주의	-11.0017
▁일어나자	-11.0017
고도	-11.002
▁데이터베이스	-11.0021
구에	-11.0021
만에	-11.0022
해도	-11.0027
▁72	-11.0031
▁베타	-11.0032
실점	-11.0038
체는	-11.004
▁일족	-11.0042
▁소니	-11.0044
형이	-11.0045
▁전례	-11.0046
화와	-11.0046
▁발견한	-11.0047
▁분배	-11.005
▁묶	-11.0052
햄	-11.0053
▁좌파	-11.0055
▁발현	-11.0058
이면	-11.006
aw	-11.0061
황후	-11.0062
▁뒤에는	-11.0063
res	-11.0064
회에서	-11.0068
ty	-11.0072
▁트럭	-11.0073
▁경비	-11.0073
주의자	-11.0075
CA	-11.0078
형식	-11.0078
▁구상	-11.008
RT	-11.008
▁선호	-11.0081
AM	-11.0081
▁5000	-11.0086
트와	-11.0086
▁프라이	-11.0088
sch	-11.009
▁행복	-11.009
▁배급	-11.0092
▁54	-11.0092
▁관심이	-11.0093
▁대왕	-11.0093
omys	-11.0093
▁되었지만	-11.0094
프리	-11.0095
구로	-11.0095
▁순천	-11.0095
▁구제	-11.0098
▁멘	-11.0098
靑	-11.0109
眞	-11.0109
▁맡게	-11.0109
▁박근혜	-11.0109
▁아울러	-11.0109
村	-11.0109
▁사로잡	-11.0109
▁해병대	-11.0109
▁얘기	-11.0109
▁청와대	-11.011
▁날짜	-11.011
▁옛날	-11.0111
▁레논	-11.0111
다르	-11.0112
▁품질	-11.0112
▁레이블	-11.0114
▁신임	-11.0114
▁추출	-11.0114
▁방지	-11.0117
▁서식한다	-11.0117
▁탐구	-11.0118
400	-11.0119
명에	-11.0119
▁초상화	-11.0119
▁중종	-11.012
▁합쳐	-11.0121
▁대책	-11.0122
▁제목으로	-11.0124
▁학자들	-11.0124
▁과학자들	-11.0124
▁번식	-11.0127
▁보충	-11.0128
자에게	-11.013
▁컨	-11.0131
▁유출	-11.0134
▁아트	-11.0134
▁고무	-11.0135
▁개척	-11.0137
▁조항	-11.0138
▁짓고	-11.0138
▁융합	-11.0143
▁스테이지	-11.0147
▁피에르	-11.0148
▁최신	-11.0152
▁질문	-11.0153
▁경선	-11.0154
▁렌즈	-11.0157
▁포항	-11.0159
팬	-11.016
▁앨	-11.016
힘	-11.0166
▁김기	-11.0166
빗	-11.0167
▁산악	-11.0169
둘	-11.0169
▁각기	-11.017
소스	-11.0171
▁대회를	-11.0171
▁180	-11.0173
▁톰	-11.0174
▁트레	-11.018
hy	-11.0181
ice	-11.0186
▁교장	-11.019
▁입사	-11.0191
▁지분	-11.0193
▁법학	-11.0194
▁샘	-11.0198
In	-11.0199
ure	-11.0203
마저	-11.0205
▁시작하는	-11.0209
▁이전까지	-11.0209
▁시간대	-11.021
▁비문	-11.021
▁촉진	-11.0211
▁이탈	-11.0215
▁예하	-11.0215
▁패전	-11.0218
블리	-11.0218
▁중심이	-11.022
▁말라	-11.022
合	-11.0225
▁모듈	-11.0225
▁무슬림	-11.0225
度	-11.0225
▁싶어	-11.0225
▁팔레스타인	-11.0225
左	-11.0225
應	-11.0225
▁어두운	-11.0225
됨으로써	-11.0226
▁베이스볼	-11.0226
▁기타리스트	-11.0226
▁통칭	-11.0228
▁특유	-11.0232
▁무늬	-11.0234
▁최악	-11.0234
▁가이	-11.0234
업자	-11.0238
▁SM	-11.024
▁게재	-11.0242
▁조류	-11.0242
▁시작해	-11.0242
ix	-11.0243
▁항목	-11.0243
▁귀중	-11.0244
▁상관	-11.0244
▁물리적	-11.0245
▁탁	-11.025
▁한쪽	-11.0254
토모	-11.0256
▁선수이자	-11.0258
마일	-11.0261
료를	-11.0268
권은	-11.0269
▁협의	-11.0269
산동	-11.0272
IM	-11.0273
▁과거에	-11.0273
▁구름	-11.0277
▁빠진	-11.0279
쟁	-11.028
▁높아	-11.028
▁김용	-11.0281
▁경유	-11.0281
oc	-11.0282
▁가질	-11.0282
▁그곳	-11.0283
av	-11.029
▁출전해	-11.0291
▁쳐	-11.0291
▁대안	-11.0292
ana	-11.0295
▁상태에	-11.0295
▁목성	-11.0297
태수	-11.0303
▁삼고	-11.0305
be	-11.031
▁천문학	-11.031
▁도주	-11.0314
▁정의할	-11.0314
▁아서	-11.0315
▁요동	-11.032
▁물이	-11.0323
▁등이다	-11.0323
▁기생	-11.0325
▁좋아하는	-11.0328
▁지역과	-11.0329
ber	-11.0336
▁뷰	-11.0337
꾼	-11.0339
▁선거에	-11.034
▁시칠리아	-11.0343
▁업그레이드	-11.0343
▁에스토니아	-11.0343
萬	-11.0343
▁무거운	-11.0343
位	-11.0343
命	-11.0343
春	-11.0343
▁시나리오	-11.0343
▁프로세스	-11.0344
▁중재	-11.0344
▁전투는	-11.0345
▁예능	-11.0346
▁좌절	-11.0346
▁이루었다	-11.0346
▁브레	-11.0348
▁옹호	-11.0348
어스	-11.0348
▁1884	-11.035
▁특이	-11.035
▁사사	-11.0351
▁시집	-11.0351
노미야	-11.0354
▁생기	-11.0356
▁49	-11.0358
▁중국인	-11.0359
▁전망	-11.0362
▁기동	-11.0362
▁배틀	-11.0362
▁천장	-11.0363
니다	-11.0363
▁유입	-11.0363
▁출입구	-11.0364
아키	-11.0365
▁임명되어	-11.0366
AC	-11.0368
▁억제	-11.0369
▁클로	-11.0371
▁창원시	-11.0372
▁독일에서	-11.0372
▁지나치	-11.0375
▁문서는	-11.0376
▁빼앗	-11.0377
로우	-11.0379
▁휴대	-11.0379
군사	-11.0382
▁거점	-11.0384
▁안양	-11.0386
▁도서	-11.0389
▁구로	-11.0393
▁전향	-11.0394
▁토대로	-11.0396
▁소닉	-11.0397
▁인정받	-11.0397
▁프랑스는	-11.0397
▁영화제	-11.0397
▁현존하	-11.0399
▁산란	-11.0401
ric	-11.0403
첼	-11.0404
룩	-11.0407
왜	-11.0407
▁판정	-11.0408
▁일행	-11.0408
RO	-11.0409
▁렌	-11.0409
▁굽	-11.041
▁애국	-11.041
이어서	-11.0411
민주당	-11.0413
▁지름	-11.0414
▁주장이	-11.0415
▁성공회	-11.0419
▁역이	-11.0423
▁세리에	-11.0424
▁음악가	-11.0424
▁일부로	-11.0425
▁적분	-11.0426
▁곡이	-11.0427
▁느끼	-11.0429
▁엘리	-11.043
▁활동한	-11.0431
ake	-11.0434
▁크기는	-11.0438
▁시를	-11.0438
NG	-11.0438
▁밤에	-11.0439
▁활동에	-11.0439
들리	-11.044
▁성모	-11.0441
the	-11.0441
ess	-11.0442
▁시로	-11.0444
진흥	-11.0445
▁심한	-11.0445
▁목격	-11.0446
느냐	-11.045
▁완화	-11.0457
▁따위	-11.046
基	-11.0462
▁덧붙여	-11.0462
▁아마추어	-11.0462
景	-11.0462
▁굉장	-11.0462
宣	-11.0462
▁광주광역시	-11.0462
▁CPU	-11.0462
▁No	-11.0462
▁IBM	-11.0463
▁근접	-11.0463
▁※	-11.0465
회관	-11.0465
▁운동이	-11.0466
널	-11.0467
▁은퇴한	-11.0468
▁전념	-11.0469
▁하드	-11.0469
▁훌륭한	-11.0471
▁거행	-11.0472
▁병행	-11.0473
계급	-11.0473
문자	-11.0473
▁표본	-11.0474
▁떨어졌다	-11.0475
▁오케스트라	-11.0475
▁침해	-11.0476
공장	-11.0479
▁유해	-11.0479
▁포스트	-11.048
▁중장	-11.0481
▁아나운서	-11.0482
▁Bo	-11.0483
▁길고	-11.0486
▁섬유	-11.0488
ah	-11.049
▁직책	-11.0491
스틱	-11.0494
▁전세계	-11.0496
퍼스	-11.0496
▁탓에	-11.0498
▁스토	-11.0499
CE	-11.0501
▁웨	-11.0503
▁University	-11.0507
▁속으로	-11.0511
ST	-11.0513
시절	-11.0514
▁암석	-11.0514
▁특급	-11.0514
▁심사	-11.0516
조를	-11.0518
마치	-11.052
▁이후부터	-11.0522
세트	-11.0524
▁문인	-11.0525
번지	-11.0525
▁곡들	-11.0526
▁메시	-11.053
▁제도의	-11.053
▁각지	-11.053
캠퍼스	-11.053
▁중립	-11.0531
mb	-11.0532
밴드	-11.0532
▁오염	-11.0533
rk	-11.0534
아리	-11.0535
▁후계자	-11.0536
이라도	-11.0537
▁필드	-11.0539
▁찾아가	-11.0542
▁제작자	-11.0542
▁뱀	-11.0543
ug	-11.0545
동과	-11.0547
▁사물	-11.0548
▁이었다	-11.0551
▁간격	-11.0551
화되어	-11.0553
▁작품에	-11.0553
야스	-11.0556
▁re	-11.0557
▁의견이	-11.0559
▁사료	-11.0566
▁관통	-11.0566
오르	-11.057
정권	-11.0575
▁여단	-11.0578
о	-11.0582
朝	-11.0582
曹	-11.0582
津	-11.0582
實	-11.0582
▁찾을	-11.0582
▁피렌체	-11.0582
▁낱말	-11.0582
▁노무현	-11.0582
▁둘러싼	-11.0582
▁다항식	-11.0582
▁텍스트	-11.0582
▁옵션	-11.0582
▁코무네	-11.0584
▁오빠	-11.0586
▁일곱	-11.0586
▁분기점	-11.059
▁일식	-11.059
▁있으면서	-11.0594
ight	-11.0596
▁캠페인	-11.0596
다니	-11.0603
▁시점에서	-11.0604
▁맡았고	-11.0604
▁역까지	-11.0605
타니	-11.0605
쿄	-11.0605
▁납	-11.0606
▁네이	-11.0606
▁포도주	-11.0608
▁호평	-11.0609
▁고립	-11.061
▁성격이	-11.0612
▁천연	-11.0612
▁장편	-11.0613
▁안나	-11.0613
▁성공하였다	-11.0613
고종	-11.0613
tu	-11.0614
▁주거	-11.0617
▁심리	-11.0619
▁김종	-11.0622
란드	-11.0625
곱	-11.0628
법인	-11.0629
▁인물이	-11.0632
▁점은	-11.0632
▁파장	-11.0635
MI	-11.0637
▁기재	-11.0637
▁것이고	-11.0638
▁세로	-11.0639
닥	-11.064
▁차지한	-11.0642
▁친구들	-11.0644
▁코치로	-11.0649
▁요금	-11.0651
나리	-11.0655
▁남아있는	-11.0656
-8	-11.0656
▁원주	-11.0657
▁파리에서	-11.0663
ave	-11.0665
▁편리	-11.067
▁용어는	-11.0672
▁김상	-11.0672
▁프랑	-11.0672
-6	-11.0672
▁증기	-11.0673
▁대만	-11.0673
▁요구하는	-11.0673
히토	-11.0675
▁질환	-11.0675
▁드러내	-11.0677
거래	-11.068
▁특허	-11.0685
▁강경	-11.0685
▁인증	-11.0686
▁인물들	-11.0689
어와	-11.0689
▁전해	-11.069
▁있는지	-11.0691
흡	-11.0692
▁받	-11.0693
▁이용한다	-11.0696
▁기종	-11.0697
▁진출했다	-11.0698
▁부재	-11.0698
▁도와	-11.07
SD	-11.0701
身	-11.0704
壽	-11.0704
▁제주특별자치도	-11.0704
▁콘스탄티노폴리스	-11.0704
▁프로토콜	-11.0704
▁공화당	-11.0704
▁테일러	-11.0704
▁무승부	-11.0704
▁유배	-11.0704
▁바오로	-11.0705
▁오디오	-11.0706
됐으며	-11.0706
▁봉쇄	-11.0706
▁한국시리즈	-11.0706
▁지냈으며	-11.0706
▁역사적으로	-11.0707
▁화폐	-11.0708
▁인텔	-11.0709
간에	-11.071
▁검증	-11.0711
▁추락	-11.0712
▁툴	-11.0712
▁따르	-11.0712
▁가죽	-11.0713
lu	-11.0714
▁양도	-11.0715
▁이기	-11.0715
▁가쓰	-11.0715
▁야생	-11.0718
▁누르고	-11.0719
▁아니며	-11.0719
▁못해	-11.072
ite	-11.0721
1902	-11.0724
▁풍경	-11.0725
▁영광	-11.0725
▁기상	-11.0726
하르트	-11.0728
廣	-11.073
▁선교사	-11.0732
▁못했고	-11.0732
▁To	-11.0733
▁금액	-11.0734
▁에우	-11.0735
▁읍	-11.0735
▁허브	-11.0736
▁탐지	-11.0737
▁연인	-11.0738
▁혼자	-11.0739
▁기온은	-11.0739
형태	-11.074
책을	-11.074
▁도움으로	-11.0743
ata	-11.0743
▁입구	-11.0748
▁정부로부터	-11.0748
▁개최되었다	-11.0748
▁담당하고	-11.075
▁멤버들	-11.0753
▁공인	-11.0756
▁말할	-11.0758
▁구멍	-11.0758
▁독립운동가	-11.0759
▁유산	-11.0762
▁여신	-11.0762
▁진행된	-11.0762
▁시모	-11.0765
▁풀어	-11.0767
▁구체적으로	-11.0768
▁실패하였다	-11.0768
▁오는	-11.077
▁전한다	-11.0772
IT	-11.0773
▁최근에	-11.0773
▁액	-11.0775
물의	-11.0775
콩	-11.0776
▁철학자	-11.0776
▁정체성	-11.0777
대한민국	-11.0779
▁무신	-11.0784
▁차관	-11.0785
▁래	-11.0787
▁스피	-11.0788
▁못할	-11.0789
국을	-11.0789
▁친정	-11.079
▁러브	-11.0792
주었다	-11.0793
▁캠프	-11.0793
▁도덕	-11.0794
▁과도	-11.0795
▁무대에	-11.0796
후보	-11.0797
▁멸	-11.0798
품을	-11.0802
▁갖	-11.0802
▁시계	-11.0802
됐고	-11.0803
▁떠난	-11.0804
▁선종	-11.0805
▁사이드	-11.0807
▁아사	-11.0808
▁영역을	-11.081
▁왕립	-11.0811
놓	-11.0812
▁규	-11.0814
▁플로	-11.0818
▁실패로	-11.0823
▁덴마크의	-11.0824
▁주장하고	-11.0826
с	-11.0828
▁문화체육관광부	-11.0828
▁바꿔	-11.0828
▁얻고	-11.0828
▁치렀다	-11.0828
▁친일인명사전	-11.0828
修	-11.0828
靈	-11.0828
▁주파수	-11.0828
▁오리콘	-11.0828
▁없었던	-11.0828
Al	-11.083
▁평일	-11.0831
▁끌어	-11.0831
▁얼음	-11.0836
▁첫번째	-11.0836
▁언제나	-11.0837
▁kg	-11.0838
▁매출	-11.0838
▁다양체	-11.084
▁우측	-11.0842
▁월간	-11.0843
▁따르는	-11.0845
▁개발된	-11.0847
▁쓰여	-11.0849
▁간부	-11.085
▁낮아	-11.085
▁출구	-11.0855
안타	-11.0858
헌법	-11.0859
▁상인	-11.0859
▁치르	-11.0861
▁고려시대	-11.0863
륙	-11.0864
룰	-11.0864
ame	-11.0865
분을	-11.0865
노리	-11.0867
그리	-11.0867
▁주와	-11.0868
ja	-11.0872
▁연고지로	-11.0872
감이	-11.0875
▁투명	-11.0878
▁AC	-11.0879
버렸다	-11.088
▁후궁	-11.088
▁일로	-11.0881
▁대폭	-11.0883
▁불가능하다	-11.0884
▁모델이	-11.0886
▁참여하여	-11.0889
▁지주	-11.0889
▁다음해	-11.0891
▁신생	-11.0892
▁고발	-11.0893
령이	-11.0894
▁전압	-11.0894
▁측은	-11.0897
▁길게	-11.0899
구간	-11.0903
무기	-11.0904
조로	-11.0904
형은	-11.0905
함대	-11.0907
하마	-11.0908
선으로	-11.0909
▁세자	-11.091
▁앨범의	-11.0913
역이	-11.0914
유럽	-11.0916
▁유니	-11.0918
▁적을	-11.092
▁생기는	-11.0923
▁2,000	-11.0923
tor	-11.0925
▁주어졌다	-11.0934
▁식민	-11.0937
티브	-11.0943
탱	-11.0943
국으로	-11.0944
▁소문	-11.0947
▁이끌어	-11.0949
業	-11.0952
英	-11.0952
▁리메이크	-11.0953
▁유튜브	-11.0953
▁프랑크푸르트	-11.0953
良	-11.0953
▁쌍둥이	-11.0953
申	-11.0953
▁풋볼	-11.0953
▁여동생	-11.0953
(2002	-11.0953
▁도움이	-11.0953
▁노란색	-11.0954
▁사라졌다	-11.0954
▁보여주었다	-11.0954
▁베드로	-11.0955
▁흔적	-11.0956
▁아나	-11.0958
▁별도로	-11.0958
▁밝힌	-11.0958
▁추격	-11.0958
▁스피드	-11.0961
여자고등학교	-11.0962
▁마스	-11.0964
계와	-11.0964
▁둘러싸고	-11.0965
▁전제	-11.0965
▁승차	-11.0966
▁둘레	-11.0968
이아	-11.097
▁야구장	-11.0971
▁언어로	-11.0972
▁퍼져	-11.0972
▁후쿠	-11.0973
▁적색	-11.0975
▁젠	-11.0975
▁분류된다	-11.0975
체육	-11.0975
▁클레	-11.0976
▁처음에	-11.0978
▁펠	-11.0979
▁체력	-11.0979
▁무상	-11.0979
▁부분적으로	-11.0981
▁1500	-11.0982
▁샌	-11.0983
▁존경	-11.0986
ail	-11.0989
▁세계에	-11.0989
▁크로스	-11.0989
로이드	-11.099
전기	-11.0994
▁스프링	-11.0996
▁해제	-11.0999
▁고백	-11.1001
▁수용소	-11.1004
▁이루어	-11.1007
▁싱글로	-11.101
▁수장	-11.1013
밭	-11.1014
▁규모로	-11.1014
▁지수	-11.1014
▁전장	-11.1014
▁서울에서	-11.1015
▁실용	-11.1016
이면서	-11.1016
▁이반	-11.1018
재단	-11.1021
천사	-11.1022
▁부위	-11.1023
융	-11.1023
녹	-11.1024
스에서	-11.1025
▁수비수	-11.1026
▁맞고	-11.1027
▁진정	-11.1028
론은	-11.1029
▁사람에게	-11.1032
▁왕으로	-11.1033
빵	-11.1033
▁건물로	-11.1034
▁드래프트	-11.1035
▁조용	-11.1036
부에서	-11.1038
▁아니면	-11.1039
우치	-11.1039
▁입대	-11.1041
▁육지	-11.1042
국장	-11.1045
왔고	-11.1055
▁남아있	-11.1056
LE	-11.1056
겠	-11.1057
뱅	-11.1058
당하고	-11.1058
▁스테	-11.1059
▁PD	-11.1059
▁시즌이	-11.106
▁많	-11.1061
▁본격적	-11.1061
ou	-11.1062
▁진출에	-11.1062
▁승강장이	-11.1064
조각	-11.1067
▁역임한	-11.1068
▁노조	-11.1068
▁후한	-11.107
▁IP	-11.1072
술을	-11.1075
계열	-11.1076
(8	-11.1077
代	-11.1079
▁형사소송법	-11.1079
傳	-11.1079
憲	-11.1079
▁나눠	-11.1079
▁승부차기	-11.1079
▁디스플레이	-11.1079
▁사회에	-11.1079
▁캐스팅	-11.1079
▁황태자	-11.108
▁리듬	-11.1081
단에	-11.1081
타르	-11.1084
ture	-11.1085
▁윤치호	-11.1087
▁종결	-11.1087
▁인정받아	-11.1087
였다고	-11.1087
궤도	-11.1091
▁빌헬름	-11.1092
▁명령어	-11.1093
▁110	-11.1093
▁독점	-11.1095
운영	-11.1096
▁축구단	-11.1101
ke	-11.1101
상에서	-11.1101
▁중시	-11.1102
▁°	-11.1103
비용	-11.1104
▁들어간다	-11.1106
▁오리	-11.1107
사이드	-11.1107
▁일이다	-11.111
▁An	-11.1111
▁부문에서	-11.1112
▁시작했으며	-11.1112
▁소환	-11.1114
AS	-11.1117
▁탐사선	-11.1117
ous	-11.1118
▁제트	-11.1121
▁개막전	-11.1122
조건	-11.1124
▁예언	-11.1124
현상	-11.1124
▁내부의	-11.1125
해진다	-11.1126
▁승무원	-11.1127
▁움직이는	-11.1128
▁MS	-11.1129
▁버튼	-11.1129
▁칩	-11.113
력으로	-11.1131
푸스	-11.1132
▁않	-11.1133
▁서식하는	-11.1135
념	-11.1135
▁싸	-11.1137
으므로	-11.1137
▁애니	-11.1139
▁자신과	-11.1141
▁World	-11.1141
꼬	-11.1141
▁번뇌	-11.1142
토시	-11.1145
▁프로그램은	-11.1148
▁섭	-11.1151
ko	-11.1154
무역	-11.1154
께서	-11.1157
▁하나였다	-11.1157
▁알바	-11.1159
▁맡았	-11.1163
▁정부와	-11.1163
딸	-11.1164
▁개막	-11.1168
▁몰아	-11.1169
▁해전	-11.1173
▁on	-11.1174
▁입단했다	-11.1177
q	-11.1178
▁에이스	-11.1178
▁뛰어	-11.1185
너스	-11.1185
▁라운드	-11.1187
졌으나	-11.1187
이론	-11.119
▁뿔	-11.1191
▁형법	-11.1196
▁부근에	-11.1196
▁결혼했다	-11.1198
▁그중	-11.1199
den	-11.12
▁My	-11.1202
워스	-11.1202
▁형성된	-11.1203
科	-11.1206
▁타운	-11.1207
ü	-11.1207
▁높고	-11.1207
▁에콰도르	-11.1207
柳	-11.1207
玉	-11.1207
錄	-11.1207
寶	-11.1207
▁라이선스	-11.1207
▁우라늄	-11.1207
▁김영삼	-11.1209
▁과정은	-11.121
▁꾀	-11.1211
AN	-11.1211
▁별칭	-11.1212
▁종로구	-11.1212
▁배를	-11.1213
수도	-11.1214
클로	-11.1216
▁트윈스	-11.122
▁안산	-11.1221
▁요구했다	-11.1223
▁남인	-11.1225
▁도요	-11.1225
▁경상도	-11.1226
▁중국과	-11.1226
SI	-11.1226
여서	-11.1228
내는	-11.1228
▁쌓아	-11.1229
▁노스	-11.1231
▁헤드	-11.1237
▁무용	-11.1239
▁지구와	-11.1239
▁연령	-11.1242
식의	-11.1243
▁소실	-11.1244
▁바꾸어	-11.1246
▁철회	-11.1248
▁떨어지	-11.1249
sp	-11.1249
▁상무	-11.1249
▁장안	-11.1251
▁인연	-11.1251
▁랭킹	-11.1252
▁응시	-11.1253
▁1,2	-11.1254
▁곡이다	-11.1254
▁제국이	-11.1255
▁번영	-11.1259
평가	-11.1259
gi	-11.1261
▁시에서	-11.1262
▁자기장	-11.1263
ish	-11.1268
▁신전	-11.1269
▁사당	-11.1269
법원	-11.1273
▁점프	-11.1273
▁고성	-11.1274
▁분데스리가	-11.1275
▁건물이	-11.1275
▁중계	-11.1277
것을	-11.1282
공항	-11.1283
동을	-11.1285
▁Mi	-11.1286
박사	-11.1286
▁폭스	-11.1287
▁시와	-11.1288
▁역과	-11.1292
셋	-11.1293
*	-11.1293
않	-11.1293
DS	-11.1294
자동차	-11.1294
▁현의	-11.1295
▁소지	-11.1295
▁청원	-11.1295
종교	-11.1296
▁나이트	-11.1299
▁대로	-11.1302
각형	-11.1303
▁때로	-11.1307
기사	-11.1315
▁사고로	-11.1315
▁본질	-11.1316
▁매력	-11.1319
▁활동하는	-11.1321
▁용기	-11.1321
ys	-11.1324
!"	-11.1329
킷	-11.1331
크로	-11.1332
▁월드컵에서	-11.1332
▁부도	-11.1333
▁늘어나	-11.1333
衛	-11.1337
吳	-11.1337
▁프랭크	-11.1337
令	-11.1337
典	-11.1337
▁모른다	-11.1337
▁억압	-11.1337
▁세르	-11.1338
▁만세	-11.1338
▁격퇴	-11.1338
▁하트	-11.1339
▁크리스티안	-11.1339
▁타이거즈	-11.1339
idae	-11.1339
▁마쳤다	-11.1342
▁모셔	-11.1344
▁삭	-11.1346
▁1899	-11.1346
▁예외	-11.1346
▁극심	-11.1346
▁부착	-11.1347
▁교외	-11.1347
▁뜨거	-11.1348
pl	-11.1349
▁동일하다	-11.1349
▁동전	-11.1351
적이	-11.1351
▁극장판	-11.1351
▁전라도	-11.1353
화로	-11.1354
▁중추원	-11.1354
종은	-11.1354
og	-11.1358
ron	-11.136
▁왕복	-11.1361
나카	-11.1364
웨어	-11.1367
▁정해진	-11.1367
▁백성	-11.1368
▁발견되는	-11.1369
▁평정	-11.1369
▁주에서	-11.137
▁내린	-11.137
해왔다	-11.1371
▁로고	-11.1371
▁현상이	-11.1372
▁국내에서	-11.1374
▁마리오	-11.1376
▁유래한	-11.1377
▁페스티벌	-11.1378
▁날아	-11.1378
pi	-11.1378
"("	-11.1378
메르	-11.138
▁김해	-11.138
▁야간	-11.1381
패를	-11.1382
▁자유를	-11.1384
▁라우	-11.1386
▁호세	-11.1386
▁말리	-11.1386
▁달러를	-11.1387
▁52	-11.1388
화에	-11.139
▁포수	-11.1392
▁유발	-11.1392
▁탕	-11.1396
ack	-11.1398
▁마이크로	-11.1398
이었는데	-11.1399
▁바라보	-11.1399
시기	-11.1399
▁동쪽에	-11.1401
▁북구	-11.1403
▁극복	-11.1406
▁정밀	-11.1408
ser	-11.141
포를	-11.1411
▁의상	-11.1412
ath	-11.1416
▁활발한	-11.1416
▁주지사	-11.1419
▁수직	-11.1419
▁Ex	-11.1419
▁이씨	-11.142
▁기간에	-11.142
▁쓰지	-11.1422
▁노동당	-11.1424
파크	-11.1426
홈런	-11.1429
클럽	-11.1429
▁내는	-11.143
▁혹	-11.1433
▁프랑스와	-11.1433
▁통로	-11.1435
훈장	-11.1436
▁아직까지	-11.1438
▁수익	-11.1445
▁아버지와	-11.1446
테크	-11.1449
900	-11.145
루수	-11.145
▁군대가	-11.1454
▁기록에	-11.1456
▁명종	-11.1459
조치	-11.1461
판은	-11.1461
▁구동	-11.1464
▁눈이	-11.1467
▁세월	-11.1467
▁거짓	-11.1468
▁고베	-11.1468
▁겪었다	-11.1469
▁낳았다	-11.1469
▁마케도니아	-11.1469
▁에티오피아	-11.1469
色	-11.1469
▁볼리비아	-11.1469
周	-11.1469
敬	-11.1469
▁테이블	-11.1469
▁하인리히	-11.1469
承	-11.1469
▁문재인	-11.1469
▁양호	-11.1469
▁플라스틱	-11.1469
▁가르침	-11.1469
▁토요일	-11.147
▁키보드	-11.1471
▁시체	-11.1472
▁메트로	-11.1472
▁술탄	-11.1473
▁보잉	-11.1473
▁대답	-11.1474
▁운하	-11.1477
▁이틀	-11.1477
▁진리	-11.1478
▁박해	-11.1479
▁엘리베이터	-11.1479
▁1890	-11.1483
▁초래	-11.1486
줄기	-11.1488
▁꼴	-11.1489
▁체포되어	-11.1489
▁남구	-11.149
▁시절부터	-11.1491
▁성직자	-11.1491
▁중앙위원회	-11.1492
▁낙선	-11.1492
▁실종	-11.1494
▁비즈니스	-11.1496
▁음모	-11.1496
▁요크	-11.1497
▁동북	-11.1501
▁아미	-11.1506
효소	-11.1507
▁내내	-11.1508
▁사토	-11.1508
▁소유하고	-11.1509
▁만주국	-11.1512
폴리	-11.1513
▁개관	-11.1513
(4	-11.1514
▁연구하는	-11.1515
인간	-11.1517
▁휴식	-11.1517
▁입원	-11.1518
요리	-11.1518
▁기본적	-11.1519
▁쾌속	-11.1519
세기까지	-11.152
차로	-11.1521
▁기록하는	-11.1522
▁삼국	-11.1522
ek	-11.1522
▁be	-11.1522
▁우유	-11.1525
▁선이	-11.1531
▁부르고	-11.1531
▁빗	-11.1535
▁효소	-11.1538
▁출시된	-11.1542
여단	-11.1549
반도	-11.1551
▁장성	-11.1553
~3	-11.1554
▁활약하고	-11.1554
▁제도가	-11.1559
▁행적	-11.1559
▁회수	-11.156
▁여성의	-11.156
▁있다면	-11.156
팡	-11.1561
→	-11.1563
뤼	-11.1563
▁가면	-11.1565
▁기록하여	-11.1565
ence	-11.1565
년동안	-11.1566
▁마르크스	-11.1566
▁만화가	-11.1568
▁이즈	-11.1569
하루	-11.1569
▁늑대	-11.1573
▁오타	-11.1576
▁전통적으로	-11.1578
▁셰	-11.1578
▁Sp	-11.158
▁웃	-11.1581
음력	-11.1581
▁시초	-11.1581
▁고양	-11.1581
되었음	-11.1582
▁훈장	-11.1583
▁비가	-11.1585
리카	-11.1585
▁것보다	-11.1586
시키려	-11.1587
ee	-11.1588
▁혈액	-11.1591
행사	-11.1591
▁사천	-11.1593
형제	-11.1594
▁따른다	-11.1594
▁소유자	-11.1595
▁700	-11.1595
비행	-11.1596
▁배구	-11.1598
문이	-11.16
▁오렌지	-11.1601
▁성균관	-11.1601
將	-11.1602
쿼	-11.1602
形	-11.1602
▁맺어	-11.1602
印	-11.1602
ا	-11.1602
▁갤럭시	-11.1602
▁광범위한	-11.1602
智	-11.1602
臺	-11.1602
▁브라이언	-11.1602
▁동남아시아	-11.1602
▁풍부	-11.1602
▁히데요시	-11.1603
▁강수량	-11.1603
EN	-11.1604
▁설탕	-11.1604
▁63	-11.1604
▁제외하면	-11.1605
▁사쿠라	-11.1608
▁가와	-11.1608
▁서브	-11.1608
▁토착종	-11.1611
▁지폐	-11.1611
▁할당	-11.1612
▁지어졌다	-11.1613
▁1898	-11.1613
▁미술관	-11.1613
토르	-11.1613
있던	-11.1617
▁변동	-11.1618
▁발전에	-11.1618
▁이슈	-11.1618
르는	-11.1621
▁만났다	-11.1623
▁진출하였다	-11.1623
▁존속	-11.1623
▁히라	-11.1624
어진	-11.1625
▁후보에	-11.1625
▁국민당	-11.1627
▁방식이	-11.1628
▁설비	-11.1629
▁신비	-11.163
▁은거	-11.1631
▁시리즈에서	-11.1631
▁명백	-11.1632
▁가능하게	-11.1634
니카	-11.1641
▁밴	-11.1643
▁미국에서는	-11.1643
즈는	-11.1644
US	-11.1644
▁!	-11.1644
▁식당	-11.1645
랍	-11.1645
연승	-11.1647
(3	-11.1647
번대	-11.1649
카리	-11.165
PS	-11.165
▁2-1	-11.1651
▁활동이	-11.1652
▁가요	-11.1653
치로	-11.1654
▁맞지	-11.1656
당의	-11.1659
연합회	-11.1662
▁욕	-11.1662
▁국가로	-11.1666
▁갓	-11.1667
▁법무부	-11.1668
▁원본	-11.1669
▁것만	-11.1669
▁능력이	-11.167
▁쓰인	-11.1671
▁배신	-11.1671
대전	-11.1672
▁상장	-11.1674
▁밴드이다	-11.1675
▁외교관	-11.1678
▁페어	-11.1679
▁UN	-11.1682
짜	-11.1683
스피	-11.1683
▁왕위에	-11.1684
尙	-11.1684
▁휴전	-11.1686
▁효력	-11.1688
▁세트	-11.1689
보다도	-11.1692
▁장점	-11.1693
곽	-11.1693
▁진행하는	-11.1693
컴	-11.1698
프로그램	-11.17
▁시장에서	-11.1701
▁일본에서는	-11.1701
▁현종	-11.1702
특별	-11.1703
▁분리되어	-11.1704
부리	-11.1705
▁시골	-11.1705
아시아	-11.1707
▁컬러	-11.1709
▁옹	-11.1712
▁금메달	-11.1716
▁적절	-11.1717
MB	-11.1719
SE	-11.172
▁세계관	-11.1721
over	-11.1725
cy	-11.1726
▁중심부	-11.1727
▁때도	-11.1727
▁소속된	-11.1729
▁학교에서	-11.1729
▁중순	-11.1731
▁구축함	-11.1735
놈	-11.1736
監	-11.1737
女	-11.1737
소에서	-11.1737
늄	-11.1737
統	-11.1737
自	-11.1737
▁스케이팅	-11.1737
▁유네스코	-11.1737
郞	-11.1737
鳳	-11.1737
齋	-11.1737
郎	-11.1737
▁78	-11.1737
▁없었기	-11.1738
▁데이비스	-11.1738
▁헌법재판소	-11.1738
▁응답	-11.1738
▁거슬러	-11.1738
▁저작	-11.1739
험	-11.1741
▁선교	-11.1742
▁칼리	-11.1743
▁말은	-11.1744
▁정도였다	-11.1746
▁첼시	-11.1747
▁부수	-11.1747
▁기갑	-11.1748
▁달린	-11.1748
▁1894	-11.1748
▁알려져있다	-11.1749
▁시작된다	-11.175
▁언론인	-11.1752
▁다스리	-11.1752
▁엘리자베스	-11.1753
Ro	-11.1754
사용	-11.1754
▁이루어지고	-11.1754
▁키프로스	-11.1755
▁순교	-11.176
▁광역	-11.1761
▁통증	-11.1761
▁연봉	-11.1762
Ho	-11.1762
▁벌금	-11.1764
▁Al	-11.1767
▁미터	-11.1768
▁85	-11.1771
▁al	-11.1772
▁죽어	-11.1777
▁강제로	-11.1777
▁마이너	-11.1778
▁상상	-11.1778
IN	-11.1779
▁콘텐츠	-11.1779
▁그쳤다	-11.1781
▁론	-11.1781
▁기증	-11.1782
▁한나라	-11.1786
▁빵	-11.1786
▁내정	-11.1786
소방서	-11.1787
ock	-11.1792
인구	-11.1792
야만	-11.1793
▁구조로	-11.1794
▁리그에	-11.1795
▁현금	-11.1795
▁규정하고	-11.1796
▁기초로	-11.1799
▁엄마	-11.1799
▁도착한	-11.1801
연패	-11.1801
▁김진	-11.1801
▁석사	-11.1804
▁최후의	-11.1807
레이션	-11.1807
▁상부	-11.1809
▁박쥐	-11.181
▁스페인어	-11.1812
▁주위에	-11.1814
▁경성부	-11.1818
▁유대	-11.1818
▁수색	-11.1824
▁인재	-11.1825
▁임상	-11.1826
▁당원	-11.1828
▁아크	-11.1829
(2010	-11.183
▁후일	-11.183
파는	-11.1831
▁모양이	-11.1833
앞	-11.1838
▁사용하며	-11.1839
▁운명	-11.1839
니시	-11.184
▁생태	-11.1841
빌딩	-11.1841
▁초월	-11.1844
미디어	-11.1845
포르	-11.1845
▁올스타	-11.1846
채널	-11.1846
히코	-11.1849
ET	-11.1852
▁와중에	-11.1853
르드	-11.1855
▁파동	-11.1856
▁남극	-11.1859
Ma	-11.1863
태후	-11.1865
▁기어	-11.1867
▁실업	-11.1869
▁끊임없	-11.1874
▁넣고	-11.1874
▁넣은	-11.1874
▁몬트리올	-11.1874
▁바이올린	-11.1874
▁우루과이	-11.1874
保	-11.1874
▁아열대	-11.1874
(2006	-11.1875
리크	-11.1875
종합	-11.1875
▁상원의원	-11.1875
▁옹립	-11.1875
▁다니엘	-11.1875
▁느	-11.1875
등으로	-11.1876
▁작곡한	-11.1876
-17	-11.1876
▁부장	-11.1879
▁거울	-11.188
▁동년	-11.1881
▁영화배우	-11.1881
▁다중	-11.1882
▁출연한	-11.1884
▁바탕	-11.1884
히메	-11.1885
시민	-11.1885
▁결성된	-11.1885
▁알렸다	-11.1886
▁저작권	-11.1887
단위	-11.1888
▁이슬람교	-11.1888
▁보완	-11.1889
▁특징은	-11.189
당이	-11.1892
▁끝까지	-11.1895
▁프로리그	-11.1898
lin	-11.1898
▁보살	-11.19
역에서	-11.19
▁말한	-11.19
▁가미	-11.1901
▁무려	-11.1901
▁정류장	-11.1903
▁수령	-11.1903
▁교황청	-11.1904
▁홈페이지	-11.1905
▁목재	-11.1906
▁사이에는	-11.1906
▁고원	-11.1907
▁직접적으로	-11.1911
▁비례	-11.1912
▁방식은	-11.1916
선언	-11.1917
주가	-11.1918
▁뒤이어	-11.1919
▁조리	-11.192
▁예전에	-11.192
▁셋	-11.1921
▁날에	-11.1921
미치	-11.1921
▁관계로	-11.1923
▁영동	-11.1923
후에	-11.1923
▁발생하였다	-11.1925
효과	-11.1926
▁카페	-11.1927
▁진행된다	-11.1928
▁경험이	-11.1929
▁먹고	-11.193
▁선을	-11.1932
▁양측	-11.1934
▁상해	-11.1934
yl	-11.1936
▁US	-11.1937
iz	-11.1938
PA	-11.1939
▁아마도	-11.1943
▁칼라	-11.1943
~2	-11.1943
▁동구	-11.1943
▁계열사	-11.1944
▁랜	-11.1945
▁88	-11.1946
▁없음	-11.195
▁증대	-11.1952
art	-11.1952
▁폭격	-11.1957
▁첨가	-11.1958
▁준우승을	-11.1958
▁진정한	-11.1959
▁지정된	-11.1959
전은	-11.1961
▁기단	-11.1964
함은	-11.1965
▁치료를	-11.1965
▁피트	-11.1966
▁상태이다	-11.1966
방향	-11.1968
▁운행하	-11.1969
석의	-11.197
퀴	-11.1971
▁들어오	-11.1972
▁코리아	-11.1975
▁텐	-11.1976
▁특징이	-11.1979
톱	-11.198
봐	-11.198
▁지목	-11.1983
있으며	-11.1986
▁회화	-11.1987
▁비석	-11.1989
▁해임	-11.199
ov	-11.1992
▁윈	-11.1994
▁기다리	-11.1995
1901	-11.1995
들인	-11.1998
▁수습	-11.2001
▁현대의	-11.2001
사람	-11.2001
▁골프	-11.2001
▁연속으로	-11.2007
▁튀	-11.2012
호에	-11.2012
進	-11.2013
hPa	-11.2013
▁넣었다	-11.2013
▁민족문제연구소	-11.2013
▁슬로바키아	-11.2013
商	-11.2013
▁알제리	-11.2013
▁며칠	-11.2013
▁객체	-11.2014
▁지고	-11.2015
▁희귀	-11.2015
▁각본을	-11.2018
▁1903	-11.2018
IP	-11.2019
▁불어	-11.202
▁용량	-11.202
▁한국전쟁	-11.2021
▁몰려	-11.2021
▁재혼	-11.2023
▁원고	-11.2024
▁의뢰	-11.2025
▁해적	-11.2026
▁구미	-11.2026
▁청산	-11.2026
▁반경	-11.2027
▁집으로	-11.2027
선에	-11.2029
▁치세	-11.203
▁So	-11.203
▁자리잡고	-11.2031
▁스카	-11.2032
우주	-11.2032
프린	-11.2035
▁인접	-11.2036
어야	-11.2037
롭게	-11.2038
치아	-11.2041
▁차종	-11.2042
▁물리학자	-11.2043
▁분기	-11.2044
▁담아	-11.2046
▁죽이고	-11.2046
▁북방	-11.2048
▁군은	-11.205
▁효율적	-11.205
디어	-11.205
▁어원	-11.2051
▁헤어	-11.2052
▁파업	-11.2053
▁센서	-11.2054
▁기각	-11.2054
말로	-11.2057
▁회원국	-11.2059
▁남원	-11.2061
편의	-11.2063
▁지각	-11.2063
▁추세	-11.2064
▁서자	-11.2065
야구	-11.2065
▁니콜라	-11.2066
▁무렵에	-11.2068
▁동지	-11.2071
보르	-11.2072
▁가지며	-11.2073
고속	-11.2076
▁포도	-11.2077
▁정교	-11.2077
▁공로로	-11.2077
▁벌인	-11.2077
▁신원	-11.2079
▁Da	-11.2081
▁신흥	-11.2085
▁극한	-11.2086
▁스파이	-11.2088
▁시설이	-11.2089
▁생각하는	-11.2091
▁연주자	-11.2095
▁끝이	-11.2098
▁바퀴	-11.2099
분이	-11.2099
▁소총	-11.21
▁선언하였다	-11.2103
▁레일	-11.2103
져서	-11.2107
ER	-11.2109
▁진공	-11.211
▁전함	-11.211
nd	-11.2111
▁민간인	-11.2112
아버지	-11.2114
▁승리로	-11.2115
▁강연	-11.2116
드와	-11.2116
콤	-11.2117
▁구장	-11.2117
▁쿨	-11.2118
▁보여주	-11.212
▁고안	-11.212
부와	-11.2122
▁수학자	-11.2123
원에	-11.2123
▁타구	-11.213
▁주제가	-11.213
재산	-11.2131
▁일반화	-11.2133
▁환상	-11.2145
언어	-11.2147
▁미야	-11.215
▁다르	-11.2151
▁되돌아	-11.2154
и	-11.2154
▁일제강점기	-11.2154
▁잃은	-11.2154
土	-11.2154
▁나이지리아	-11.2154
▁아돌프	-11.2154
▁트랜스	-11.2154
朱	-11.2154
▁옥수수	-11.2154
▁동아일보	-11.2154
▁조문이다	-11.2154
▁리버풀	-11.2154
▁입성	-11.2155
▁보스니아	-11.2155
▁감싸	-11.2155
▁격렬	-11.2155
년대에는	-11.2156
▁양키스	-11.2157
로마	-11.2158
▁엑	-11.2158
▁전성기	-11.2158
▁화장실	-11.2158
▁어휘	-11.2158
▁패턴	-11.216
▁안토니오	-11.216
▁흉노	-11.2161
▁친일파	-11.2162
▁계절	-11.2162
▁한국에	-11.2164
▁숙청	-11.2165
▁꼬	-11.2169
▁조기	-11.2169
▁캄보디아	-11.217
▁벌어지	-11.2173
▁부패	-11.2174
▁말기에	-11.2177
▁노트	-11.2177
▁SA	-11.2177
▁원격	-11.2178
▁궁정	-11.2179
out	-11.218
▁편입되었다	-11.2182
지역에	-11.2182
▁불편	-11.2188
▁국토	-11.2188
han	-11.2189
▁기저	-11.2191
-21	-11.2191
▁인자	-11.2193
▁퍼시픽	-11.2195
▁닿	-11.2197
▁연결된	-11.2198
▁화제	-11.2198
결과	-11.2201
마쓰	-11.2201
▁남양	-11.2204
▁꿈을	-11.2205
▁쓰였다	-11.2207
-18	-11.2207
▁평원	-11.2208
▁해변	-11.2208
▁소수의	-11.2209
이었다고	-11.2212
위기	-11.2213
부산	-11.2214
▁지류	-11.222
▁개발에	-11.2221
▁누나	-11.2222
경영	-11.2223
▁사바	-11.2223
▁유수	-11.2224
▁온천	-11.2224
▁신의	-11.2225
▁그들에게	-11.2226
ost	-11.2226
우가	-11.2228
계에서	-11.2228
행을	-11.2231
▁규범	-11.2231
▁조언	-11.2235
▁신속	-11.2236
▁펄	-11.224
▁지내	-11.2241
▁위임	-11.2241
▁은메달을	-11.2242
▁면역	-11.2242
머니	-11.2243
▁사거리	-11.2243
양식	-11.2245
▁정서	-11.2246
인치	-11.2247
나스	-11.2249
▁스쿨	-11.2252
gen	-11.2252
▁헬기	-11.2253
엔진	-11.2255
법과	-11.2256
놓고	-11.2259
▁강원	-11.2259
▁불가	-11.2263
▁등지에서	-11.2264
중대	-11.2267
멀	-11.2267
앨범	-11.2267
내에서	-11.2268
▁착수	-11.2268
잘	-11.2268
매치	-11.2269
▁활약했다	-11.2271
▁공간의	-11.2273
▁연산자	-11.2275
if	-11.2278
투쟁	-11.2278
▁해설	-11.2278
▁취지	-11.2278
▁삼각	-11.2279
ius	-11.2279
▁일컫는	-11.2279
-9	-11.2279
문은	-11.228
▁사용해	-11.228
▁충성	-11.2281
▁함선	-11.2281
▁주도로	-11.2282
▁하부	-11.2283
포드	-11.2283
ium	-11.2285
str	-11.2285
▁물에	-11.2288
해지고	-11.2289
▁표면에	-11.229
전이	-11.229
즈카	-11.2293
륨	-11.2293
▁부른	-11.2294
▁열고	-11.2294
개미	-11.2297
짱	-11.2297
▁가벼운	-11.2297
▁미얀마	-11.2297
▁시뮬레이션	-11.2297
사우루스	-11.2297
▁일어날	-11.2297
▁어려워	-11.2297
▁침몰	-11.2297
▁핵무기	-11.2298
▁마음작용	-11.2298
▁턱	-11.2299
있고	-11.2299
▁든	-11.2299
▁작센	-11.23
▁찾아볼	-11.23
▁뉴턴	-11.2301
▁애칭	-11.2301
▁탄약	-11.2301
▁폭풍	-11.2301
▁뮤	-11.2301
▁충남	-11.2303
파이	-11.2304
LA	-11.2304
_14	-11.2305
르크	-11.2306
▁스코	-11.2306
태양	-11.2307
회장	-11.2308
▁총칭	-11.2309
▁모친	-11.2309
▁관직에	-11.231
▁불리게	-11.2315
▁머신	-11.2315
▁폭행	-11.2316
▁장례	-11.2318
▁매카트니	-11.2318
▁개항	-11.2319
▁들어온	-11.2319
▁측근	-11.2322
▁일시적으로	-11.2322
▁유사하다	-11.2322
▁공로	-11.2324
▁파트	-11.2324
▁수행하는	-11.2325
▁맞추	-11.2325
군에게	-11.2325
▁의미에서	-11.2326
▁Mar	-11.2326
▁생각된다	-11.2326
ens	-11.2328
▁노비	-11.2328
톨	-11.233
▁지지하는	-11.2331
바시	-11.2332
▁올스타전	-11.2333
명이었다	-11.2333
현대	-11.2334
▁태어	-11.2334
사자	-11.2334
차량	-11.2342
▁이긴	-11.2342
▁상임	-11.2342
▁조인	-11.2345
치카	-11.2347
▁때때	-11.2349
▁아예	-11.235
▁촉구	-11.235
면에서	-11.2351
▁관리하고	-11.2353
신학	-11.2354
지역의	-11.2356
▁고령	-11.2364
권과	-11.2365
▁달이	-11.2367
▁용이	-11.2367
▁야마	-11.2369
▁팀에	-11.2373
해준다	-11.2373
▁미라	-11.2374
레이트	-11.2376
▁생산량	-11.2379
▁기록된	-11.2381
▁좋	-11.2382
복지	-11.2384
▁효종	-11.2384
냈	-11.2385
▁BC	-11.2386
▁광학	-11.2387
▁고민	-11.2388
론적	-11.2388
내고	-11.2389
폴리스	-11.239
▁화제가	-11.2393
로소	-11.2395
보험	-11.2401
▁KT	-11.2405
An	-11.2408
사르	-11.2409
▁정책에	-11.241
▁개교	-11.2412
▁하더라도	-11.2412
▁펼치	-11.2413
흑	-11.2413
짝	-11.2414
라니	-11.2414
▁실체	-11.2421
코드	-11.2425
▁내용으로	-11.2425
▁인력	-11.2427
▁적고	-11.2428
니는	-11.2429
자연	-11.2431
기준	-11.2431
▁신하	-11.2431
해군	-11.2432
▁노래는	-11.2433
▁적의	-11.2435
▁성은	-11.2436
닛	-11.2437
카스	-11.2437
봤	-11.2441
~)	-11.2441
▁자가	-11.2442
▁국무총리	-11.2442
▁물러났다	-11.2442
▁애플리케이션	-11.2442
▁응우옌	-11.2442
▁잃었다	-11.2442
說	-11.2442
梁	-11.2442
浦	-11.2442
口	-11.2442
▁제퍼슨	-11.2442
▁약한	-11.2442
▁먹이를	-11.2443
▁규격	-11.2443
▁협박	-11.2443
▁네이버	-11.2444
▁몰래	-11.2444
▁바실리	-11.2446
)〉	-11.2446
old	-11.2448
▁마찰	-11.2449
▁던져	-11.2449
▁요소를	-11.245
▁추측된다	-11.2451
▁참고로	-11.2452
▁축하	-11.2453
▁역명	-11.2453
▁가져왔다	-11.2454
경기에서	-11.2454
▁근교	-11.2455
▁주행	-11.2455
▁지냈고	-11.2456
▁새누리당	-11.2456
▁50%	-11.2457
▁시중	-11.2457
▁두어	-11.2458
▁대의원	-11.2458
▁동인	-11.2459
▁장인	-11.2459
▁아베	-11.2462
▁축조	-11.2462
▁예술가	-11.2463
닉스	-11.2464
_11	-11.2465
▁고수	-11.2465
▁태생	-11.2465
▁장소로	-11.2466
회가	-11.2468
▁공백	-11.2469
▁응원	-11.247
▁토성	-11.247
▁악마	-11.2473
▁껍질	-11.2477
▁종속	-11.2477
산은	-11.2477
▁부설	-11.248
▁임용	-11.2482
▁3000	-11.2483
▁견제	-11.2483
ning	-11.2484
▁동상	-11.2485
▁고소	-11.2486
조정	-11.2488
원에서	-11.2491
▁상류	-11.2493
리코	-11.2493
▁국정	-11.2494
▁달성했다	-11.2497
다면	-11.2499
▁존재하며	-11.2501
▁부흥	-11.2503
FM	-11.2503
▁좁	-11.2504
▁실질적으로	-11.2505
동은	-11.2506
▁이복	-11.2506
갔	-11.2507
RE	-11.2507
▁r	-11.251
▁의정부	-11.2512
▁패스	-11.2512
트가	-11.2513
▁정부에서	-11.2514
▁중간에	-11.2515
?"	-11.2517
▁영남	-11.2517
▁...	-11.2519
▁군정	-11.2519
▁람	-11.252
▁대거	-11.252
▁탈당	-11.2521
▁자유당	-11.2521
ical	-11.2522
▁1.5	-11.2523
▁외모	-11.2523
▁정사	-11.2524
▁개인적	-11.2525
▁하거나	-11.2526
▁붙은	-11.2526
▁스트리트	-11.2528
▁계단	-11.2529
▁돌아오	-11.2533
베스	-11.2535
▁라이프	-11.2536
영국	-11.2537
으려	-11.2539
▁감정을	-11.2541
▁건너가	-11.2542
▁있었을	-11.2542
▁공산	-11.2543
▁반전	-11.2545
리온	-11.2546
▁베어스	-11.2549
▁필립	-11.255
▁컬	-11.255
▁섬으로	-11.2551
▁추정되는	-11.2551
▁어업	-11.2556
▁후안	-11.2557
▁설명하는	-11.256
▁딸인	-11.2561
1870	-11.2562
▁연기를	-11.2562
▁돌리	-11.2562
시부터	-11.2563
공무원	-11.2564
▁서신	-11.2564
▁오오	-11.2564
▁교차	-11.2564
▁넘겨	-11.2565
▁국민들	-11.2568
▁적당	-11.2569
▁점이다	-11.2573
도리	-11.2574
▁차원에서	-11.2576
모든	-11.2585
▁윌리엄스	-11.2586
▁Go	-11.2586
달라고	-11.2586
▁살아남	-11.2588
▁득표	-11.2588
▁유소년	-11.2588
間	-11.2589
벳	-11.2589
御	-11.2589
別	-11.2589
言	-11.2589
老	-11.2589
▁싶은	-11.2589
▁저기압	-11.2589
奉	-11.2589
領	-11.2589
多	-11.2589
熙	-11.2589
▁외야수	-11.2589
▁링컨	-11.2589
사관	-11.2591
▁케냐	-11.2591
▁드라이브	-11.2591
▁도호쿠	-11.2591
▁나눌	-11.2592
▁갱신	-11.2592
▁붙인	-11.2592
▁Na	-11.2593
▁난다	-11.2593
IG	-11.2594
▁고사	-11.2595
▁자연스럽	-11.2596
▁쉬운	-11.2596
▁식별	-11.2597
▁합작	-11.2598
▁소모	-11.2599
▁선출된	-11.26
▁미쳤다	-11.2601
▁의원이	-11.2602
타점	-11.2602
▁책봉	-11.2603
▁하였는데	-11.2603
▁지나면서	-11.2606
기관으로	-11.2606
대손	-11.2609
▁여지	-11.2609
ev	-11.261
▁고가	-11.2615
▁긍정적인	-11.2617
▁서열	-11.2617
작은	-11.2618
석은	-11.2619
ki	-11.262
▁부문에	-11.2624
▁이른	-11.2624
▁옆면	-11.2624
▁효과적으로	-11.2626
MP	-11.2626
▁정신적	-11.2629
▁얀	-11.2629
인들에게	-11.2631
행성	-11.2633
곡을	-11.2634
예정	-11.2634
▁장사	-11.2637
▁10%	-11.2637
길을	-11.2639
시노	-11.2639
▁단층	-11.264
▁지부	-11.2644
▁문화방송	-11.2644
▁명시	-11.2646
▁상세	-11.2647
▁신학교	-11.2647
▁주권	-11.2651
▁사카이	-11.2651
▁아오	-11.2652
▁브로	-11.2656
교구	-11.2657
▁미세	-11.2659
▁대성	-11.2659
▁떨	-11.2659
▁포병	-11.2661
▁지점에	-11.2665
▁관해	-11.2673
▁연구가	-11.2675
노부	-11.2677
▁전적	-11.268
(2013	-11.2681
내에	-11.2682
▁개미	-11.2682
▁준수	-11.2683
▁선언했다	-11.2685
보스	-11.2685
▁등장했다	-11.2688
▁당내	-11.2689
문서	-11.269
▁라마	-11.2691
미쓰	-11.2695
▁임명된	-11.2695
▁지표	-11.2695
▁웰	-11.2698
▁헨	-11.2699
되었	-11.2702
▁근원	-11.2702
▁장애인	-11.2704
▁IT	-11.2705
▁그라	-11.2707
▁지휘자	-11.2708
▁마친	-11.271
(2009	-11.271
▁기적	-11.2711
▁방법이다	-11.2712
▁재상	-11.2714
▁음악적	-11.2714
흔	-11.2714
꼴	-11.2715
엠	-11.2715
듯이	-11.2716
▁김창	-11.2717
bu	-11.2719
▁뜻의	-11.2719
LC	-11.272
▁분야에	-11.272
▁DC	-11.272
▁하나이며	-11.2721
대왕	-11.2721
NS	-11.2723
리프	-11.2723
▁플로리다	-11.2723
▁III	-11.2727
▁펼쳐	-11.2728
사무소	-11.2728
▁포켓몬	-11.2737
副	-11.2738
務	-11.2738
場	-11.2738
頭	-11.2738
к	-11.2738
▁돕기	-11.2738
▁평안남도	-11.2738
七	-11.2738
井	-11.2738
延	-11.2738
碑	-11.2738
▁아시카가	-11.2738
▁패키지	-11.2738
將軍	-11.2738
▁아이디얼	-11.2738
▁초신성	-11.2738
▁블로그	-11.274
비오	-11.274
강전	-11.2743
▁취항	-11.2743
▁투옥	-11.2744
▁독일과	-11.2746
▁로열	-11.2748
▁그릇	-11.2749
▁위탁	-11.2749
▁봉건	-11.2751
▁감자	-11.2751
▁첨	-11.2751
▁비슷하게	-11.2751
▁협조	-11.2753
교사	-11.2756
▁베리	-11.2757
▁환영	-11.2758
이상	-11.2759
▁지키	-11.2763
▁욕구	-11.2763
▁실시간	-11.2764
▁하락	-11.2765
▁머리에	-11.2765
맥스	-11.2765
▁국가대표	-11.2765
▁정무	-11.2767
▁부리	-11.2768
서로	-11.2768
▁코믹스	-11.2768
분석	-11.2768
▁거짓말	-11.2769
▁에릭	-11.2769
▁학문을	-11.277
▁신선	-11.2771
▁산다	-11.2771
▁일으키	-11.2772
▁암호	-11.2773
▁황족	-11.2773
▁가동	-11.2773
▁학명	-11.2775
▁괴물	-11.2775
다운	-11.2775
▁중단되었다	-11.2775
▁활성	-11.2777
濟	-11.2777
ory	-11.2778
입자	-11.2778
▁동등	-11.2778
ord	-11.2782
▁몬스터	-11.2783
▁앱	-11.2785
▁논문을	-11.2785
▁결승골	-11.2785
▁비오	-11.2787
▁않았	-11.2787
전문학교	-11.2789
▁거주하고	-11.2791
잡이	-11.2792
사지	-11.2792
▁조국	-11.2794
▁생식	-11.2801
▁북극	-11.2801
▁다음으로	-11.2802
▁지정하여	-11.2806
▁""	-11.2806
▁태양계	-11.2812
▁상징하는	-11.2813
▁부족한	-11.2815
평화	-11.2815
▁그레이	-11.2815
▁역사에	-11.2817
▁돼지	-11.2817
▁사이가	-11.2817
▁직전에	-11.2817
▁일본은	-11.2819
▁츠	-11.2822
▁사망하고	-11.283
▁고교	-11.2832
▁분비	-11.2834
-16	-11.2835
▁몰리	-11.2836
▁혜성	-11.2837
▁일종으로	-11.2838
▁눈물	-11.2839
▁최소한	-11.2839
▁김수	-11.284
▁설명했다	-11.2846
-11	-11.2846
븐	-11.2846
▁먹을	-11.2847
▁자손	-11.2847
플라	-11.2847
▁북서쪽	-11.2847
▁설립했다	-11.2848
율이	-11.2849
무스	-11.2852
▁유아	-11.2853
문의	-11.2856
▁권유	-11.2858
▁기능은	-11.2859
way	-11.286
왕은	-11.2861
▁북한군	-11.2862
▁세우	-11.2863
▁없애	-11.2863
▁철도가	-11.2864
▁우정	-11.2864
John	-11.2865
월드	-11.2866
▁일본과	-11.287
Sp	-11.2878
▁조화	-11.2879
▁포장	-11.2879
팀이	-11.288
▁AP	-11.2881
▁팔리	-11.2881
0%	-11.2882
단과	-11.2883
딕	-11.2885
▁사용이	-11.2887
兵	-11.2889
な	-11.2889
觀	-11.2889
用	-11.289
▁땄다	-11.289
▁무함마드	-11.289
▁솔루션	-11.289
沈	-11.289
章	-11.289
▁정확하게	-11.289
橋	-11.289
利	-11.289
▁진해	-11.289
▁이글스	-11.289
▁말씀	-11.289
▁무라	-11.2891
▁광둥	-11.2892
▁컴백	-11.2892
▁알려지게	-11.2893
▁진짜	-11.2893
▁보드	-11.2893
발을	-11.2893
▁직결	-11.2894
▁랑	-11.2897
보고	-11.2897
▁결혼식	-11.2898
▁막내	-11.2899
▁장례식	-11.2902
▁갖추	-11.2902
▁위나라	-11.2903
▁승리한	-11.2903
현이	-11.2903
▁링크	-11.2903
▁통행	-11.2904
▁발족	-11.2907
선생	-11.2908
▁체류	-11.2909
▁입각	-11.2909
액을	-11.2911
wa	-11.2912
▁안된다	-11.2914
량의	-11.2915
▁이를테면	-11.2915
클리	-11.2916
▁위장	-11.2916
▁겨울에	-11.2916
▁전국적으로	-11.2916
RS	-11.2917
▁세이부	-11.292
▁후방	-11.2922
▁드문	-11.2925
▁차기	-11.2925
sion	-11.2926
ile	-11.2929
▁의원들	-11.2929
▁NBA	-11.2929
▁밝혀	-11.2929
▁저하	-11.2932
▁대군	-11.2933
▁밑에	-11.2933
시키지	-11.2935
▁→	-11.2935
yn	-11.2935
▁만나게	-11.2936
▁과정이	-11.2937
▁미만	-11.2937
판매	-11.2937
▁특징으로	-11.2938
min	-11.2939
▁의미의	-11.294
▁최대한	-11.294
마력	-11.2941
▁불리고	-11.2941
▁윗	-11.2941
▁입장에서	-11.2942
하려면	-11.2945
▁Com	-11.2945
▁갖추어	-11.2947
▁모방	-11.2947
▁시작하였고	-11.2948
▁왔	-11.2952
▁남부에	-11.2953
▁김정일	-11.2959
▁선정한	-11.296
▁기여했다	-11.296
▁행진	-11.2961
▁장갑	-11.2964
UN	-11.2965
▁내부에서	-11.2966
영어	-11.2966
▁발레	-11.297
▁김태	-11.297
gr	-11.2971
sk	-11.2972
▁재현	-11.2972
▁모르는	-11.2974
▁서식	-11.2974
교를	-11.2976
▁명사	-11.2977
▁용도로	-11.2977
전에서는	-11.2979
▁관리자	-11.2981
산맥	-11.2982
Lo	-11.2982
▁각본	-11.2983
▁일어났	-11.2985
▁단장	-11.2987
▁선비	-11.2987
공단	-11.2988
신이	-11.2988
▁비유	-11.2989
▁일했다	-11.299
▁생산하는	-11.2991
▁수준으로	-11.2995
▁외의	-11.2997
위안	-11.2999
▁스톤	-11.2999
▁입당	-11.3003
▁감옥	-11.3007
고자	-11.3007
▁폐기	-11.3009
투자	-11.3009
▁하마	-11.301
▁조성된	-11.301
▁중독	-11.3013
▁해명	-11.3014
▁이름인	-11.3015
▁북동부	-11.3017
▁우승자	-11.3018
▁상업적	-11.3019
▁68	-11.3022
흠	-11.3024
▁돼	-11.3025
▁여겨	-11.3027
ps	-11.3027
한테	-11.3031
▁맥주	-11.3033
▁평소	-11.3033
▁베니	-11.3035
▁신중	-11.3036
▁잉	-11.3037
▁착공	-11.3037
▁과학기술	-11.3039
▁학원	-11.304
자형	-11.304
눌	-11.304
▁후임	-11.304
▁빛이	-11.3042
力	-11.3043
▁어드벤처	-11.3043
▁옥스퍼드	-11.3043
▁프로듀싱	-11.3043
▁횟수	-11.3043
火	-11.3043
許	-11.3043
野	-11.3043
▁프랑수아	-11.3043
詩	-11.3043
玄	-11.3044
▁갑작스	-11.3044
▁쓰촨	-11.3044
▁조건이	-11.3044
▁않으나	-11.3044
▁남게	-11.3045
▁테니스	-11.3046
▁외곽	-11.3046
▁칭찬	-11.3046
▁하나님	-11.3046
▁자체를	-11.3046
▁파르	-11.3047
▁히어로즈	-11.3047
▁서유럽	-11.3047
▁퇴임	-11.3047
▁비밀리에	-11.3047
▁힘든	-11.3047
▁슈팅	-11.3048
▁타카	-11.3048
▁Pa	-11.3048
▁리버	-11.3048
▁모로코	-11.3049
FF	-11.305
tr	-11.3052
▁밑에서	-11.3052
▁분출	-11.3054
▁담배	-11.3055
▁리틀	-11.3056
▁1848	-11.3057
▁치열	-11.3057
▁용인시	-11.3058
▁징계	-11.3059
▁가수로	-11.306
▁전지	-11.306
LS	-11.3062
▁에디	-11.3062
▁인접한	-11.3063
▁킨	-11.3065
▁톱	-11.3067
▁값이	-11.3068
▁평야	-11.3076
▁신규	-11.3078
▁피하기	-11.3079
▁경찰에	-11.3079
▁구출	-11.3081
ling	-11.3082
▁부분으로	-11.3082
▁입체	-11.3085
ach	-11.3093
▁기사를	-11.3094
▁이룬	-11.3094
ism	-11.3095
▁갈라	-11.3095
▁낼	-11.3095
리언	-11.3096
II	-11.3098
▁경연	-11.3098
업무	-11.3101
Se	-11.3102
ari	-11.3102
먼트	-11.3104
▁안정적	-11.3104
친다	-11.3105
tes	-11.311
▁조세	-11.3112
▁레이스	-11.3112
EL	-11.3112
▁계정	-11.3113
▁자율	-11.3115
▁연예	-11.3115
▁몬테	-11.3118
▁싫어	-11.312
공예	-11.312
공동	-11.3121
스트로	-11.3122
음이	-11.3122
▁북동쪽	-11.3122
▁우위	-11.3122
▁연기자	-11.3124
▁개발자	-11.3128
▁di	-11.313
▁지구에서	-11.3131
▁확인되었다	-11.3133
▁측면에서	-11.3133
▁대응하는	-11.3133
▁사람과	-11.3133
OL	-11.3136
▁태양을	-11.3136
▁니콜라이	-11.3137
▁대가	-11.3142
▁대위	-11.3143
▁알라	-11.3143
기자	-11.3144
▁갔	-11.3145
▁키스	-11.3145
▁참모	-11.3145
port	-11.3146
▁인정하고	-11.3147
▁대원	-11.315
▁먼지	-11.3151
▁견인	-11.3152
푸르	-11.3152
▁명예의	-11.3152
RC	-11.3153
▁전자기	-11.3154
▁종으로	-11.3155
장애	-11.3156
ever	-11.3156
▁남서쪽	-11.3158
▁엽	-11.3161
▁배치되어	-11.3162
▁가가	-11.3164
비로	-11.3164
▁독일인	-11.3167
▁손해	-11.3168
▁나비	-11.317
▁클리	-11.3171
(10	-11.3171
▁New	-11.3175
했음	-11.3179
▁글로	-11.318
▁내고	-11.3181
▁알렉	-11.3183
▁단식	-11.3183
돔	-11.3184
역학	-11.3185
크스	-11.3185
태종	-11.3188
▁치아	-11.3192
▁화해	-11.3195
RI	-11.3196
받지	-11.3196
▁나가사키	-11.3196
▁동위	-11.3197
▁리스트	-11.3198
治	-11.3199
▁넓게	-11.32
▁마케팅	-11.32
▁믿고	-11.32
▁바르샤바	-11.32
▁알루미늄	-11.32
▁프로게이머	-11.32
盧	-11.32
▁대웅전	-11.32
弘	-11.32
作	-11.32
▁팽창	-11.32
▁나란히	-11.32
▁다운로드	-11.32
▁이순신	-11.32
(2004	-11.32
(2001	-11.32
▁개인전	-11.3201
▁친왕	-11.3201
▁삼성전자	-11.3201
▁잡혀	-11.3201
▁함부르크	-11.3201
▁성리학	-11.3202
▁엔딩	-11.3202
▁카프	-11.3202
특히	-11.3202
▁드럼	-11.3203
▁횡단	-11.3203
▁동로마	-11.3203
▁숭배	-11.3203
▁이에야스	-11.3204
▁난카이	-11.3204
▁봉사	-11.3204
▁방침	-11.3207
▁57	-11.3208
▁패한	-11.3208
▁조별리그	-11.3209
▁왜곡	-11.321
▁남서부	-11.321
▁등번호	-11.3214
▁터치	-11.3218
▁95	-11.3218
▁몸이	-11.3219
▁일컫는다	-11.3219
▁그러자	-11.3219
아웃	-11.3222
▁JTBC	-11.3223
관왕	-11.3224
▁파이어	-11.3225
▁출시한	-11.3225
▁급제하여	-11.3225
▁뒷면	-11.3225
▁총괄	-11.3228
산초등학교	-11.3228
▁취재	-11.323
▁지사	-11.323
▁부근에서	-11.3231
▁이치	-11.3232
▁얻는다	-11.3237
▁엔진은	-11.3238
곡이	-11.3239
▁커지	-11.3239
레이터	-11.3239
▁조달	-11.324
경에	-11.3242
▁5,000	-11.3242
▁호랑이	-11.3243
부리그	-11.3244
베르트	-11.3245
호와	-11.3246
▁호조	-11.3247
▁인정하지	-11.3248
con	-11.3249
▁문과에	-11.3249
▁이룩	-11.3251
▁것에서	-11.3251
▁Time	-11.3254
▁설명한다	-11.3254
ele	-11.3256
산이	-11.3258
▁캐시	-11.3259
BC	-11.326
아들	-11.3261
▁저명	-11.3262
▁마르코	-11.3262
▁담당했다	-11.3263
▁근처에서	-11.3264
▁가려	-11.3264
해온	-11.3266
▁설도	-11.3267
▁몸에	-11.3268
▁고시	-11.327
역은	-11.327
▁운행한다	-11.3271
BO	-11.3272
▁의거	-11.3272
▁난민	-11.3274
생명	-11.3274
정은	-11.3275
▁첩	-11.3278
방위	-11.3279
▁섬에서	-11.328
▁모자	-11.3281
▁자이	-11.3281
▁레온	-11.3282
▁참가하고	-11.3286
함으로	-11.3286
▁대가로	-11.3287
▁사서	-11.3288
▁설치한	-11.3289
▁리가	-11.3292
이하	-11.3293
▁고고학	-11.3294
_16	-11.3294
▁쇼군	-11.3297
▁후임으로	-11.3298
▁자연수	-11.3299
▁살려	-11.3301
무장	-11.3304
▁출전했다	-11.3304
▁자문	-11.3307
▁군부	-11.331
〉(	-11.3313
권으로	-11.3318
해방	-11.3318
▁소매	-11.3319
▁la	-11.332
0°	-11.3321
▁오해	-11.3323
▁놓았다	-11.3324
르스	-11.3325
▁뛰어나	-11.3325
▁Ar	-11.3333
▁부대는	-11.3336
▁매사추세츠	-11.3337
▁부과	-11.3338
▁원장	-11.3339
▁Tr	-11.3339
싸	-11.334
▁역설	-11.3342
만장	-11.3343
▁동사	-11.3344
ich	-11.3345
las	-11.3345
무늬	-11.3346
헝가리	-11.3346
KBS	-11.3346
지휘	-11.3347
▁도루	-11.3347
▁반해	-11.3349
GB	-11.335
▁구조물	-11.3351
천왕	-11.3353
▁낮다	-11.3353
반응	-11.3356
▁문양	-11.3357
니가	-11.3357
判	-11.3358
藏	-11.3358
動	-11.3358
μ	-11.3358
▁걱정	-11.3358
▁닌텐도	-11.3358
▁미시시피	-11.3358
風	-11.3358
▁르네상스	-11.3358
派	-11.3358
쯔	-11.3358
佐	-11.3358
▁항공모함	-11.3358
▁윤보선	-11.3359
▁크리스마스	-11.3359
사고	-11.3359
▁센다이	-11.3359
▁있습니다	-11.3359
ン	-11.3359
▁스칼라	-11.3359
▁연극배우	-11.336
▁리믹스	-11.336
▁co	-11.336
++	-11.3361
▁검은색	-11.3362
▁로그	-11.3362
▁천수	-11.3362
▁소행성	-11.3363
▁세워져	-11.3363
슬라	-11.3365
▁다양하다	-11.3365
cus	-11.3367
천여	-11.3367
게이트	-11.3367
▁결혼하였다	-11.3368
▁언니	-11.337
▁최상위	-11.337
▁교수는	-11.337
보병사단	-11.337
▁1897	-11.337
▁80%	-11.3371
▁신도비	-11.3372
▁공용어	-11.3372
협력	-11.3376
▁인격	-11.3376
▁수렴	-11.3376
▁가깝다	-11.3377
▁아야	-11.3383
▁월드컵에	-11.3383
▁충주	-11.3384
▁사이클	-11.3384
▁유체	-11.3385
▁리만	-11.3387
라디오	-11.339
▁자신들이	-11.3391
▁동물들	-11.3392
▁법령	-11.3394
▁성남	-11.3394
▁건축가	-11.3395
▁아래에서	-11.3396
▁MP	-11.3396
▁대외	-11.3396
▁마약	-11.3396
▁손가락	-11.3397
건축	-11.3397
KO	-11.3397
▁수평	-11.34
소로	-11.3401
▁단위로	-11.3401
▁조부	-11.3404
미야	-11.3405
▁도시가	-11.3406
▁이경	-11.3407
문과	-11.3409
졌지만	-11.3409
▁상자	-11.3411
▁ISO	-11.3411
▁금산	-11.3411
▁박영	-11.3412
▁묘비	-11.3413
▁좌표	-11.3414
▁교섭	-11.3416
▁십자가	-11.342
My	-11.3424
▁꼭	-11.3425
만여	-11.3427
▁공직	-11.343
▁어머니가	-11.343
주의자들	-11.3431
▁군에	-11.3432
▁모터	-11.3434
ck	-11.3439
▁픽	-11.344
▁바가	-11.3442
▁오지	-11.3444
▁에드	-11.3445
해주는	-11.3448
기에는	-11.3449
적이며	-11.3449
▁취하고	-11.345
▁백화점	-11.345
세기부터	-11.3453
car	-11.3455
▁어워드	-11.3456
▁인체	-11.3456
▁고체	-11.3458
▁58	-11.3459
▁샹	-11.3459
졌	-11.3461
시대에	-11.3462
▁친분	-11.3463
▁마이크	-11.3464
▁AS	-11.3467
정이	-11.3474
▁성도	-11.348
▁미드	-11.3483
▁추가된	-11.3485
▁조약에	-11.3486
▁결정되었다	-11.3487
▁공격했다	-11.3489
mi	-11.3489
▁자동으로	-11.3489
▁등용	-11.3493
▁고쳐	-11.3493
tri	-11.3494
▁옮기	-11.3494
▁적다	-11.3495
도르	-11.3495
니까	-11.3497
)』	-11.3497
▁남한	-11.3497
▁감독과	-11.3497
▁자랑	-11.3498
미가	-11.3498
▁환경에서	-11.3499
▁묘사한	-11.35
▁수단으로	-11.3501
아프리카	-11.3501
▁큐	-11.3502
▁하차	-11.3502
▁연방의	-11.3504
▁생겨	-11.3504
만화	-11.3507
뮤	-11.3507
▁대신하여	-11.3508
툴	-11.3509
및	-11.351
년생	-11.351
롯	-11.3512
▁비판했다	-11.3512
物	-11.352
≫	-11.352
▁신칸센	-11.352
▁에스파냐	-11.352
流	-11.352
墓	-11.352
達	-11.352
▁스트레스	-11.352
▁아라비아	-11.3521
▁아라곤	-11.3521
전략	-11.3521
▁원로원	-11.3523
▁축출	-11.3524
▁부회장	-11.3524
▁색채	-11.3525
▁나오지	-11.3526
▁네팔	-11.3527
▁어려서	-11.3527
ai	-11.3528
총회	-11.3529
▁리비아	-11.353
▁잔류	-11.353
▁1889	-11.3532
제와	-11.3533
▁밀집	-11.3533
▁딘	-11.3534
▁대승	-11.3535
▁간단히	-11.3535
_12	-11.3535
▁나올	-11.3536
▁것으로서	-11.3537
▁지혜	-11.3537
▁플라이	-11.354
▁기리기	-11.354
▁동료들	-11.354
▁평가받	-11.3542
▁음반을	-11.3543
▁판본	-11.3543
▁아벨	-11.3543
▁주관하	-11.3544
▁정의한다	-11.3544
자에	-11.3545
제작	-11.3545
화되었다	-11.3546
▁동성애	-11.3546
▁차이로	-11.3546
▁이어진다	-11.3547
▁점유	-11.3549
▁가축	-11.3553
FS	-11.3554
▁인터	-11.3556
▁부모님	-11.3558
▁20%	-11.3559
%)	-11.356
▁것임	-11.3561
▁인터내셔널	-11.3561
▁가마	-11.3561
과정에서	-11.3562
경은	-11.3562
▁복장	-11.3565
보로	-11.3565
▁사리	-11.3566
▁묘역	-11.3567
재판	-11.3567
▁존재하고	-11.3569
▁방패	-11.3571
▁식으로	-11.3571
▁퓨	-11.3573
ier	-11.3573
▁문경	-11.3575
▁대상을	-11.3575
▁자체는	-11.3575
▁초연	-11.3577
▁개발이	-11.3577
▁푸른	-11.3577
are	-11.358
▁숨어	-11.3582
절차	-11.3586
▁RNA	-11.3587
▁이남	-11.3587
▁탱크	-11.359
▁관객	-11.3591
▁도입되었다	-11.3593
시나	-11.3594
▁성명	-11.3594
▁극동	-11.3595
▁딸이다	-11.3596
▁유래된	-11.3598
▁죽인	-11.3598
▁부채	-11.3599
▁달아	-11.36
MC	-11.3601
▁이세	-11.3601
▁받았으나	-11.3602
▁복귀했다	-11.3602
▁상고	-11.3603
▁고통을	-11.3603
▁그날	-11.3606
▁130	-11.3618
▁퀴	-11.3619
▁3,000	-11.3621
▁교정	-11.3622
▁사위	-11.3626
▁미상	-11.3626
그레	-11.3629
권에서	-11.363
▁소유권	-11.3633
▁전쟁으로	-11.3637
day	-11.3637
▁오늘	-11.3638
▁세상에	-11.3639
▁댐	-11.364
▁미노	-11.3641
▁이영	-11.3642
▁김경	-11.3643
▁기울	-11.3644
▁최후	-11.3645
iv	-11.3647
론과	-11.3651
▁않았다고	-11.3651
Bo	-11.3652
라와	-11.3659
▁신용	-11.3661
빠	-11.3661
어져	-11.3662
▁어미	-11.3668
중종	-11.367
act	-11.367
몸	-11.367
▁그렇지	-11.3672
▁동물의	-11.3673
▁선수를	-11.3675
▁학교에	-11.3676
랩	-11.3676
▁묻	-11.3678
▁총회	-11.3681
샬	-11.3684
溪	-11.3684
ν	-11.3684
▁맺은	-11.3684
▁총대주교	-11.3684
▁파시즘	-11.3684
▁평안북도	-11.3684
任	-11.3684
▁부통령	-11.3684
▁카운티	-11.3684
出	-11.3684
嘉	-11.3684
烈	-11.3684
▁콤팩트	-11.3684
秦	-11.3684
▁본거지	-11.3684
▁스크린도어	-11.3684
▁확신	-11.3684
▁마라톤	-11.3684
▁즈음	-11.3685
▁혜택	-11.3685
▁조금씩	-11.3686
▁많으며	-11.3686
공연	-11.3686
▁알레	-11.3686
н	-11.3686
▁담겨	-11.3687
▁잡았다	-11.3687
▁라이언	-11.3687
▁둘러싸여	-11.3688
▁회장을	-11.3688
▁손님	-11.3688
▁좌측	-11.3688
▁자발적	-11.3688
▁요원	-11.3689
▁조선일보	-11.3689
▁거기서	-11.3689
▁후자	-11.3691
▁사나	-11.3692
▁청룡	-11.3692
편이	-11.3692
▁권총	-11.3693
▁사망하자	-11.3694
▁감행	-11.3696
▁항쟁	-11.3696
▁실망	-11.3697
▁모시고	-11.3697
숙종	-11.3699
▁말레이	-11.3699
▁잡는	-11.3702
▁그랑프리	-11.3703
왕조	-11.3704
▁풍속	-11.3704
▁단기	-11.3707
▁수료	-11.3707
▁붙였다	-11.3708
순환	-11.3708
ura	-11.371
▁안드레	-11.3711
▁아인슈타인	-11.3711
▁성취	-11.3711
웠다	-11.3712
▁선원	-11.3713
▁어항	-11.3714
und	-11.3716
▁가져오	-11.3718
▁당수	-11.3719
▁도미	-11.3719
▁미군정	-11.3721
복음	-11.3721
소와	-11.3723
▁공격해	-11.3723
혹은	-11.3723
▁성숙	-11.3724
패로	-11.3724
▁뤼	-11.3725
▁재질	-11.3726
▁우세	-11.3727
▁획득한	-11.3727
▁소속팀	-11.3728
▁팀으로	-11.3728
▁황실	-11.373
Li	-11.373
▁연결된다	-11.373
▁올리고	-11.3731
▁인형	-11.3731
곡으로	-11.3733
▁구절	-11.3735
▁법조인	-11.3735
플로	-11.3735
ye	-11.3738
▁지휘하	-11.3739
▁조선로동당	-11.3743
항은	-11.3743
▁저널	-11.3744
▁그려진	-11.3746
▁다니는	-11.3754
증을	-11.3754
▁순수한	-11.3754
▁하단	-11.3758
▁경에	-11.3759
▁안티	-11.3761
▁메가	-11.3763
▁영화에	-11.3763
티나	-11.3763
지면	-11.3764
▁보일	-11.3765
▁경찰관	-11.3768
▁유방	-11.3768
▁맵	-11.377
▁진전	-11.3771
지오	-11.3771
▁회사가	-11.3773
모어	-11.3775
▁셸	-11.3776
▁피신	-11.3778
집을	-11.3778
▁이사회	-11.3779
나르	-11.378
ini	-11.3783
▁미국이	-11.3783
무대	-11.3784
ED	-11.3784
▁백색	-11.3786
▁단어는	-11.3787
▁히사	-11.3787
Jo	-11.3788
통을	-11.3788
▁극단	-11.3788
든지	-11.379
▁사라지	-11.379
▁성운	-11.379
ero	-11.379
▁이상으로	-11.3791
▁마찬가지	-11.3791
▁굿	-11.3793
▁릴리	-11.3794
노조	-11.3794
▁그루	-11.3798
▁선수이며	-11.38
▁비롯된	-11.3801
▁분리된	-11.3802
달아	-11.3802
▁가속	-11.3803
▁참여하고	-11.3806
나비	-11.3806
▁계획에	-11.3807
장사	-11.3808
▁Gu	-11.3809
▁카를로	-11.3811
▁아바	-11.3814
▁결승에서	-11.3816
▁수상한	-11.3817
▁출전하였다	-11.3817
▁시공	-11.3818
▁수련	-11.382
▁둥	-11.3823
ale	-11.3824
▁일대에	-11.3826
▁쪽에	-11.3828
▁받아들이	-11.383
▁연구는	-11.383
▁이원	-11.3832
터리	-11.3836
천리	-11.3837
임에도	-11.3839
▁죽을	-11.3844
옷	-11.3844
넘	-11.3844
듀	-11.3844
MHz	-11.3845
▁프로그램으로	-11.3845
컴퓨터	-11.3846
년대까지	-11.3847
ction	-11.3847
▁대치	-11.385
실험	-11.385
▁구경	-11.385
▁끊어	-11.385
▁드러났다	-11.385
▁라트비아	-11.385
▁스릴러	-11.385
▁천연기념물	-11.385
▁콘크리트	-11.385
▁협주곡	-11.385
시켰으며	-11.385
▁with	-11.385
▁냄새	-11.385
▁노태우	-11.385
▁적외선	-11.385
沙	-11.385
勝	-11.385
赤	-11.385
▁한국방송공사	-11.385
▁구마모토	-11.3851
▁추증	-11.3851
▁북부에	-11.3852
슬라브	-11.3852
▁살았던	-11.3853
▁총사령관	-11.3853
▁세워졌다	-11.3854
▁KIA	-11.3854
삼국사기	-11.3854
▁평가했다	-11.3855
▁영의정	-11.3855
▁보유한	-11.3855
머스	-11.3855
▁처녀	-11.3856
▁드물게	-11.3856
▁붉은색	-11.3858
곡리	-11.3859
범죄	-11.386
길이	-11.386
더니	-11.3861
▁바리	-11.3861
원과	-11.3861
▁들어갈	-11.3863
▁관리하는	-11.3863
▁정렬	-11.3863
▁조지프	-11.3864
▁우파	-11.3864
도어	-11.3864
▁정권이	-11.3865
▁향하는	-11.3867
파이어	-11.3867
▁아사히	-11.3867
▁포스	-11.3867
▁우승했다	-11.3868
▁단축	-11.3868
▁배우로	-11.3868
▁희곡	-11.3869
▁장거리	-11.387
▁착륙	-11.3871
▁흐르고	-11.3871
▁설치하고	-11.3873
▁원전	-11.3875
▁오나라	-11.3876
▁근본	-11.3876
▁작아	-11.3877
하임	-11.3879
▁코믹	-11.388
▁헤비	-11.3881
내가	-11.3883
▁갈아	-11.3884
클라	-11.3884
슬러	-11.3885
▁1-0	-11.3887
DP	-11.3887
▁생각한다	-11.3888
▁학파	-11.3888
▁대처	-11.3889
▁벗	-11.3889
▁마루	-11.3891
▁경우에도	-11.3891
▁대대적	-11.3893
▁행정동	-11.3894
▁이기고	-11.3894
▁데뷔하였고	-11.3895
블라	-11.3896
▁일으키는	-11.3896
▁달한다	-11.3898
▁청주시	-11.3899
▁의미하며	-11.3899
▁속성	-11.39
▁국소	-11.3901
파가	-11.3902
아과	-11.3902
▁산림	-11.3902
아래	-11.3903
▁끼	-11.3903
▁오락	-11.3905
▁은퇴했다	-11.3906
▁토니	-11.3906
▁비율이	-11.3907
▁윤리	-11.3907
▁전에는	-11.3908
▁과제	-11.3909
수단	-11.391
▁김재	-11.391
▁소생	-11.3913
▁재선	-11.3915
Ar	-11.3915
▁범인	-11.3917
▁개최국	-11.3917
▁해역	-11.3917
▁희생자	-11.3918
▁정한	-11.3918
▁버렸다	-11.3919
처분	-11.3921
관에	-11.3922
노미	-11.3923
▁용병	-11.3925
▁시나	-11.3926
▁마블	-11.3927
DA	-11.393
회원	-11.3931
음에도	-11.3933
pre	-11.3934
▁일대를	-11.3934
▁타르	-11.3934
▁160	-11.3935
▁테오도	-11.3937
▁자크	-11.3938
▁원자로	-11.394
▁왜성	-11.394
▁울리	-11.3941
▁보지	-11.3941
고려	-11.3942
▁실전	-11.3944
▁제국과	-11.3945
▁불신	-11.3947
▁사용되지	-11.3953
▁생물학	-11.3953
~6	-11.3954
▁cm	-11.3954
글리	-11.3959
▁과거에는	-11.396
▁가을에	-11.396
▁음악에	-11.396
▁토르	-11.396
민이	-11.3962
자기	-11.3962
▁순조	-11.3962
▁폭격기	-11.3963
▁램	-11.3964
▁67	-11.3967
▁되어서	-11.3971
▁연도	-11.3971
▁상용	-11.3972
▁적지	-11.3973
암동	-11.3974
▁걸리	-11.3974
▁지방도	-11.3978
▁그렸다	-11.398
iss	-11.398
▁종목에서	-11.398
▁제독	-11.3983
▁이어진	-11.3983
▁줄어들	-11.3985
▁느낀	-11.3985
된다고	-11.3986
마스	-11.3986
스탄	-11.3988
▁앵	-11.3988
▁For	-11.3989
▁왕국을	-11.3989
▁상행	-11.399
》("	-11.399
▁생각할	-11.399
파일	-11.3991
세종	-11.3991
▁우승에	-11.3992
통제	-11.3993
▁도카이	-11.3995
▁웅	-11.3996
▁사인	-11.3998
col	-11.3999
▁데모	-11.4
픈	-11.401
꾸	-11.401
현은	-11.4012
▁왔으며	-11.4012
임이	-11.4013
깨	-11.4014
툼	-11.4016
툰	-11.4017
헨	-11.4017
턱	-11.4018
▁방송되었다	-11.4018
엔터테인먼트	-11.4018
태평양	-11.4018
기독교	-11.4019
▁경상남도의	-11.4019
땃쥐	-11.4019
▁기고	-11.4019
校	-11.4019
▁결정적	-11.4019
工	-11.402
右	-11.402
車	-11.402
常	-11.402
在	-11.402
▁개기일식	-11.402
▁짙은	-11.402
▁챌린지	-11.402
▁친일반민족행위	-11.402
▁케임브리지	-11.402
▁폭넓	-11.402
團	-11.402
線	-11.402
▁김옥균	-11.402
▁늦어	-11.402
▁얻지	-11.402
▁위키백과	-11.402
▁흥선대원군	-11.402
伯	-11.402
湖	-11.402
甲	-11.402
志	-11.402
▁최하위	-11.402
(2008	-11.402
▁블랙홀	-11.4021
터널	-11.4021
▁월요일	-11.4022
▁만족시키는	-11.4022
▁나쁜	-11.4022
▁노동자들	-11.4023
▁득표율	-11.4023
▁그레고리오	-11.4024
▁받았지만	-11.4024
▁워너	-11.4024
▁습지	-11.4024
▁석탑	-11.4024
정사	-11.4025
▁관람	-11.4025
▁모욕	-11.4026
▁분명히	-11.4026
▁900	-11.4027
▁받으면서	-11.4027
▁두께	-11.4027
▁로빈	-11.4028
▁날씨	-11.4029
▁복용	-11.4029
하늘	-11.403
▁바깥쪽	-11.403
참모	-11.4031
▁확실히	-11.4031
▁궁중	-11.4034
▁카를로스	-11.4035
▁벌어졌다	-11.4037
▁신도	-11.4037
▁종래	-11.4038
력과	-11.4038
▁미션	-11.4039
위성	-11.4039
▁파손	-11.4039
▁해결하기	-11.404
워드	-11.404
▁다케다	-11.404
▁1880	-11.4041
상황	-11.4042
FL	-11.4042
▁복합체	-11.4046
▁53	-11.4048
Mar	-11.4048
모음	-11.4049
▁축적	-11.4051
2000	-11.4051
버드	-11.4051
▁환원	-11.4052
지리	-11.4053
▁전략적	-11.4054
타케	-11.4054
▁주장한	-11.4056
▁향한	-11.4056
▁런던에서	-11.4057
▁봉안	-11.4057
▁풍자	-11.4057
▁남동쪽으로	-11.4059
▁IS	-11.406
SP	-11.406
▁직면	-11.406
▁호남	-11.4064
▁개종	-11.4065
▁없어서	-11.4066
▁시대부터	-11.4067
▁병역	-11.4068
AD	-11.4069
▁주어진다	-11.4069
▁공신	-11.4071
▁형성되어	-11.4072
▁품고	-11.4074
▁후작	-11.4075
▁역임하고	-11.4078
▁비단	-11.408
▁|	-11.4082
체인	-11.4082
▁빌려	-11.4084
▁한미	-11.4085
▁막아	-11.4085
▁관중	-11.4086
▁체조	-11.4086
▁묶어	-11.4086
▁자전	-11.4087
▁만일	-11.4088
Be	-11.4088
▁기점으로	-11.4088
개월간	-11.4089
To	-11.409
주택	-11.4091
▁상태였다	-11.4092
▁도시들	-11.4093
▁소통	-11.4093
되어있다	-11.4094
승지	-11.4095
▁벽화	-11.4096
▁가구	-11.4097
결정	-11.4097
할때	-11.4097
▁건축물이다	-11.41
▁취임하였다	-11.41
▁탐험	-11.4103
▁Fe	-11.4104
망을	-11.4104
▁96	-11.4108
▁보내는	-11.4109
변화	-11.411
▁등극	-11.4113
▁어디	-11.4116
색은	-11.4117
▁결제	-11.4117
▁마음에	-11.4117
qu	-11.4118
▁금호	-11.4118
▁점령했다	-11.4119
▁광물	-11.4119
▁황제로	-11.4124
▁대행	-11.4127
▁일조	-11.4127
▁제국에	-11.4129
▁동생인	-11.413
▁연고지	-11.4131
▁종들	-11.4131
▁벼	-11.4133
▁손으로	-11.4133
▁103	-11.4134
▁유연	-11.4134
▁ma	-11.4135
GM	-11.4137
▁언제	-11.4137
▁레인	-11.4138
▁파산	-11.4138
~18	-11.414
금지	-11.4141
▁360	-11.4141
▁적어	-11.4142
▁흔적이	-11.4143
화는	-11.4145
▁표기법	-11.4145
▁단어를	-11.4146
목으로	-11.415
▁61	-11.4156
▁광대	-11.4157
▁아이스	-11.4159
베크	-11.416
5,000	-11.416
▁가자	-11.416
좌상	-11.4167
▁비전	-11.4168
▁압도적	-11.4169
전차	-11.4171
었다고	-11.4173
▁AB	-11.4174
춤	-11.4181
둑	-11.4182
▁비판하였다	-11.4182
皇	-11.4191
語	-11.4192
ā	-11.4192
▁스튜어트	-11.4192
▁쌓은	-11.4192
▁올랐으며	-11.4192
▁왼손	-11.4192
▁일으킬	-11.4192
国	-11.4192
姜	-11.4192
戰	-11.4192
歌	-11.4192
陳	-11.4192
手	-11.4192
▁시직경	-11.4192
▁까닭	-11.4192
▁지선	-11.4193
튀	-11.4193
▁광범위하	-11.4193
옌	-11.4193
ain	-11.4193
▁새겨져	-11.4193
▁추첨	-11.4194
캐나다	-11.4194
▁타이베이	-11.4194
▁반지름	-11.4194
실을	-11.4195
▁답변	-11.4195
▁펑크	-11.4195
▁하워드	-11.4195
▁오른손	-11.4195
▁벽돌	-11.4195
▁형성한다	-11.4197
▁빈곤	-11.4197
▁신념	-11.4198
▁지칭	-11.4199
▁줄거리	-11.4199
▁따온	-11.42
▁그러던	-11.42
▁거두며	-11.42
▁다루	-11.4201
러시아	-11.4201
▁면허	-11.4201
RM	-11.4202
▁낸다	-11.4202
▁정전	-11.4202
▁앨범에	-11.4203
▁유동	-11.4204
▁유대교	-11.4204
내용	-11.4204
▁그렇지만	-11.4205
▁통근	-11.4205
▁매입	-11.4206
▁아시	-11.4206
▁요약	-11.4207
▁고려대학교	-11.4208
▁유진	-11.4209
▁싸웠다	-11.4209
모스	-11.421
이어	-11.4211
▁뚜렷한	-11.4212
▁대통령에	-11.4214
▁만료	-11.4216
▁상하	-11.4216
▁이끈	-11.4221
▁한성부	-11.4223
▁스타리그	-11.4223
▁콤	-11.4225
PM	-11.4225
▁토양	-11.4226
(2012	-11.4227
▁증후군	-11.4228
▁신축	-11.4228
것이	-11.4229
▁실재	-11.4229
▁이탈리아에서	-11.4229
라드	-11.4231
▁체포되었다	-11.4232
▁중반에	-11.4234
▁미소	-11.4238
(12	-11.4239
라노	-11.4242
자이자	-11.4243
▁플래시	-11.4244
▁회계	-11.4245
▁적합	-11.4246
▁밀러	-11.4247
투표	-11.4249
▁기리	-11.4249
▁외관	-11.425
되므로	-11.425
▁까	-11.4252
▁생계	-11.4252
업을	-11.4255
▁다케	-11.4257
▁이식	-11.4258
위와	-11.4259
▁속하며	-11.4259
강에서	-11.4261
▁싼	-11.4265
NH	-11.4268
▁상연	-11.4269
lan	-11.4271
▁드래프트에서	-11.4273
▁자세한	-11.4274
▁자유형	-11.4274
▁쏘	-11.4274
▁페이스	-11.4276
니오	-11.4277
▁76	-11.4277
▁왕권	-11.4278
▁PS	-11.4278
▁전도	-11.4281
▁사명	-11.4282
▁사업자	-11.4284
▁레닌	-11.4284
▁아비	-11.4284
▁이병	-11.4286
▁공감	-11.4286
▁바이오	-11.4287
▁용서	-11.4288
▁최적화	-11.4288
hr	-11.4289
▁제수	-11.429
지점	-11.4291
▁만들어져	-11.4293
▁리스	-11.4295
파르	-11.4296
파스	-11.4297
오고	-11.4298
▁밝기	-11.4299
그래	-11.4299
▁기하여	-11.4301
ey	-11.4301
▁평행	-11.4301
▁거인	-11.4303
페어	-11.4304
르노	-11.4305
ze	-11.4305
net	-11.4307
▁치안	-11.4309
기계	-11.4309
▁독립된	-11.4313
▁쫓아	-11.4315
▁별들	-11.4318
▁배우자	-11.432
▁동조	-11.4321
▁교단	-11.4321
층이	-11.4321
▁광해군	-11.4322
▁프로그램이	-11.4325
▁거주지	-11.4326
▁부시	-11.4328
▁부천	-11.4331
▁대통령으로	-11.4331
(2016	-11.4333
▁함으로써	-11.4333
론이	-11.4336
▁쇼와	-11.4337
식과	-11.4341
마크	-11.4341
▁82	-11.4343
TP	-11.4344
▁바꾼	-11.4344
▁암시	-11.4345
산리	-11.4347
▁아가	-11.4348
▁일어나지	-11.4348
▁충족	-11.435
▁형성하고	-11.4351
건물	-11.4352
플루	-11.4353
▁노드	-11.4353
▁설치하여	-11.4353
▁성문	-11.4356
▁자선	-11.4357
▁가격이	-11.4359
〉()	-11.436
▁상의	-11.4361
▁복음	-11.4363
못	-11.4364
等	-11.4368
空	-11.4368
居	-11.4368
ι	-11.4368
竹	-11.4368
▁레바논	-11.4368
▁머물렀다	-11.4368
▁보헤미아	-11.4368
▁설일체유부	-11.4368
▁케네디	-11.4368
▁즐겨	-11.4368
▁허리케인	-11.4368
▁통틀어	-11.4368
▁마천루	-11.4368
▁자민당	-11.4368
秀	-11.4368
뷰	-11.4368
맞	-11.4368
▁해왕성	-11.4368
▁팩	-11.4368
▁스콧	-11.4368
▁커널	-11.4368
평범한	-11.4369
▁빨간색	-11.437
▁생략	-11.437
▁군함	-11.437
▁성전	-11.4371
▁대표이사	-11.4371
▁API	-11.4372
▁삼국시대	-11.4372
▁할머니	-11.4372
주식회사	-11.4372
팝	-11.4372
▁야마토	-11.4373
▁Tour	-11.4373
옆면	-11.4374
파와	-11.4375
▁복소수	-11.4376
▁없던	-11.4376
북면	-11.4377
▁타원형	-11.4378
▁연소	-11.438
형과	-11.4381
lus	-11.4382
▁초나라	-11.4382
▁슬로베니아	-11.4382
예를	-11.4382
▁캠	-11.4383
▁한사람	-11.4383
▁맛이	-11.4383
▁마음이	-11.4383
ade	-11.4384
▁1800	-11.4386
▁버터	-11.4387
▁라오스	-11.4388
▁학회	-11.4389
바람	-11.439
우며	-11.4391
▁드림	-11.4391
▁점성술	-11.4391
졌던	-11.4391
청년	-11.4394
▁단행	-11.4398
▁떠오르	-11.4399
▁일시	-11.44
▁파이널	-11.44
red	-11.4401
▁부자	-11.4401
▁네오	-11.4401
▁평론가	-11.4401
▁향후	-11.4401
▁삼림	-11.4402
▁하행	-11.4402
하되	-11.4402
광고	-11.4404
▁지키고	-11.4405
보건	-11.4405
▁유래되었다	-11.4406
▁부당	-11.4407
키타	-11.4408
▁출가	-11.4411
▁수신	-11.4411
▁드리	-11.4411
▁물어	-11.4412
▁결선	-11.4412
▁승격되었다	-11.4418
붙	-11.4418
▁왕건	-11.4419
▁과목	-11.442
잡지	-11.442
▁매개	-11.4422
_19	-11.4425
▁논리학	-11.4425
▁방문하여	-11.4425
카쓰	-11.4429
▁창시자	-11.443
카라	-11.4431
▁둥지	-11.4432
릭스	-11.4434
▁주목할	-11.4435
▁룰	-11.4437
▁충전	-11.444
▁해저	-11.444
▁그밖에	-11.4442
전력	-11.4443
▁창고	-11.4444
군수	-11.4444
▁초과	-11.4445
▁탁월	-11.4446
▁예수회	-11.4447
▁일어나고	-11.4447
▁서정	-11.4448
수이다	-11.4448
▁창업	-11.445
▁비율은	-11.445
▁아종	-11.4451
▁불가능한	-11.4452
▁생물학적	-11.4453
판의	-11.4454
협정	-11.4454
전시	-11.4456
▁빠져나	-11.4456
아라	-11.4457
신경	-11.4458
▁수복	-11.4458
▁환경에	-11.446
▁이래로	-11.4461
▁똑같은	-11.4461
▁죽였다	-11.4463
▁협약	-11.4466
▁방문한	-11.4468
▁딸로	-11.4469
▁도리	-11.4469
▁출전한	-11.447
▁무성	-11.4471
▁시야	-11.4471
▁We	-11.4471
▁대신해	-11.4472
▁계약이	-11.4472
께	-11.4472
판에	-11.4472
▁드래곤	-11.4474
▁오프	-11.4474
▁문예	-11.4475
▁차이는	-11.4476
▁미쓰	-11.4476
▁석조	-11.4476
▁남겨	-11.4477
▁서문	-11.4477
▁정말	-11.4478
▁캐나다에서	-11.4478
▁자음	-11.4479
▁활동은	-11.448
▁요건	-11.4482
▁기존에	-11.4484
▁의원은	-11.4486
▁방향에	-11.449
▁재활	-11.4491
!!	-11.4492
▁보니	-11.4492
▁형태는	-11.4495
▁조종사	-11.4496
▁가고	-11.4497
▁해소	-11.4498
론에	-11.4498
▁결혼하여	-11.45
▁설명하고	-11.4501
▁기록해	-11.4502
▁기본권	-11.4503
▁주사	-11.4504
원장	-11.4507
▁주오	-11.4508
보살	-11.4509
▁금성	-11.451
▁시즌부터	-11.451
▁전속	-11.4513
▁톤	-11.4513
▁용인	-11.4516
정리	-11.4522
▁군인들	-11.4522
▁걸린	-11.4525
바다	-11.4528
에르	-11.4529
포로	-11.4529
붕	-11.453
▁62	-11.453
▁무효	-11.453
주고	-11.4536
▁초창기	-11.4538
▁활약한	-11.454
▁안전한	-11.4541
노선	-11.4544
▁모니터	-11.4545
▁국제적인	-11.4545
▁이북	-11.4546
諸	-11.4546
支	-11.4546
晉	-11.4546
훼	-11.4546
т	-11.4546
▁맏아들	-11.4546
▁브라우저	-11.4546
▁왜냐하면	-11.4546
亭	-11.4546
局	-11.4546
畵	-11.4546
랏	-11.4546
샨	-11.4546
▁바티칸	-11.4546
▁콜로라도	-11.4546
能	-11.4546
톡	-11.4546
▁스크린	-11.4546
▁라이온즈	-11.4546
船	-11.4546
▁블라디미르	-11.4546
▁아폴로	-11.4546
▁고인돌	-11.4546
▁사운드트랙	-11.4546
錫	-11.4547
▁올라간다	-11.4547
▁시베리아	-11.4549
▁있거나	-11.4549
▁침투	-11.4549
▁경신	-11.4549
▁쓰시마	-11.455
▁팔라	-11.455
▁기상청	-11.4551
▁말하면	-11.4551
▁아레나	-11.4553
▁장단	-11.4556
▁민속	-11.4556
▁내려가	-11.4556
▁스틸	-11.4556
갔으며	-11.4556
▁1892	-11.4556
▁성체	-11.4557
▁켈리	-11.4557
▁레이저	-11.4557
▁뽑아	-11.4557
▁참가하는	-11.4559
▁필터	-11.4559
▁방사선	-11.456
▁밝히고	-11.456
form	-11.456
(2014	-11.4561
▁투수로	-11.4563
▁장군이	-11.4563
▁100%	-11.4563
벌레	-11.4565
▁타이거스	-11.4565
▁용도	-11.4565
▁남기고	-11.4565
▁수면	-11.4566
실장	-11.4566
▁구분된다	-11.4566
▁140	-11.4567
▁최저	-11.4569
▁뻔	-11.457
▁감안	-11.4573
▁확정되었다	-11.4575
▁학업	-11.4576
▁총애	-11.4576
int	-11.4577
부원군	-11.4578
▁구형	-11.4579
▁팀에서	-11.458
심이	-11.4581
▁대변인	-11.4581
세르	-11.4583
▁해당된다	-11.4583
▁논쟁이	-11.4584
▁염색체	-11.4585
▁시선	-11.4588
▁만남	-11.4588
▁가정에서	-11.4588
▁친척	-11.4592
▁신정	-11.4595
▁||	-11.4596
▁오사카부	-11.4598
플리	-11.4599
구와	-11.4599
시타	-11.4602
▁경찰서	-11.4604
_13	-11.4605
▁팔아	-11.4605
▁친선	-11.4608
▁뇌물	-11.461
축제	-11.461
▁공모	-11.4611
▁일생	-11.4612
ook	-11.4612
▁조형	-11.4613
▁겹	-11.4613
자본	-11.4614
골로	-11.4614
ref	-11.4616
이프	-11.4618
사령관	-11.4619
▁거부하고	-11.462
도쿄	-11.4621
세손	-11.4623
▁170	-11.4625
▁북위	-11.4625
▁원내	-11.4627
▁안보	-11.4632
▁전무	-11.4632
▁시즌에서	-11.4632
▁발트	-11.4638
▁대두	-11.4638
자들과	-11.4644
늘	-11.4644
(2007	-11.4647
▁독일이	-11.4648
ok	-11.4651
바흐	-11.4652
▁면제	-11.4653
웃	-11.4653
ö	-11.4653
▁무어	-11.4654
▁폭로	-11.4655
안은	-11.4656
▁일부분	-11.4659
▁출신이며	-11.4659
▁허리	-11.466
▁자사	-11.4661
올라	-11.4664
▁본인이	-11.4665
왔으며	-11.4668
cu	-11.4669
▁유성	-11.467
line	-11.467
설이	-11.4672
▁대피	-11.4673
민의	-11.4675
▁물자	-11.4676
▁mo	-11.4676
▁하루에	-11.468
루타	-11.4682
▁심하게	-11.4682
▁이론에	-11.4686
사장	-11.4687
▁돌로	-11.4691
▁77	-11.4691
▁결정하였다	-11.4694
틀리	-11.4696
▁Sa	-11.4697
▁하에서	-11.4697
▁보편적	-11.47
바드	-11.4701
▁상공	-11.4702
▁81	-11.4707
▁우아	-11.4708
▁마라	-11.4709
▁펴	-11.4712
▁도시에	-11.4714
▁희극	-11.4715
▁거리는	-11.4716
므	-11.4717
인들을	-11.4717
▁99	-11.472
▁보호하기	-11.472
랫	-11.4723
주의와	-11.4724
▁시가지	-11.4724
▁시외버스	-11.4727
▁선과	-11.4727
다람쥐	-11.4727
思	-11.4728
楊	-11.4728
▁긴테쓰	-11.4728
▁꼭짓점	-11.4728
▁리우데자네이루	-11.4728
▁올랐고	-11.4728
▁자랐다	-11.4728
遠	-11.4728
邉	-11.4728
鍾	-11.4728
▁중심기압	-11.4728
關	-11.4728
邑	-11.4728
千	-11.4728
▁비타민	-11.4728
朝鮮	-11.4728
▁컨셉	-11.4728
▁브뤼셀	-11.4728
▁크리스토퍼	-11.4728
▁뉴욕주	-11.4729
슈타인	-11.4729
▁북아프리카	-11.473
▁GDP	-11.473
▁종교개혁	-11.473
▁남동생	-11.473
▁반란군	-11.4733
▁어뢰	-11.4736
▁중수	-11.4737
▁타협	-11.4737
▁돌격	-11.4737
캄	-11.4738
▁공습	-11.4741
과학기술	-11.4741
▁별개	-11.4742
_21	-11.4742
▁자택	-11.4743
▁생성된	-11.4743
전투	-11.4744
」(	-11.4745
▁지침	-11.4745
▁음료	-11.4748
▁중의원	-11.4748
▁컬럼비아	-11.4749
▁위헌	-11.475
▁제조업	-11.4751
▁충청도	-11.4752
▁영역에서	-11.4754
▁한층	-11.4757
▁벤치	-11.476
▁청색	-11.476
▁자작	-11.4761
▁로비	-11.4762
▁주차장	-11.4763
▁자격으로	-11.4764
tro	-11.4764
(7	-11.4765
▁적합한	-11.4766
▁되었을	-11.4766
▁수익을	-11.4768
발의	-11.477
▁서북	-11.4771
▁도와주	-11.4772
▁하프	-11.4773
▁루터	-11.4773
▁개념으로	-11.4774
▁저지대	-11.4774
▁별명이	-11.4775
미스	-11.4775
▁험	-11.4775
▁오스	-11.4775
전대	-11.4776
▁나타	-11.4776
▁쌍대	-11.4777
▁장기간	-11.4778
▁사살	-11.478
학의	-11.4781
▁Of	-11.4783
▁영문	-11.4784
▁갖지	-11.4786
고래	-11.4787
▁아카데미상	-11.4787
수산	-11.4788
▁독일은	-11.4789
▁도망	-11.479
▁박정	-11.4792
▁루프	-11.4792
▁너무나	-11.4792
법칙	-11.4793
▁생긴다	-11.4794
▁문화와	-11.4796
전으로	-11.4797
▁불과하다	-11.4799
죄를	-11.4799
지수	-11.48
종류	-11.4801
▁원반	-11.4801
▁정치인으로	-11.4806
▁모금	-11.4806
쳤고	-11.4807
▁이해할	-11.481
▁모스	-11.4811
▁곡물	-11.4811
▁지적했다	-11.4813
▁출발하여	-11.4815
▁진출한	-11.4815
▁똑같	-11.4815
였을	-11.4819
비와	-11.4819
측은	-11.4819
▁보도했다	-11.4821
▁게이지	-11.4822
▁NC	-11.4823
리즘	-11.4824
▁긴장	-11.4825
청이	-11.4826
▁광복군	-11.4828
AI	-11.4831
개국에서	-11.4831
▁군이	-11.4831
大夫	-11.4831
마라	-11.4833
시대의	-11.4834
▁무대로	-11.4835
(2005	-11.4836
▁둔다	-11.4837
▁힘들	-11.4841
▁지닌다	-11.4842
회의에서	-11.4844
▁양상	-11.4844
▁정문	-11.4844
사리	-11.4846
ound	-11.4848
▁튜	-11.485
▁영역에	-11.485
▁팀인	-11.4854
IE	-11.4857
▁절정	-11.4857
분자	-11.4858
▁차량이	-11.4859
원군	-11.486
워터	-11.4861
▁101	-11.4861
보리	-11.4868
▁누이	-11.4869
사전	-11.4869
소녀	-11.487
▁버전이	-11.4871
뤄	-11.4872
아스	-11.4874
▁st	-11.4879
부작	-11.4879
획	-11.488
▁베어	-11.4881
기록을	-11.4883
▁우지	-11.4894
▁루시	-11.4894
▁앨범인	-11.4896
▁책임자	-11.4897
▁학과	-11.4897
▁언급한	-11.4897
목을	-11.4897
▁지도자들	-11.4898
▁전체에	-11.4898
▁핑	-11.4899
▁분명	-11.4901
▁통치자	-11.4901
▁즉위한	-11.4903
스틴	-11.4905
▁자리잡	-11.4905
▁팀들	-11.4908
▁새겨	-11.4909
▁경기에서는	-11.4912
侍	-11.4913
藤	-11.4913
節	-11.4913
▁다녔다	-11.4913
▁마다가스카르	-11.4913
▁카스티야	-11.4913
反	-11.4913
虎	-11.4913
農	-11.4913
뚜	-11.4913
▁화강암	-11.4913
彦	-11.4913
▁플레이스테이션	-11.4913
草	-11.4913
▁요르단	-11.4913
▁즐길	-11.4913
▁스파르타	-11.4913
結	-11.4913
Robert	-11.4913
▁유니폼	-11.4913
徐	-11.4913
▁재단법인	-11.4914
▁드러머	-11.4914
▁파라과이	-11.4914
▁펜싱	-11.4914
▁로얄	-11.4914
▁금요일	-11.4914
▁구할	-11.4915
▁남동쪽	-11.4915
▁연못	-11.4915
▁윌슨	-11.4917
▁짐작	-11.4917
▁가나가와현	-11.4917
▁파도	-11.4917
타리	-11.4917
▁치하	-11.4917
▁거느리고	-11.4917
▁무실점	-11.4918
50,000	-11.4918
▁도시철도	-11.4918
▁피치	-11.4918
▁경제적으로	-11.492
▁거처	-11.4922
▁더해	-11.4922
MO	-11.4922
▁CF	-11.4923
▁사업가	-11.4923
▁혈통	-11.4923
뷔	-11.4925
▁여의도	-11.4926
▁띤다	-11.4927
▁익스프레스	-11.4928
투어	-11.4928
▁침체	-11.4928
▁안치	-11.4929
▁장면이	-11.4929
▁둘러	-11.4929
▁찾아내	-11.4929
스카야	-11.4929
안이	-11.493
석으로	-11.493
▁장미	-11.493
▁체결된	-11.4931
▁선수들이	-11.4932
▁같은해	-11.4933
▁붙여진	-11.4936
▁되어있다	-11.4937
▁천문대	-11.4937
우지	-11.4939
▁양자로	-11.4939
▁구도	-11.494
▁미나	-11.4942
▁승계	-11.4944
▁이용자	-11.4944
소송	-11.4944
자금	-11.4945
▁누구나	-11.4946
▁l	-11.4946
▁만성	-11.4947
▁원산지	-11.4947
지역에서	-11.4948
부르	-11.495
스럽게	-11.4951
SL	-11.4952
▁실패한	-11.4952
_22	-11.4952
▁상법	-11.4953
▁비평	-11.4954
▁등판해	-11.4954
▁봄에	-11.4955
▁안장	-11.4956
슬리	-11.4957
▁사회에서	-11.4957
대구	-11.4957
NE	-11.496
▁더욱이	-11.496
▁상점	-11.4962
보기	-11.4969
▁장덕	-11.497
▁하류	-11.4972
▁시합	-11.4975
▁군대에	-11.4977
▁제압	-11.4977
▁캄	-11.4977
▁It	-11.4978
▁늘리	-11.4981
▁담당한다	-11.4984
▁학자들은	-11.4985
▁・	-11.4985
IF	-11.4987
▁부피	-11.4987
▁알려	-11.4988
▁파기	-11.4989
▁시장에	-11.4989
분부터	-11.4991
▁그곳에	-11.4994
▁마을에	-11.4994
ON	-11.4996
▁가신	-11.4997
▁오라	-11.4999
▁한양	-11.4999
▁작품에서	-11.5004
▁그룹으로	-11.5005
▁카나	-11.5006
리노	-11.5007
공이	-11.5008
▁이루어졌	-11.5009
▁동력	-11.5012
▁게시	-11.5012
▁이루어지	-11.5014
ern	-11.5014
▁정책은	-11.5018
▁유용	-11.5018
▁살게	-11.5019
▁%	-11.5019
▁이마	-11.502
▁뒤에도	-11.502
끝	-11.5022
▁66	-11.5023
▁에리	-11.5024
▁연구원	-11.5027
qui	-11.5028
▁일일	-11.5028
書院	-11.5029
▁시위대	-11.5031
▁민정	-11.5031
회로	-11.5036
ise	-11.5036
콜라	-11.5037
▁이번에	-11.5038
▁형성하는	-11.504
내의	-11.5041
▁왈	-11.5042
예프	-11.5043
▁기초를	-11.5044
▁언급했다	-11.5045
타나	-11.5047
경기장	-11.5047
ler	-11.5048
▁그리스도의	-11.5048
▁지나는	-11.5053
▁3.1	-11.5053
위는	-11.5053
시카	-11.5054
▁메타	-11.5054
ob	-11.5055
고문	-11.5056
Mo	-11.5056
노동	-11.5057
▁채권	-11.5057
로그	-11.5057
▁세속	-11.5058
▁팀과	-11.5059
▁경관	-11.5061
▁디아	-11.5068
▁당주	-11.5068
▁뻗어	-11.5072
▁되찾	-11.5077
▁접한	-11.5078
속의	-11.5079
▁노론	-11.5081
▁공격으로	-11.5082
▁고르	-11.5083
▁파생	-11.5085
▁직원들	-11.5086
설계	-11.5086
▁펜실베이니아	-11.5088
리그에서	-11.509
국에	-11.5091
▁세례	-11.5091
천이	-11.5095
▁대한민국과	-11.5096
▁그것들	-11.5098
▁국보	-11.5098
▁되지만	-11.5098
륵	-11.5099
▁들어올	-11.5099
夫	-11.51
▁발견하였다	-11.5101
▁Sc	-11.5101
텀	-11.5102
▁직할	-11.5102
禪	-11.5102
렁	-11.5102
觸	-11.5102
▁현대에	-11.5102
▁루이지애나	-11.5102
區	-11.5102
鄕	-11.5102
William	-11.5102
▁읽는	-11.5102
廳	-11.5102
館	-11.5102
▁튀니지	-11.5102
왔던	-11.5102
し	-11.5102
▁트로이	-11.5102
▁시민권	-11.5102
▁두개골	-11.5102
▁오프닝	-11.5102
▁레슬링	-11.5103
▁필리프	-11.5103
▁프란츠	-11.5103
▁북아일랜드	-11.5103
▁휴스턴	-11.5103
▁스마트	-11.5104
▁데서	-11.5104
학사	-11.5105
▁자아	-11.5106
▁않는다고	-11.5106
▁채굴	-11.5106
▁담긴	-11.5106
▁연쇄	-11.5107
▁호환	-11.5107
nes	-11.5109
▁성곽	-11.5109
▁형벌	-11.5109
▁Car	-11.511
▁키우	-11.5111
▁선보였다	-11.5113
▁남산	-11.5113
ei	-11.5113
▁멜로디	-11.5113
▁일하고	-11.5113
▁특색	-11.5114
엉	-11.5118
쟁이	-11.5119
▁부름	-11.5119
▁발칸	-11.512
“	-11.5121
봄	-11.5121
갱	-11.5121
▁불교의	-11.5122
바둑	-11.5123
바나	-11.5124
▁바른	-11.5124
▁정동	-11.513
▁무엇	-11.5132
▁조선시대에	-11.5134
▁School	-11.5134
▁김형	-11.5135
▁분수	-11.5135
케르	-11.5136
천동	-11.5136
▁혼동	-11.5138
▁대차	-11.5138
누마	-11.5142
▁민요	-11.5142
타가	-11.5145
기기	-11.5145
▁피해가	-11.5146
자치	-11.5146
▁이론에서	-11.5146
AA	-11.5146
▁전문가들	-11.5147
섬유	-11.5148
▁위생	-11.5148
산으로	-11.5148
▁진도	-11.5149
▁강사	-11.5149
▁보복	-11.515
▁진행되고	-11.515
▁화력	-11.515
아트	-11.5151
▁경질	-11.5152
니우스	-11.5153
▁비극	-11.5155
▁자제	-11.5157
▁종영	-11.5159
▁점과	-11.5161
▁휠	-11.5161
▁실권	-11.5162
음반	-11.5162
▁전체의	-11.5163
구성	-11.5167
▁위쪽	-11.5167
▁알지	-11.5167
▁청동	-11.5167
것은	-11.5168
▁보게	-11.5169
▁이때부터	-11.5169
▁발언을	-11.5172
▁갈래	-11.5172
▁일화	-11.5172
다지	-11.5173
학파	-11.5175
▁암호화	-11.5175
▁간토	-11.5175
영이	-11.5175
▁닭	-11.5178
▁심야	-11.5178
천면	-11.5178
▁치즈	-11.5179
▁강릉시	-11.5179
▁분포하고	-11.5181
Ja	-11.5183
레이드	-11.5185
▁표기한다	-11.5186
▁도착했다	-11.5187
▁심의	-11.519
.<	-11.519
▁등재	-11.5191
▁Pro	-11.5191
▁me	-11.5192
rt	-11.5192
라서	-11.5194
▁붐	-11.5195
▁결정된다	-11.5196
▁진흥	-11.5197
▁넘어가	-11.5197
TO	-11.5198
▁문과	-11.5198
▁로렌	-11.52
빌리	-11.52
▁예이다	-11.5202
▁해안가	-11.5202
크레	-11.5203
사무관	-11.5203
▁스페이스	-11.5205
▁버리	-11.5206
▁과정에	-11.5206
▁데스	-11.5208
▁가운데에	-11.521
▁상경	-11.521
▁적자	-11.521
▁con	-11.5212
브스	-11.5213
마니	-11.5213
▁기반한	-11.5214
ear	-11.5215
면으로	-11.5218
р	-11.522
사카	-11.5221
사기	-11.5222
▁사슬	-11.5222
SH	-11.5223
▁재료로	-11.5223
남면	-11.5223
병으로	-11.5224
개씩	-11.5224
▁대표적으로	-11.5225
▁지키는	-11.5225
ring	-11.5226
▁걸쳐서	-11.5226
데다	-11.5226
실이	-11.5229
▁생각해	-11.5231
off	-11.5233
▁세균	-11.5233
▁내용이다	-11.5234
▁단계에서	-11.5235
á	-11.5235
▁여수	-11.5239
▁박탈	-11.524
▁비용이	-11.5241
▁보석	-11.5242
이름	-11.5242
▁정성	-11.5242
▁마을에서	-11.5243
▁위험이	-11.5245
▁주어졌	-11.5247
▁효자	-11.5248
cal	-11.5249
▁일본으로	-11.5249
▁정점	-11.525
▁흐르	-11.525
▁토미	-11.5251
▁by	-11.5251
▁수행했다	-11.5254
▁비판이	-11.5256
▁임원	-11.5257
▁수여받았	-11.5257
네르	-11.5259
(2015	-11.526
▁이르러서	-11.5261
▁중앙부	-11.5261
rop	-11.5262
▁여성이	-11.5262
▁게임에서	-11.5264
▁메르	-11.5265
▁조정에	-11.5266
▁지바	-11.5266
▁일기	-11.5267
ker	-11.5267
▁업계	-11.5267
▁사후에	-11.5272
▁mm	-11.5274
동초등학교	-11.5274
▁산하에	-11.5276
▁대조	-11.5278
▁닐	-11.528
쉽	-11.5281
▁쳐들어	-11.5282
bl	-11.5283
▁중위	-11.5285
▁개념이다	-11.5286
▁발표하여	-11.5286
▁표준화	-11.5288
▁CJ	-11.529
魏	-11.5294
。	-11.5294
屬	-11.5294
넥	-11.5294
員	-11.5294
▁꼽히	-11.5294
▁노르망디	-11.5294
▁디트로이트	-11.5294
▁삿포로	-11.5294
▁아키텍처	-11.5294
▁알렉산드르	-11.5294
▁여우주연상	-11.5294
伊	-11.5294
瑞	-11.5294
뜰	-11.5294
▁굵은	-11.5294
▁알코올	-11.5294
▁힘입어	-11.5294
起	-11.5294
か	-11.5294
▁낚시	-11.5294
▁와일드	-11.5294
▁도미니카	-11.5294
▁카이사르	-11.5295
▁브라더스	-11.5295
▁모서리	-11.5295
▁앨리스	-11.5295
▁중국공산당	-11.5296
▁키예프	-11.5296
▁갈수록	-11.5296
▁광저우	-11.5297
▁강남	-11.5297
▁지도부	-11.5297
▁로빈슨	-11.5297
▁미생물	-11.5298
▁방송사	-11.5299
▁대사헌	-11.5299
석과	-11.5299
▁아랫	-11.5299
▁이양	-11.5299
▁영원히	-11.53
▁가짜	-11.5301
▁저택	-11.5301
▁연결되는	-11.5301
▁이야기는	-11.5301
▁강남구	-11.5303
▁내어	-11.5303
▁해리슨	-11.5303
▁곤란	-11.5305
▁지능	-11.5308
▁도왔다	-11.5308
▁바흐	-11.5309
▁등지에	-11.531
▁전반기	-11.5311
▁비정	-11.5311
▁차지하며	-11.5311
▁천문학자	-11.5313
▁것인데	-11.5313
Mon	-11.5314
▁대기업	-11.5314
▁김홍	-11.5315
샘	-11.5316
편으로	-11.5318
▁올리는	-11.5318
▁대지진	-11.5318
▁독성	-11.5323
▁대한항공	-11.5323
▁접하며	-11.5324
▁계속되었다	-11.5325
▁한민족	-11.5325
▁사용되며	-11.5326
어머니	-11.5327
▁바다에	-11.5328
▁호출	-11.5329
▁3·1	-11.533
▁후진	-11.533
▁가군	-11.533
재판소	-11.5331
▁가장자리	-11.5331
_17	-11.5335
가수	-11.5335
▁아소	-11.5335
▁포기하고	-11.5336
▁수학적	-11.5337
▁다룬다	-11.5338
▁일자리	-11.5339
▁커서	-11.534
프스	-11.5341
▁위치하는	-11.5342
▁자판	-11.5343
▁79	-11.5343
▁책으로	-11.5345
my	-11.5346
▁1.0	-11.5347
▁헐	-11.5348
▁다운	-11.5348
▁열리	-11.5348
▁구호	-11.5348
▁북서쪽으로	-11.5349
▁화학적	-11.535
?)	-11.535
▁임관	-11.5351
시간이	-11.5353
명령	-11.5353
쿠니	-11.5354
▁주장하며	-11.5355
▁방송되는	-11.5356
▁선배	-11.5357
MBC	-11.5358
▁꽃이	-11.5358
▁교도	-11.5362
킨스	-11.5362
▁마하	-11.5365
▁측에서	-11.537
종목	-11.5371
▁비롯	-11.5372
호기	-11.5373
▁캐리	-11.5377
▁추론	-11.5381
▁조약이	-11.5381
미니	-11.5382
▁우드	-11.5382
▁동행	-11.5384
▁교원	-11.5385
▁내려졌	-11.5385
▁Do	-11.5386
▁연합국	-11.5387
▁누르	-11.5388
▁햄	-11.5388
서야	-11.5389
계로	-11.5389
여우	-11.5389
▁예시	-11.5389
▁노동조합	-11.5389
여행	-11.539
메스	-11.5391
zz	-11.5391
▁양반	-11.5392
▁폼	-11.5393
▁아치	-11.5394
▁이루어지지	-11.5396
▁그후	-11.5397
▁봉인	-11.5398
▁개원	-11.54
▁선장	-11.54
선수권대회	-11.54
▁(1	-11.5402
▁목표는	-11.5403
▁떨어지는	-11.5404
▁공명	-11.5405
▁후손들	-11.5405
명칭	-11.5405
▁여당	-11.5406
즈가	-11.5407
▁前	-11.5408
▁그녀에게	-11.541
arch	-11.541
▁SO	-11.5411
▁북서부	-11.5414
바타	-11.5415
▁전인	-11.5419
▁형성되었다	-11.5419
▁표현하는	-11.5419
▁교통국	-11.5419
▁소프트	-11.5422
▁해당되는	-11.5425
▁한편으로는	-11.5426
▁빌라	-11.5426
▁그룹은	-11.5427
▁제프	-11.5427
▁대중적	-11.5428
▁킬로미터	-11.5431
ster	-11.5435
▁시켜	-11.5435
dy	-11.5437
계가	-11.5438
▁여성들	-11.5441
▁각지에서	-11.5442
광무	-11.5444
▁최강	-11.5445
▁War	-11.5449
▁김지	-11.545
Ra	-11.545
No	-11.5452
가족	-11.5452
▁즐기	-11.5456
슴	-11.5457
런트	-11.5459
▁신상	-11.5459
대회에서	-11.546
▁사이버	-11.546
그램	-11.5461
▁오고	-11.5462
▁구릉	-11.5464
vo	-11.5465
▁개념이	-11.5465
▁경쟁력	-11.5465
니크	-11.5465
바리	-11.5466
Con	-11.5467
▁설치하였다	-11.5468
del	-11.5469
▁리치	-11.5469
▁극장에서	-11.5469
▁생각하고	-11.547
관계에	-11.5471
▁밝혔	-11.5472
판으로	-11.5473
▁우편	-11.5475
▁니콜	-11.5484
▁운행하고	-11.5486
살의	-11.5487
얄	-11.5489
先	-11.549
▁닛폰	-11.549
콥	-11.549
次	-11.549
캡	-11.549
욘	-11.549
▁듣지	-11.549
▁섞어	-11.549
▁체코슬로바키아	-11.549
▁평균자책점	-11.549
▁헬리콥터	-11.549
▁흩어져	-11.549
氣	-11.549
目	-11.549
連	-11.549
귤	-11.549
핏	-11.549
▁바뀌어	-11.549
▁연세대학교	-11.549
器	-11.549
死	-11.549
阿	-11.549
解	-11.549
▁대합실	-11.549
▁카리브	-11.549
▁솟아	-11.549
://	-11.549
(1992	-11.5491
▁쓰레기	-11.5491
델라	-11.5491
▁맞붙	-11.5491
▁김천	-11.5491
▁부르고뉴	-11.5491
▁이규	-11.5491
(1999	-11.5491
▁스즈키	-11.5492
▁2.0	-11.5492
▁패널	-11.5492
▁우승한	-11.5492
▁중앙아시아	-11.5492
▁머무르	-11.5493
▁화장품	-11.5493
▁단행본	-11.5493
▁어렵게	-11.5494
▁피로	-11.5494
▁무조건	-11.5494
▁점유율	-11.5495
▁거론	-11.5496
▁끝날	-11.5496
▁점에	-11.5496
▁투르크	-11.5497
▁물의	-11.5497
▁이관	-11.5497
태자	-11.5498
그라	-11.5498
▁초빙	-11.5499
▁이루며	-11.55
▁국내외	-11.5501
▁1871	-11.5501
▁남동부	-11.5501
▁새긴	-11.5501
▁알렉산드리아	-11.5503
▁작업이	-11.5504
▁선교사들	-11.5504
▁is	-11.5504
▁아키타	-11.5504
▁생겨나	-11.5506
질서	-11.5506
여개	-11.5506
▁데뷔한	-11.5507
갔고	-11.5508
▁도시인	-11.5508
▁역에	-11.5509
▁1592	-11.5509
▁참사	-11.5509
▁근로	-11.551
▁공격하여	-11.551
▁후속작	-11.5511
▁국가와	-11.5512
뿔	-11.5513
▁몫	-11.5513
▁심리학	-11.5513
▁밀란	-11.5514
▁텐서	-11.5514
▁오쿠	-11.5514
▁워드	-11.5515
▁시몬	-11.5517
▁최근의	-11.5517
▁배려	-11.5518
포인트	-11.5518
▁He	-11.5518
대책	-11.5523
리히	-11.5523
▁입양	-11.5525
토미	-11.5526
▁허위	-11.5526
박스	-11.5528
▁소나무	-11.5529
면이	-11.5531
UI	-11.5531
▁우승팀	-11.5533
▁물품	-11.5533
카쿠	-11.5534
▁나트륨	-11.5534
▁끌고	-11.5534
▁거품	-11.5535
실에서	-11.5537
8,000	-11.5539
어도	-11.5541
▁지속되었다	-11.5542
▁구조는	-11.5543
▁가리지	-11.5543
▁남서쪽으로	-11.5544
▁탑신	-11.5547
▁생산된	-11.5547
▁성별	-11.5547
ret	-11.5547
▁주역	-11.5547
lis	-11.5549
▁권장	-11.5551
▁강조했다	-11.5552
▁부각	-11.5554
▁접해	-11.5555
▁대수적	-11.5556
▁일하는	-11.5556
▁상급	-11.5559
▁보낸다	-11.556
레인	-11.556
▁밝혀진	-11.5561
크와	-11.5564
▁서부에	-11.5564
▁일파	-11.5566
▁오이	-11.5567
▁피고인	-11.5568
▁빨	-11.5572
▁프레임	-11.5572
론에서	-11.5573
졌는데	-11.5574
▁명목	-11.5577
노동자	-11.5578
▁루카	-11.5579
▁선수였다	-11.558
▁통보	-11.558
▁동정	-11.5581
루와	-11.5584
니치	-11.5585
▁정주	-11.5585
▁누적	-11.5586
▁자료이다	-11.5586
▁해태	-11.5587
▁시립	-11.5592
▁요정	-11.5594
였	-11.5595
▁안전성	-11.5596
▁알려주	-11.5596
TF	-11.5596
▁변화는	-11.5596
▁특권	-11.5598
왕국	-11.56
▁입수	-11.5602
1878	-11.5603
▁전역에	-11.5604
~8	-11.5605
색이	-11.5607
▁구성원들	-11.5608
제주	-11.5609
▁숙주	-11.5612
▁내무부	-11.5613
▁수원시	-11.5614
년도에	-11.5617
▁폭동	-11.5617
▁지질	-11.5617
ato	-11.5618
ng	-11.5619
즐리	-11.562
▁당의	-11.562
▁기간이	-11.5622
▁못하여	-11.5623
▁드는	-11.5623
▁남미	-11.5626
▁고장	-11.5627
▁딸이	-11.5628
▁국영	-11.5629
▁북동쪽으로	-11.563
주교	-11.563
▁진수	-11.5631
▁GO	-11.5631
▁남북으로	-11.5636
비에	-11.5637
▁말고	-11.5641
▁점령하고	-11.5642
EP	-11.5645
▁마일	-11.5645
▁원인으로	-11.5646
▁하겠다	-11.5646
▁멈추	-11.5646
▁서민	-11.5648
사실	-11.5649
Di	-11.5652
▁비판적	-11.5656
▁퍼지	-11.5657
~1	-11.566
ase	-11.5663
▁하야	-11.5667
공작	-11.5667
관광	-11.5668
호선이	-11.5672
▁로저	-11.5674
자마자	-11.5674
▁달라고	-11.568
조합	-11.568
▁대패	-11.5682
제조	-11.5683
프스키	-11.5684
▁취약	-11.5685
▁닉	-11.5687
▁진행하고	-11.5689
▁옌	-11.5689
▁과장	-11.5689
솜	-11.569
初	-11.569
솟	-11.569
參	-11.569
ρ	-11.569
～	-11.569
▁System	-11.569
▁섞여	-11.569
▁시애틀	-11.569
▁친일반민족행위진상규명위원회	-11.569
▁합스부르크	-11.569
▁해밀턴	-11.569
ら	-11.569
受	-11.569
數	-11.569
▁사무총장	-11.569
妃	-11.569
察	-11.569
現	-11.569
▁홍문관	-11.569
▁무소속	-11.569
▁달걀	-11.569
▁잡아먹	-11.569
俊	-11.569
닷컴	-11.569
▁닛산	-11.569
▁가마쿠라	-11.5691
▁조선후기	-11.5691
▁가리켜	-11.5691
榮	-11.5691
(1989	-11.5691
▁벨라루스	-11.5691
▁누군가	-11.5691
▁요제프	-11.5691
▁목요일	-11.5691
▁진흙	-11.5691
▁활주로	-11.5691
▁토리노	-11.5692
▁포획	-11.5692
▁맞춘	-11.5693
▁자유민주당	-11.5693
▁지붕돌	-11.5694
▁주목받	-11.5695
▁실존	-11.5696
세기경	-11.5697
토가	-11.5697
▁재계약	-11.5698
▁생겨난	-11.5699
▁것인가	-11.5699
▁동성애자	-11.5699
▁불참	-11.57
▁물리치고	-11.5701
▁새겨진	-11.5702
▁피겨	-11.5702
▁점령한	-11.5702
▁편견	-11.5702
▁1868	-11.5704
▁채워	-11.5704
▁야외	-11.5705
▁On	-11.5705
▁어른	-11.5706
▁삼척	-11.5707
원수	-11.5709
▁차출	-11.5709
▁송환	-11.5711
▁1860	-11.5711
▁장자	-11.5714
▁동일하게	-11.5717
▁박사학위	-11.5717
▁비례대표	-11.5718
▁당일	-11.5719
물리학	-11.5719
캔	-11.5719
아일랜드	-11.572
▁태평	-11.572
올림픽	-11.572
▁천거	-11.5721
여명이	-11.5722
▁했을	-11.5723
공업고등학교	-11.5723
▁너비	-11.5725
▁매달	-11.5725
▁이용된다	-11.5726
▁부제	-11.5726
▁검거	-11.5727
▁만나는	-11.5728
▁가옥	-11.5728
▁매직	-11.5729
▁대성전	-11.573
▁미키	-11.5731
▁경작	-11.5731
▁정종	-11.5731
▁버마	-11.5732
슈퍼	-11.5732
갈색	-11.5733
▁각색	-11.5735
▁비교하여	-11.5735
ML	-11.5736
▁체중	-11.5737
레인저	-11.5737
플러	-11.5738
air	-11.5739
▁제기되었다	-11.574
Na	-11.5741
▁발병	-11.5741
▁가지가	-11.5742
▁왕은	-11.5744
▁운영되고	-11.5748
▁당하고	-11.5748
▁장려	-11.5748
▁피지	-11.5749
▁건전	-11.575
▁대접	-11.575
▁스케	-11.5751
▁죽임	-11.5751
▁적군	-11.5751
▁의결	-11.5751
병이	-11.5753
▁떼	-11.5753
▁황도	-11.5753
덩이	-11.5754
▁입학하여	-11.5754
▁결과에	-11.5755
오자	-11.5755
All	-11.5757
▁분리되었다	-11.576
보니	-11.576
▁김현	-11.5761
▁여타	-11.5762
라크	-11.5763
▁넘기	-11.5763
연속	-11.5763
▁효율적인	-11.5763
▁자비	-11.5764
▁속해있	-11.5765
▁참여하는	-11.5766
받을	-11.5768
▁입상	-11.5769
▁CO	-11.577
▁닥	-11.577
▁함정	-11.5772
면과	-11.5772
▁벨트	-11.5773
▁최소화	-11.5773
▁International	-11.5775
▁제작사	-11.5775
-50	-11.5776
▁기반이	-11.5776
편에	-11.5777
▁메달을	-11.5777
▁여주	-11.5777
▁모용	-11.5777
▁독도	-11.5778
▁작가로	-11.5778
스파	-11.5781
▁일명	-11.5783
▁대전차	-11.5786
보안	-11.5788
▁옆으로	-11.5788
▁폭포	-11.579
OC	-11.579
▁연구에서	-11.5792
지역으로	-11.5794
▁받침	-11.5796
▁담당하였다	-11.5796
키스	-11.5797
▁배후	-11.5797
lit	-11.5797
▁개체수	-11.5799
▁인간과	-11.5802
oy	-11.5803
▁호족	-11.5804
▁신곡	-11.5805
▁유래했다	-11.5805
▁분파	-11.5805
▁거부하였다	-11.5806
▁시속	-11.5807
▁계획이다	-11.5809
▁기록되었다	-11.581
tin	-11.581
▁섬세	-11.5812
사무	-11.5812
버트	-11.5813
리야	-11.5814
▁레이디	-11.5816
▁것들이	-11.5817
▁구성되었다	-11.5817
ella	-11.5821
▁던지	-11.5823
▁주임	-11.5823
▁상금	-11.5823
렉스	-11.5826
구단	-11.5832
재를	-11.5833
계통	-11.5837
것으로	-11.5839
▁이뤄지	-11.584
ax	-11.5844
▁밀양	-11.5846
▁형제들	-11.5847
▁끄	-11.5848
bit	-11.585
대륙	-11.585
▁감상	-11.585
▁온다	-11.5851
▁시행된	-11.5852
▁운행되	-11.5853
▁패배한	-11.5854
▁컸	-11.5855
▁정의를	-11.5856
윤리	-11.5857
▁대학교에	-11.5859
마트	-11.5859
▁기요	-11.5859
▁목을	-11.586
lie	-11.5862
2018	-11.5862
▁발원	-11.5866
▁제후	-11.5869
▁한성	-11.587
▁정려	-11.587
▁입주	-11.587
▁신천	-11.587
순위로	-11.5876
~4	-11.5878
▁뜨	-11.5879
ash	-11.5881
unt	-11.5881
호선과	-11.5883
▁민영	-11.5884
실로	-11.5884
▁스파	-11.5886
▁헤르	-11.5887
▁들려	-11.5887
▁해상에서	-11.5891
▁기관이	-11.5891
엇	-11.5892
▁명분	-11.5893
핸	-11.5893
雄	-11.5894
第	-11.5894
處	-11.5894
American	-11.5894
λ	-11.5894
▁그렇기	-11.5894
▁낳는다	-11.5894
▁압록강	-11.5894
▁유벤투스	-11.5894
▁프로덕션	-11.5894
台	-11.5894
尉	-11.5894
戶	-11.5894
柱	-11.5894
群	-11.5894
邊	-11.5894
엥	-11.5894
이었을	-11.5894
▁다이아몬드	-11.5894
夏	-11.5894
▁에스페란토	-11.5894
圓	-11.5894
유리	-11.5894
▁온갖	-11.5894
▁대법관	-11.5895
▁사헌부	-11.5895
初等學校	-11.5895
▁방사능	-11.5895
▁명성황후	-11.5895
▁컨트리	-11.5895
▁드라이버	-11.5895
▁나카무라	-11.5895
▁유니버스	-11.5895
▁로스쿨	-11.5895
▁더불어민주당	-11.5896
▁압력을	-11.5896
▁아마존	-11.5896
▁힌두교	-11.5896
▁LA	-11.5896
▁일관	-11.5896
▁노부나가	-11.5897
▁주한	-11.5897
▁한국과	-11.5897
▁조반니	-11.5897
▁날이	-11.5897
▁쉽지	-11.5898
▁탐색	-11.5898
▁잘라	-11.5899
▁일이었다	-11.5899
▁MSL	-11.59
▁요소들	-11.59
ns	-11.59
▁가깝게	-11.59
▁첨단	-11.59
▁불꽃	-11.5901
▁카타르	-11.5901
로비치	-11.5901
▁북조선	-11.5901
▁부작용	-11.5902
▁케빈	-11.5902
▁황산	-11.5902
▁하구	-11.5903
▁손권	-11.5903
▁퇴역	-11.5903
▁문자열	-11.5903
▁차고	-11.5904
▁스핀	-11.5904
▁자료가	-11.5905
EM	-11.5906
▁음절	-11.5907
▁합친	-11.5907
▁1888	-11.5908
rd	-11.5908
▁파벌	-11.5908
▁듀오	-11.5909
개국이	-11.5909
▁임명되었고	-11.5909
▁오노	-11.591
▁미시간	-11.5911
▁호응	-11.5912
▁여겨지는	-11.5913
▁생각하자	-11.5914
▁남궁	-11.5915
▁밀어	-11.5915
년경에	-11.5915
장이다	-11.5915
터스	-11.5916
고리	-11.5917
▁처지	-11.5918
▁실각	-11.5919
▁지키기	-11.592
▁필수	-11.592
경남	-11.592
▁생체	-11.5922
▁아니냐	-11.5923
▁세션	-11.5924
▁냉전	-11.5926
퐁	-11.5926
쿤	-11.5926
▁존재로	-11.5927
쥬	-11.5927
▁사람들과	-11.5928
깃	-11.5929
New	-11.5929
▁주도한	-11.593
▁품종	-11.593
면적	-11.593
대리	-11.5931
▁파이터	-11.5933
▁고든	-11.5933
▁봐	-11.5933
화한	-11.5933
▁이전부터	-11.5933
▁이적료	-11.5934
버리는	-11.5934
▁모순	-11.5934
▁대포	-11.5936
▁인산	-11.5938
▁나라에	-11.5938
DU	-11.5939
▁반도체	-11.5941
▁누리	-11.5941
▁즉각	-11.5942
▁지하역	-11.5942
▁전반에	-11.5942
모가	-11.5943
미술관	-11.5944
▁재무	-11.5944
▁배운	-11.5945
▁표명	-11.5946
▁자생	-11.5946
Ne	-11.5947
▁스퀘어	-11.5947
▁여유	-11.5948
▁서산	-11.595
로쿠	-11.5952
토록	-11.5952
▁뒤쪽	-11.5952
▁제시한	-11.5953
엑스	-11.5953
▁타케	-11.5954
▁않아도	-11.5964
▁복선	-11.5964
rus	-11.5965
▁좌우에	-11.5965
▁CM	-11.5967
▁오산	-11.5967
El	-11.5968
▁마을이	-11.5968
▁출판된	-11.5968
mar	-11.5968
▁신조	-11.5969
▁파괴되었다	-11.5969
현에	-11.597
▁예선전	-11.5971
▁붓	-11.5972
헤드	-11.5973
기반	-11.5973
▁컴퍼니	-11.5973
▁거부했다	-11.5982
생물	-11.5985
되다가	-11.5986
▁주민들이	-11.5987
▁조직이	-11.5989
토라	-11.599
▁여파	-11.599
▁유저	-11.5992
▁게르	-11.5993
▁깔	-11.5995
▁와인	-11.5996
단지	-11.5998
log	-11.5999
레미	-11.6
▁별세	-11.6
기둥	-11.6003
악기	-11.6004
▁의류	-11.6004
▁복위	-11.6005
men	-11.6006
▁선동	-11.601
▁출자	-11.601
버전	-11.6012
▁최적	-11.6013
막이	-11.6015
▁각도	-11.6017
▁문구	-11.6017
▁공항으로	-11.6019
▁진상	-11.602
chi	-11.6022
▁정인	-11.6026
▁동아	-11.6028
▁정계	-11.603
▁유지하는	-11.603
직으로	-11.6031
▁동문	-11.6031
운동에	-11.6033
레아	-11.6034
학교를	-11.6036
▁아리아	-11.6041
▁시마	-11.6042
▁무대에서	-11.6044
청은	-11.6044
▁투르	-11.6046
▁만났	-11.6047
낸다	-11.6049
▁1,3	-11.6049
▁관광지	-11.605
ull	-11.6051
▁발전과	-11.6052
▁캔	-11.6058
GA	-11.6059
지스	-11.6062
냈고	-11.6063
▁장소에서	-11.6064
▁86	-11.6064
▁사용자들	-11.6064
▁농민들	-11.6065
▁출신인	-11.6066
▁재발	-11.6067
▁군산	-11.6069
▁지원하고	-11.6075
씨를	-11.6075
▁z	-11.6076
▁발해	-11.6077
▁병기	-11.6085
▁이루어지는	-11.6085
EX	-11.6088
▁사회당	-11.609
▁아랍어	-11.6091
▁벨라	-11.6092
▁내주	-11.6093
▁문화가	-11.6093
▁수축	-11.6094
하느냐	-11.6095
▁공격에	-11.6095
▁이겨	-11.6096
Ca	-11.6096
▁제왕	-11.6098
쁜	-11.61
▁프리미어	-11.6101
園	-11.6102
表	-11.6103
벵	-11.6103
▁쾰른	-11.6103
▁흐른다	-11.6103
泉	-11.6103
τ	-11.6103
▁바그너	-11.6103
▁서재필	-11.6103
▁비주얼	-11.6103
▁와이번스	-11.6103
▁CEO	-11.6103
▁코소보	-11.6103
▁넬슨	-11.6103
▁할리우드	-11.6103
イ	-11.6103
▁넷째	-11.6103
ス	-11.6103
▁세번째	-11.6103
▁미카엘	-11.6103
▁발기인	-11.6104
▁에디션	-11.6104
▁저렴	-11.6104
▁스위치	-11.6104
▁잔존	-11.6105
양성	-11.6106
▁초록색	-11.6106
▁국가원수	-11.6106
▁대도시	-11.6107
됐지만	-11.6107
▁냉각	-11.6107
▁시설관리	-11.6107
▁유선	-11.6108
▁불평등	-11.6108
▁유닉스	-11.6108
▁91	-11.6109
▁합창단	-11.6111
▁난징	-11.6112
▁돌입	-11.6112
▁근거지	-11.6113
▁유럽과	-11.6113
▁선진국	-11.6113
▁발라드	-11.6114
번으로	-11.6114
▁전해지는	-11.6114
▁분광	-11.6114
▁직통	-11.6114
▁클리어	-11.6116
▁■	-11.6116
▁출석	-11.6116
▁5%	-11.6116
▁모았다	-11.6117
▁호위	-11.6118
▁알리는	-11.6118
▁마침	-11.6118
▁사람도	-11.6119
cia	-11.6119
용량	-11.612
▁자세히	-11.6121
▁활동하다가	-11.6121
▁개칭되었다	-11.6122
▁놓는	-11.6124
▁클라크	-11.6125
▁제재	-11.6125
Te	-11.6127
▁체스	-11.6127
▁무슨	-11.6128
ane	-11.6129
▁질문에	-11.6129
덤	-11.6131
▁모인	-11.6132
▁때문이라고	-11.6133
내어	-11.6133
▁저그	-11.6133
▁불린	-11.6134
지식	-11.6135
▁갈리아	-11.6135
▁상담	-11.6136
▁개봉되었다	-11.6137
▁산출	-11.6138
앵	-11.614
▁사건과	-11.6141
잇	-11.6141
옛	-11.6142
▁주름	-11.6143
바이트	-11.6143
des	-11.6144
▁컸다	-11.6146
▁라이더	-11.6146
자유로운	-11.6148
▁현저	-11.6148
▁딜	-11.6148
정에	-11.615
▁한족	-11.6152
▁초등	-11.6152
보면	-11.6155
▁정립	-11.6155
▁브루	-11.6155
Cal	-11.6156
▁인접해	-11.6157
▁이븐	-11.6157
▁신하들	-11.6159
▁정의된다	-11.6159
▁속주	-11.616
▁중점을	-11.616
▁띠고	-11.616
▁관문	-11.616
▁지우	-11.6161
표준	-11.6162
▁현직	-11.6163
기타	-11.6163
▁않겠다	-11.6164
▁무단	-11.6168
▁대체되었다	-11.6169
▁정리한	-11.617
▁주장에	-11.6171
▁반감기	-11.6171
▁설교	-11.6171
▁남해	-11.6172
▁합류하여	-11.6173
▁자란	-11.6175
▁작성한	-11.6176
▁패밀리	-11.6176
정원	-11.6178
▁제시하였다	-11.6178
면서도	-11.6178
타마	-11.6179
관의	-11.6179
쓰네	-11.6182
율을	-11.6182
▁마르크스주의	-11.6184
▁실패하고	-11.6184
해주었다	-11.6184
학적으로	-11.6185
ting	-11.6187
▁게임으로	-11.6187
▁수확	-11.6187
▁3.5	-11.6188
tur	-11.6188
현을	-11.6192
▁선양	-11.6192
▁항소	-11.6194
임금	-11.6196
▁Su	-11.6196
창군	-11.6196
▁사상자	-11.62
▁저조	-11.62
▁미드필더로	-11.6204
▁거절했다	-11.6205
▁소문이	-11.621
▁넘어서	-11.6213
▁이황	-11.6214
▁접전	-11.6216
▁수목	-11.6217
▁연장전	-11.6217
▁성으로	-11.6217
▁제우스	-11.6219
▁크기로	-11.6223
▁보호하는	-11.6224
Co	-11.6226
▁설립자	-11.6227
▁종파	-11.6234
봉사	-11.6235
▁강간	-11.6236
디언	-11.6236
▁송도	-11.6236
신은	-11.6237
▁배역	-11.6239
▁우체국	-11.624
▁등록되어	-11.6243
▁불변	-11.6244
아마	-11.6244
▁선도	-11.6246
▁교육의	-11.6247
▁앤드	-11.6251
▁비율	-11.6252
ire	-11.6254
▁나열	-11.6254
▁검출	-11.6255
씨와	-11.626
▁유죄	-11.6262
▁투표에서	-11.6264
▁열린다	-11.6264
노바	-11.6265
-12	-11.6267
▁동시대	-11.6267
za	-11.6267
▁미즈	-11.6268
▁그리스인	-11.627
▁지원하기	-11.6271
▁유럽에	-11.6272
글루	-11.6272
▁믿는	-11.6273
▁주축	-11.6273
▁일본이	-11.6274
출력	-11.6274
따라	-11.6276
▁역할은	-11.6276
준비	-11.628
렵	-11.6283
▁설계된	-11.6284
치료	-11.6286
ny	-11.6288
라나	-11.6289
믹	-11.629
▁입을	-11.6291
▁기관지	-11.6293
▁연산군	-11.6295
▁병원에	-11.6296
▁선수로서	-11.6298
▁동진	-11.6299
증권	-11.63
▁강하다	-11.6303
▁오하이오	-11.6303
▁산업은	-11.6305
▁지리	-11.6306
▁설립하고	-11.6306
레드	-11.6307
▁토착	-11.6308
듬	-11.6309
▁문하	-11.6309
▁년간	-11.631
바스	-11.6311
▁질량이	-11.6311
원들	-11.6312
▁사라진	-11.6313
소에	-11.6313
둠	-11.6313
▁이름에서	-11.6314
장비	-11.6315
議	-11.6315
式	-11.6315
容	-11.6315
뱃	-11.6315
▁따뜻한	-11.6315
▁로맨틱	-11.6315
▁룩셈부르크	-11.6315
▁병조판서	-11.6315
▁애틀랜타	-11.6315
▁차츰	-11.6315
▁트럼프	-11.6315
▁프랜시스	-11.6315
▁프로그래머	-11.6315
完	-11.6315
機	-11.6315
造	-11.6315
香	-11.6315
삐	-11.6315
츄	-11.6315
▁NASA	-11.6315
▁스톡홀름	-11.6315
▁이조판서	-11.6315
入	-11.6315
共	-11.6315
▁스트라이커	-11.6316
益	-11.6316
▁어시스트	-11.6316
▁야쿠르트	-11.6316
▁쇠고기	-11.6316
▁장이	-11.6316
▁빅토르	-11.6316
▁아드리아	-11.6316
텔레콤	-11.6316
▁버클리	-11.6317
▁페이스북	-11.6317
▁글꼴	-11.6317
▁파란색	-11.6317
▁예정이었으나	-11.6317
▁따왔다	-11.6317
▁포르투	-11.6317
후지와라노	-11.6318
여자중학교	-11.6319
▁러시아어	-11.6319
▁하얀	-11.632
▁토끼	-11.6321
▁아부	-11.6322
▁틸	-11.6322
▁경영학	-11.6322
▁우간다	-11.6323
▁염려	-11.6323
▁간사이	-11.6324
▁오리온	-11.6325
▁겹쳐	-11.6326
▁보리	-11.6326
▁1873	-11.6327
▁1863	-11.6329
▁실시한	-11.6329
▁국외	-11.633
▁복음서	-11.6331
▁보내고	-11.6332
▁히트곡	-11.6332
▁내야수	-11.6333
▁공익	-11.6334
▁심화	-11.6334
▁프로그램에	-11.6335
▁수준이	-11.6336
eu	-11.6337
▁도입된	-11.6337
픽	-11.6337
▁자란다	-11.6338
▁취미	-11.6339
DO	-11.6339
▁많지	-11.6341
▁못하다	-11.6341
▁이성계	-11.6341
▁것이므로	-11.6342
▁폭파	-11.6344
▁정선	-11.6347
▁이내에	-11.635
▁재편성	-11.635
▁분당	-11.635
▁시스템이	-11.6351
미트	-11.6351
▁간접	-11.6351
▁내무	-11.6352
터미널	-11.6352
▁선제골	-11.6352
▁용어로	-11.6352
▁기사단	-11.6353
▁국제적	-11.6353
▁정화	-11.6354
▁발급	-11.6355
▁직경	-11.6357
▁캘	-11.6358
▁구간에	-11.6358
▁환자들	-11.6358
퍼센트	-11.6359
▁2~3	-11.6359
그러나	-11.6359
▁해마다	-11.636
▁2-0	-11.636
▁도카이도	-11.6361
▁아래쪽	-11.6362
▁고성군	-11.6362
뮤직	-11.6363
▁92	-11.6364
▁홈즈	-11.6365
▁돌아왔	-11.6366
▁그레이트	-11.6367
인으로서	-11.637
▁모르고	-11.637
▁10,000	-11.6371
▁이문	-11.6373
DOS	-11.6373
▁가열	-11.6374
▁채소	-11.6374
▁진행자	-11.6377
zi	-11.6379
▁퇴적	-11.6379
~16	-11.638
▁승진하였다	-11.6382
▁시범	-11.6382
▁목적이	-11.6383
▁외형	-11.6384
ld	-11.6385
▁측에	-11.6386
▁덧	-11.6386
▁청춘	-11.6386
▁천황이	-11.6386
▁채무	-11.6387
▁나간	-11.6389
▁순회	-11.6389
▁대학에	-11.639
▁기병대	-11.6391
▁관념	-11.6392
~200	-11.6392
▁불량	-11.6394
▁구내	-11.6396
▁대역	-11.6396
PD	-11.6396
감정	-11.6401
▁은퇴하였다	-11.6402
수용	-11.6403
측의	-11.6404
체와	-11.6405
▁축성	-11.6406
▁피고	-11.6406
그리스	-11.6407
르바	-11.6409
▁꿀	-11.6412
▁고쿠	-11.6413
▁팜	-11.6413
▁혼다	-11.6414
에게만	-11.6415
▁벨리	-11.6416
▁속편	-11.6416
▁공민왕	-11.6417
디자인	-11.6417
▁구성은	-11.6418
ene	-11.6418
▁받아들이지	-11.642
Per	-11.642
▁가해	-11.6421
▁수분	-11.6423
▁선고받았	-11.6423
▁제도에	-11.6424
OO	-11.6424
▁와카	-11.6426
쿨	-11.643
▁가기	-11.6431
▁후기에	-11.6432
▁태극	-11.6433
▁뚫	-11.6435
▁`	-11.6437
▁딱	-11.6439
메트	-11.6439
▁정치적으로	-11.644
▁헌법에	-11.644
▁거두어	-11.644
주자사	-11.6441
▁실정	-11.6443
▁해고	-11.6444
Good	-11.6445
▁상표	-11.6448
▁제곱	-11.6448
루트	-11.6449
▁설립하여	-11.645
▁군중	-11.6452
나갔다	-11.6452
▁배아	-11.6453
노트	-11.6459
▁통합되어	-11.6459
▁그룹이	-11.6459
▁작성된	-11.6461
▁승자	-11.6463
▁나가는	-11.6464
▁다발	-11.6465
▁이장	-11.6466
르나	-11.6467
▁국왕이	-11.6468
▁독서	-11.6469
▁분량	-11.647
▁조현	-11.6471
▁잇따	-11.6471
회전	-11.6475
▁•	-11.6475
▁발라	-11.6479
▁하니	-11.648
▁오기	-11.648
TR	-11.6481
zo	-11.6483
▁교육부	-11.6483
▁공산주의자	-11.6484
▁입국	-11.6485
민은	-11.6485
He	-11.6486
▁총무	-11.6491
az	-11.6495
광주	-11.6497
스트리	-11.6497
▁음반으로	-11.6498
ink	-11.6498
▁보편	-11.6504
아목	-11.6507
겼으며	-11.6511
▁김병	-11.6511
▁패했다	-11.6511
▁숲에서	-11.6515
▁다루어	-11.6516
CT	-11.6518
브르	-11.6518
▁사형을	-11.652
▁일반적	-11.6522
cho	-11.6523
▁만들어내	-11.6525
▁치른	-11.6526
▁오키나와	-11.6529
▁예고	-11.653
뉘	-11.653
섹	-11.653
사나	-11.6531
▁대출	-11.6532
巖	-11.6533
―	-11.6533
▁갈릴레오	-11.6533
▁같았다	-11.6533
▁닮은	-11.6533
▁서울고등법원	-11.6533
▁아리스토텔레스	-11.6533
▁암스테르담	-11.6533
豊	-11.6533
▁Science	-11.6533
▁더글러스	-11.6533
▁앙골라	-11.6533
咸	-11.6533
岩	-11.6533
▁사쓰마	-11.6533
▁조선인민군	-11.6533
果	-11.6533
植	-11.6533
▁피츠버그	-11.6533
▁발렌시아	-11.6533
▁럭비	-11.6533
▁다저스	-11.6533
▁신석기	-11.6533
ラ	-11.6533
아무것도	-11.6533
ト	-11.6533
▁미하일	-11.6533
▁중앙아메리카	-11.6533
▁궁궐	-11.6533
▁쉽다	-11.6533
▁왕세자	-11.6534
▁이즈미	-11.6534
▁건설된	-11.6534
▁자서전	-11.6534
▁아나톨리아	-11.6534
▁하원의원	-11.6535
▁1,500	-11.6535
▁혼혈	-11.6535
▁자치체	-11.6535
▁마르틴	-11.6535
있게	-11.6536
▁거쳤다	-11.6536
위까지	-11.6536
▁목욕	-11.6536
▁타타르	-11.6536
▁le	-11.6537
▁본작	-11.6538
▁개화	-11.6538
▁끌었다	-11.6538
▁자켓	-11.6539
▁산업의	-11.6539
▁욕망	-11.6539
▁시나노	-11.6539
▁검열	-11.654
▁취업	-11.654
▁산둥	-11.6541
▁CONCACAF	-11.6543
▁원활	-11.6543
▁아닐	-11.6544
▁오피스	-11.6544
자르	-11.6545
berg	-11.6545
▁Cha	-11.6546
▁듯하다	-11.6547
Sha	-11.6547
▁절대적	-11.6547
▁인기있	-11.6547
▁판례	-11.6548
-13	-11.6548
▁다가오	-11.655
▁중형	-11.655
▁로이	-11.655
▁민감	-11.6551
▁힘으로	-11.6552
▁흔들	-11.6553
▁게이오	-11.6553
▁감금	-11.6556
문학상	-11.6557
켜	-11.6557
▁71	-11.6558
▁정세	-11.6558
▁복역	-11.6558
▁방식에	-11.6559
▁잠정	-11.6559
사법	-11.6559
ther	-11.6559
▁흥분	-11.6559
▁톨	-11.6561
▁명명되었다	-11.6561
▁고토	-11.6561
▁공표	-11.6562
▁후반기	-11.6563
▁겹치	-11.6564
▁Mc	-11.6565
▁납부	-11.6566
▁기간은	-11.6569
▁빈번	-11.6569
▁싱	-11.6571
▁건조한	-11.6571
▁교양	-11.6572
BM	-11.6573
▁이탈리아어	-11.6573
▁고개	-11.6573
able	-11.6573
▁모색	-11.6574
루는	-11.6574
▁옥사	-11.6575
▁결정전	-11.6575
▁교육과정	-11.6575
▁개그	-11.6575
▁직계	-11.6577
▁감성	-11.6577
▁국제선	-11.6577
▁장흥	-11.6577
시리즈	-11.6577
원숭이	-11.6578
▁떠난다	-11.6579
퉁	-11.658
▁평화를	-11.658
▁번창	-11.6581
전과	-11.6581
숲	-11.6581
관찰사	-11.6581
규칙	-11.6582
▁곳곳에	-11.6582
▁의회에서	-11.6584
▁삼촌	-11.6585
▁조수	-11.6586
▁사비	-11.6587
▁떼어	-11.6587
▁공간이	-11.6587
치오	-11.6592
▁동요	-11.6593
늑대	-11.6593
▁춘천	-11.6595
해졌고	-11.6596
▁연속적	-11.6596
▁선진	-11.6597
▁실려	-11.6597
▁선봉	-11.6597
▁보수주의	-11.6598
▁수용할	-11.6599
▁모터스	-11.6599
화물	-11.66
▁무수	-11.66
af	-11.66
▁0.0	-11.6602
▁아침에	-11.6603
이야기	-11.6604
▁적용되어	-11.6606
렐리	-11.6607
▁디스	-11.6608
▁EU	-11.6609
▁다테	-11.661
가능한	-11.6611
▁송신	-11.6611
▁래퍼	-11.6611
▁신진	-11.6612
▁예로는	-11.6613
▁복음주의	-11.6614
남부	-11.6614
▁방치	-11.6615
▁항우	-11.6616
▁추산	-11.6616
ara	-11.6616
▁일치한다	-11.6616
▁않아서	-11.6617
▁시장이	-11.6617
향교	-11.6617
점에서	-11.6618
▁he	-11.6619
▁합류했다	-11.6619
변수	-11.662
▁나오기	-11.6621
▁동점	-11.6624
▁맥스	-11.6627
▁요시다	-11.6628
▁공천	-11.6628
마르크	-11.663
▁아츠	-11.663
▁마비	-11.663
▁호르몬	-11.6632
▁용암	-11.6633
NC	-11.6633
했는지	-11.6634
AX	-11.6635
▁87	-11.6635
▁슛	-11.6636
통합	-11.6636
▁내면	-11.6637
▁주장은	-11.6638
▁춘추	-11.664
▁학생들을	-11.6641
버린다	-11.6641
▁성적으로	-11.6642
차트	-11.6643
▁테리	-11.6644
토쿠	-11.6644
▁죽기	-11.6645
▁멜로	-11.6647
피트	-11.6648
봉산	-11.6649
▁전투로	-11.665
▁학문적	-11.665
▁취한	-11.665
NO	-11.6651
▁형식적	-11.6652
▁Br	-11.6655
▁육체	-11.6656
▁선생님	-11.6656
범위	-11.6658
해지는	-11.6663
심사	-11.6663
▁도덕적	-11.6663
ral	-11.6664
작으로	-11.6664
놀라운	-11.6664
연방	-11.6666
티니	-11.6666
▁시트	-11.6667
▁가계	-11.6671
▁롤링	-11.6671
don	-11.6672
▁차장	-11.6672
▁어린이들	-11.6673
▁추구하는	-11.6675
▁신학적	-11.6675
▁단면	-11.668
▁의미이다	-11.6681
▁전복	-11.6682
▁성사	-11.6683
▁노르	-11.6686
▁강변	-11.6687
low	-11.6688
▁All	-11.6689
장교	-11.669
▁보증	-11.669
▁것일	-11.6691
▁주주	-11.6693
▁수군	-11.6696
토프	-11.6697
▁가네	-11.6699
FA	-11.6699
레트	-11.6699
운수	-11.67
▁시리즈에	-11.6704
랙	-11.6709
▁조공	-11.6711
▁친구가	-11.6711
▁식용	-11.6713
▁지청	-11.6717
▁창문	-11.6717
Bl	-11.6718
리티	-11.6719
Mor	-11.672
노르	-11.6722
▁수요일	-11.6723
▁받았다고	-11.6723
▁본국	-11.6723
▁대리인	-11.6726
▁신형	-11.6727
▁횡	-11.6727
▁상기	-11.6728
▁김정은	-11.6729
Ac	-11.673
▁상황은	-11.6731
▁구간에서	-11.6731
북부	-11.6732
▁관할하	-11.6734
▁대본	-11.6735
▁강진	-11.6736
▁변화에	-11.6737
확실한	-11.6737
▁강점기에	-11.6738
▁진행되는	-11.6739
▁화상	-11.674
▁많았	-11.6741
▁말부터	-11.6741
본을	-11.6741
▁상에서	-11.6745
▁부분에서	-11.6746
▁장소를	-11.6748
본명	-11.6749
콕	-11.6751
▁살아있는	-11.6754
▁히어로	-11.6754
팍	-11.6754
界	-11.6755
得	-11.6755
멋	-11.6755
▁인디애나	-11.6755
—	-11.6755
뚱	-11.6755
發	-11.6755
▁Institute	-11.6755
▁가솔린	-11.6755
▁꼽힌	-11.6755
▁부드러운	-11.6755
▁아나키즘	-11.6755
▁아이스하키	-11.6755
▁엔지니어	-11.6755
▁유니버설	-11.6755
▁클라이언트	-11.6755
▁토트넘	-11.6755
▁프란체스코	-11.6755
曲	-11.6755
球	-11.6755
百	-11.6755
角	-11.6755
껏	-11.6755
▁낙동강	-11.6755
試	-11.6755
▁느낄	-11.6755
▁열심히	-11.6755
▁마돈나	-11.6755
▁카자흐스탄	-11.6755
紀	-11.6755
▁NGC	-11.6755
▁이완용	-11.6755
▁미루어	-11.6755
▁도요토미	-11.6755
▁유사성	-11.6755
▁제네바	-11.6755
▁공화정	-11.6756
▁헬륨	-11.6756
▁인공위성	-11.6756
▁삼층석탑	-11.6756
▁박영효	-11.6756
▁러셀	-11.6756
▁그보다	-11.6757
▁싸워	-11.6757
▁현대자동차	-11.6757
항의	-11.6758
▁기간동안	-11.6759
파니	-11.6759
▁여배우	-11.676
▁난이도	-11.676
▁퍼스트	-11.6761
▁코끼리	-11.6761
▁이용객	-11.6761
▁번성	-11.6761
▁천문	-11.6761
▁연꽃	-11.6762
▁인프라	-11.6762
ins	-11.6762
▁히브리어	-11.6763
▁규정에	-11.6763
▁극찬	-11.6764
▁벗어	-11.6765
▁하늘을	-11.6765
▁소피아	-11.6765
▁국한	-11.6766
▁특집	-11.6766
▁심리적	-11.6766
▁1882	-11.6767
▁함양	-11.6768
르카	-11.6768
▁오우	-11.6771
▁자칭	-11.6771
했음에도	-11.6771
▁1885	-11.6773
▁가르쳤다	-11.6773
▁의거하여	-11.6775
▁쓰여진	-11.6775
▁여겨졌다	-11.6775
▁랭	-11.6776
에쓰	-11.6776
▁실버	-11.6776
▁프랑코	-11.6777
▁안의	-11.6778
놓았다	-11.6778
▁환초	-11.6778
▁출동	-11.6778
코파	-11.6778
NK	-11.678
▁바울	-11.6781
▁낫	-11.6781
▁가산	-11.6781
▁40%	-11.6781
▁몸통	-11.6782
▁예약	-11.6783
▁예배	-11.6783
▁대항하여	-11.6784
▁약혼	-11.6784
초에	-11.6785
성우	-11.6787
▁끼고	-11.6787
해질	-11.6788
▁버그	-11.6789
▁바치	-11.6789
▁생각이	-11.679
거미	-11.679
▁단절	-11.6791
▁공약	-11.6791
등과	-11.6793
▁배속	-11.6793
▁135	-11.6794
7,000	-11.6795
▁거란	-11.6795
▁천재	-11.6795
▁인도양	-11.6796
▁밭	-11.6796
소득	-11.6798
▁지출	-11.6799
▁보수적	-11.6801
왔는데	-11.6802
▁함유	-11.6802
▁장녀	-11.6802
▁그때까지	-11.6803
▁사용하면	-11.6805
▁염소	-11.6805
▁파견되었다	-11.6805
▁위주로	-11.6805
끄	-11.6806
캉	-11.6806
냉	-11.6807
▁서리	-11.6807
▁집안에서	-11.6807
▁관내	-11.6808
호쿠	-11.6808
곧	-11.6809
her	-11.6809
▁중심에	-11.681
▁연루되어	-11.6811
바이러스	-11.6811
▁택시	-11.6812
▁장난	-11.6813
▁해안에	-11.6813
▁불안정	-11.6814
ome	-11.6814
농업	-11.6815
팀은	-11.6816
▁경찰이	-11.6816
하더라도	-11.6816
▁부합	-11.6816
▁방법에	-11.6818
▁쓰이지	-11.6819
▁아산	-11.682
▁SP	-11.6822
▁그래	-11.6822
▁카우	-11.6823
▁안으로	-11.6824
▁맞은	-11.6824
▁무술	-11.6826
▁작전에	-11.6828
▁포식자	-11.6829
▁전역에서	-11.6829
▁진급	-11.683
▁테이프	-11.6831
▁운수	-11.6831
▁싸이	-11.6831
▁동네	-11.6833
▁단점	-11.6834
▁관해서는	-11.6836
구리	-11.6842
▁성교	-11.6843
▁제주시	-11.6843
▁접수	-11.6844
▁계속된	-11.6845
민주주의	-11.6846
학술	-11.6849
▁본성	-11.685
▁은신	-11.685
▁견고	-11.685
사적	-11.6851
경쟁	-11.6851
▁만난다	-11.6852
▁접근할	-11.6852
▁변종	-11.6854
vis	-11.6857
▁연동	-11.6858
▁항만	-11.6859
▁기록했고	-11.686
품으로	-11.6861
▁</	-11.6862
PI	-11.6863
조부	-11.6864
▁쉐	-11.6865
▁서울대	-11.6865
ial	-11.6867
▁멀어	-11.6869
▁실시하고	-11.687
▁한중	-11.6872
▁축구팀	-11.6872
▁사업이	-11.6872
ology	-11.6872
▁전하는	-11.6873
▁반포	-11.6875
▁Act	-11.6877
▁모신	-11.6878
▁기금	-11.6881
▁파병	-11.6881
▁차이점	-11.6881
▁유생	-11.6883
▁장대	-11.6883
▁나타나기	-11.6887
개소	-11.6888
att	-11.6888
파인	-11.689
▁자치주	-11.689
유지	-11.6892
▁객관적	-11.6894
▁우라	-11.6894
gy	-11.6894
산에	-11.6898
OP	-11.6899
▁대영	-11.6902
▁적혀	-11.6903
▁보이스	-11.6904
▁놓인	-11.6905
코와	-11.6905
▁아테네에서	-11.6906
자였다	-11.6906
▁후난	-11.6907
FI	-11.6909
~15	-11.6909
▁바탕에	-11.691
▁조연	-11.691
▁용산	-11.6913
흥군	-11.692
2,000	-11.692
▁살해당	-11.6921
tre	-11.6921
▁사우	-11.6922
▁모로	-11.6923
-14	-11.6924
▁열도	-11.6925
▁승강장을	-11.6926
▁고생	-11.6927
시경	-11.6927
위원회에서	-11.6931
1858	-11.6931
니언	-11.6932
▁남기	-11.6932
있었다	-11.6934
▁홈구장	-11.6937
보장	-11.6938
nu	-11.6942
암리	-11.6942
▁퀘벡	-11.6943
▁대부	-11.6947
▁안무	-11.6947
NI	-11.6949
▁타점	-11.6951
hu	-11.6952
▁가라	-11.6952
ya	-11.6953
dia	-11.6953
▁갱	-11.6954
▁사주	-11.6954
위원으로	-11.6954
▁기본으로	-11.6956
Paul	-11.6958
lia	-11.6958
▁있었	-11.6961
▁정관	-11.6961
▁예선에	-11.6962
▁패하였다	-11.6967
곡면	-11.6969
▁있겠	-11.697
세스	-11.697
▁있은	-11.6976
쑤	-11.6977
▁가고시마	-11.6978
▁후쿠시마	-11.6979
▁기르	-11.698
▁내놓았	-11.698
쟈	-11.6981
▁핸드	-11.6981
~9	-11.6982
▁캔자스	-11.6982
想	-11.6982
來	-11.6982
識	-11.6982
陰	-11.6982
▁같아	-11.6982
▁높았다	-11.6982
▁늘어났다	-11.6982
▁늦게	-11.6982
▁아틀레티코	-11.6982
▁어렸을	-11.6982
▁읽고	-11.6982
▁프란치스코	-11.6982
▁함경남도	-11.6982
峰	-11.6982
黨	-11.6982
셴	-11.6982
윅	-11.6982
▁상트페테르부르크	-11.6982
▁세인트루이스	-11.6982
▁아케이드	-11.6982
▁이스탄불	-11.6982
▁프로모션	-11.6982
▁헬싱키	-11.6982
昭	-11.6982
皮	-11.6982
▁스카우트	-11.6982
▁무로마치	-11.6982
▁스폰서	-11.6982
加	-11.6982
▁카르타고	-11.6982
▁효고현	-11.6982
▁김규식	-11.6982
▁사민당	-11.6982
▁어울리	-11.6983
(1993	-11.6983
(1998	-11.6983
▁대니얼	-11.6983
dis	-11.6983
▁뉴기니	-11.6983
▁벽에	-11.6983
▁트레이닝	-11.6983
Tr	-11.6983
▁나타날	-11.6984
▁티켓	-11.6984
▁LED	-11.6984
▁참가자	-11.6984
▁붙잡	-11.6985
▁왕정	-11.6985
▁말하자면	-11.6985
▁일렉트로닉	-11.6985
▁결정하는	-11.6986
▁출처	-11.6986
▁한스	-11.6986
▁낮추	-11.6987
▁오로지	-11.6988
▁신주쿠	-11.6988
리니	-11.6988
파라	-11.6989
▁OST	-11.6989
젤리	-11.6989
▁게임에	-11.6989
▁진행했다	-11.6991
있어	-11.6991
▁줄이기	-11.6992
▁가장자리에	-11.6992
▁역학	-11.6993
▁다윈	-11.6993
▁음향	-11.6993
▁헌신	-11.6994
▁짓는	-11.6994
▁앤드루	-11.6995
▁집결	-11.6995
▁돌출	-11.6995
▁이건	-11.6996
▁물러	-11.6996
▁엘리트	-11.6996
▁서사시	-11.6997
▁관례	-11.6997
발생	-11.6998
▁1876	-11.6998
sen	-11.6998
데일	-11.6999
▁가문은	-11.6999
▁지미	-11.6999
▁핑크	-11.7
▁원천	-11.7
▁83	-11.7001
▁설립되었으며	-11.7001
공개	-11.7001
▁배워	-11.7003
▁귀속	-11.7003
▁노동운동	-11.7004
_20	-11.7005
▁MO	-11.7005
▁여겼다	-11.7006
무네	-11.7006
작곡	-11.7006
▁치환	-11.7007
▁전달하는	-11.7009
▁볼셰비키	-11.7009
▁밖에도	-11.701
브룩	-11.701
▁Ha	-11.7011
▁배우고	-11.7012
▁헌정	-11.7014
▁관장하	-11.7015
▁논리적	-11.7015
▁안채	-11.7016
▁노선으로	-11.7017
▁지옥	-11.7017
▁등장하지	-11.7018
▁학설	-11.7018
크라	-11.7019
▁스토어	-11.7021
▁국정원	-11.7021
▁연말	-11.7021
▁30%	-11.7021
▁Korea	-11.7021
▁대중화	-11.7023
▁곁	-11.7026
▁선정된	-11.7027
▁본문	-11.7027
▁느끼고	-11.7028
▁포터	-11.703
원들이	-11.7032
▁행동에	-11.7033
류는	-11.7033
용품	-11.7034
▁편안	-11.7034
▁끼치	-11.7034
▁비하여	-11.7035
▁매치	-11.7035
tion	-11.7035
▁간선	-11.7035
▁텍사스주	-11.7036
▁슈트	-11.7036
책임	-11.7037
▁왕국이	-11.7038
▁휴가	-11.7038
▁향토	-11.7039
하길	-11.7039
▁나타내고	-11.7039
곰	-11.7041
파운드	-11.7041
▁아무리	-11.7041
아파트	-11.7041
▁안동시	-11.7042
▁이뤄진	-11.7043
▁결정한다	-11.7043
▁정기적	-11.7046
라바	-11.7046
lf	-11.7046
▁1,0	-11.7048
▁사상은	-11.7049
▁다이어	-11.7049
▁회의에	-11.7049
▁차르	-11.7052
▁기록했으며	-11.7053
국민당	-11.7054
▁Har	-11.7054
▁카사	-11.7055
▁스트라	-11.7056
레네	-11.7057
▁흔한	-11.7058
사관학교	-11.706
플레	-11.7061
HC	-11.7062
▁케이스	-11.7063
▁말까지	-11.7064
▁59	-11.7064
쪽으로	-11.7064
▁죽게	-11.7064
초를	-11.7065
▁교도소	-11.7066
▁74	-11.7067
버러	-11.707
▁의회의	-11.707
▁리본	-11.7071
▁영국령	-11.7076
▁전날	-11.7077
uch	-11.7077
▁생활에	-11.7079
마리아	-11.708
CH	-11.7082
▁북서부에	-11.7083
▁단체전	-11.7084
▁확인된	-11.7085
화하는	-11.7086
▁해상도	-11.7087
▁기하학	-11.7087
ope	-11.7089
▁뮤지션	-11.7091
Pro	-11.7092
▁최장	-11.7094
▁뒷받침	-11.7095
101	-11.7096
▁et	-11.7099
▁자녀들	-11.7102
▁제나라	-11.7103
▁평판	-11.7107
(2000	-11.7107
▁숙부	-11.7108
▁킴	-11.711
▁나왔	-11.711
▁그만큼	-11.7111
▁정제	-11.7111
▁국제적으로	-11.7112
▁결과물	-11.7114
▁진사	-11.7114
▁서주	-11.7115
▁정예	-11.7116
PO	-11.7117
▁각본가	-11.7117
▁두가지	-11.7117
▁한편으로	-11.7117
▁합법적	-11.7119
▁구하는	-11.7121
률이	-11.7122
▁영원	-11.7123
▁명인	-11.7127
건의	-11.7128
Pr	-11.7128
▁민사	-11.7129
▁물질이	-11.713
▁악단	-11.7131
▁타석	-11.7131
▁값은	-11.7131
▁04	-11.7131
▁회상	-11.7133
DF	-11.7133
▁벌여	-11.7133
▁반정	-11.7135
모드	-11.7136
▁함자	-11.7139
속에서	-11.7139
구미	-11.7139
▁당하였다	-11.7139
▁구실	-11.714
▁다음이	-11.7142
Me	-11.7142
ula	-11.7143
▁여권	-11.7146
▁고려하여	-11.7146
▁실시했다	-11.7147
▁클레이	-11.7147
▁수행한다	-11.7147
▁나뉘	-11.7148
▁심사위원	-11.7148
▁제국주의	-11.7148
▁천사	-11.7149
신청	-11.7155
▁되도록	-11.7155
▁일대에서	-11.716
▁계주	-11.7163
▁사본	-11.7166
▁탤런트	-11.7169
▁내용에	-11.7169
▁증거가	-11.717
▁발견되지	-11.7172
▁러시아에서	-11.7172
▁가져온	-11.7172
모로	-11.7173
인사	-11.7173
▁사망한다	-11.7173
▁트루	-11.7173
▁Qu	-11.7173
집행	-11.7175
트레	-11.7175
pro	-11.7176
왔지만	-11.7177
For	-11.7177
▁고분	-11.7178
▁전했다	-11.7178
려서	-11.7179
진과	-11.718
네트	-11.7181
▁다양성	-11.7183
▁둘러싸	-11.7186
▁예명	-11.7188
▁애정	-11.719
▁위조	-11.7193
III	-11.7193
▁역사의	-11.7194
필리	-11.7196
▁비행장	-11.7197
▁평론	-11.7197
▁바뀐	-11.7197
시키는데	-11.7199
▁찍은	-11.7203
▁시정	-11.7207
▁향교	-11.7207
▁역량	-11.7208
▁쿠르	-11.7208
▁실리	-11.7208
▁에밀	-11.7209
▁일반인	-11.7209
줘	-11.721
▁작다	-11.721
▁토대	-11.7212
▁관찰사	-11.7214
▁반란이	-11.7214
と	-11.7215
▁결함	-11.7215
儀	-11.7215
致	-11.7215
▁옮긴	-11.7215
嚴	-11.7215
愛	-11.7215
總	-11.7215
鐵	-11.7215
include	-11.7215
σ	-11.7215
▁믿었다	-11.7215
▁셰익스피어	-11.7215
▁온두라스	-11.7215
▁프랭클린	-11.7215
▁피라미드	-11.7215
▁향토문화유산	-11.7215
▁헤르체고비나	-11.7215
慧	-11.7215
뫼	-11.7215
뮈	-11.7215
싯	-11.7215
▁데카르트	-11.7215
▁페르난도	-11.7215
哲	-11.7215
▁아름답	-11.7215
▁종업원	-11.7215
▁브레이크	-11.7215
▁공휴일	-11.7215
▁콘테스트	-11.7215
(1980	-11.7215
▁갑옷	-11.7215
고등보통학교	-11.7216
▁없었지만	-11.7216
▁불경	-11.7216
▁확고	-11.7216
▁바이킹	-11.7217
▁불규칙	-11.7217
▁붙여졌다	-11.7217
▁미셸	-11.7217
▁섹스	-11.7217
▁철폐	-11.7218
▁사회민주당	-11.7218
▁페르디난트	-11.7218
▁홍콩에서	-11.7219
▁살펴보면	-11.7219
▁절벽	-11.722
▁살아가는	-11.722
▁게르만	-11.7221
▁집착	-11.7221
▁고딕	-11.7222
▁법률을	-11.7222
▁USS	-11.7223
▁발견되어	-11.7223
▁지지자들	-11.7223
only	-11.7224
▁방사성	-11.7224
▁급증	-11.7224
▁지난날	-11.7225
▁중심지로	-11.7225
▁경보	-11.7226
▁1891	-11.7226
세였다	-11.7227
▁일방적	-11.7227
▁해인사	-11.7227
리움	-11.7227
▁군사력	-11.7227
내리	-11.7228
▁증인	-11.7228
▁유혹	-11.7228
▁도하	-11.7229
韓國	-11.7229
20,000	-11.7229
▁줄리아	-11.7229
▁전반적으로	-11.723
▁아제르바이잔	-11.723
보수	-11.7231
▁갈라져	-11.7231
▁Ba	-11.7232
▁외국어	-11.7232
▁거북	-11.7233
▁케이크	-11.7233
▁송출	-11.7233
▁유대인들	-11.7234
len	-11.7235
▁텔레	-11.7235
▁군벌	-11.7235
끈	-11.7237
▁생태계	-11.7238
tis	-11.7238
▁부왕	-11.7239
평군	-11.7241
슨은	-11.7241
▁프로레슬링	-11.7241
▁졸업생	-11.7242
▁일당	-11.7244
▁로렌스	-11.7244
▁벌이는	-11.7246
▁제안했다	-11.7246
▁매매	-11.7247
▁94	-11.7247
▁무과	-11.7249
▁오래전	-11.725
▁이뤄	-11.725
)=	-11.725
▁신자들	-11.7251
▁파직	-11.7253
▁유료	-11.7253
▁표창	-11.7254
▁그래도	-11.7255
▁마녀	-11.7255
▁조립	-11.7258
피안타	-11.7259
▁유학생	-11.726
▁상징적	-11.726
▁공개적으로	-11.7261
▁유로파	-11.7262
전국	-11.7262
▁조례	-11.7263
▁도피	-11.7264
▁현행	-11.7264
했으므로	-11.7266
▁고모	-11.7266
위권	-11.7266
▁이희	-11.7267
▁의회에	-11.7268
▁기록으로	-11.7269
▁따르고	-11.7269
▁가루	-11.727
▁에피	-11.727
▁병으로	-11.7273
▁피를	-11.7274
▁극우	-11.7274
▁스노	-11.7275
by	-11.7275
▁가리키	-11.7277
▁목포시	-11.7277
▁평창	-11.7278
•	-11.7278
댐	-11.7278
띠	-11.7278
광해군	-11.7281
▁과실	-11.7282
▁뱅크	-11.7284
▁부평	-11.7285
▁실험실	-11.7287
▁하급	-11.7288
▁출판되었다	-11.729
그림	-11.7291
되도록	-11.7292
테루	-11.7294
~20	-11.7299
메틸	-11.73
▁실린	-11.73
в	-11.7301
▁모이	-11.7301
▁계승한	-11.7304
▁양심	-11.7305
~10	-11.7306
▁저수지	-11.7307
▁실시되었다	-11.7307
▁철학과	-11.7309
▁보르	-11.731
▁북군	-11.731
권력	-11.7312
▁신봉	-11.7313
lar	-11.7315
▁쇼트	-11.7315
▁개발하고	-11.7316
법상	-11.7318
í	-11.7319
▁선행	-11.732
스에게	-11.732
夫人	-11.7322
▁연상	-11.7326
▁배상	-11.7326
▁김광	-11.7329
구나	-11.7329
▁차용	-11.7331
폭력	-11.7332
▁역사와	-11.7333
▁시상	-11.7334
제이	-11.7335
atus	-11.7335
▁미시	-11.7336
▁반군	-11.7337
▁꺼	-11.7339
▁전락	-11.734
Ta	-11.7342
▁오즈	-11.7342
노래	-11.7342
▁국내선	-11.7345
▁나오고	-11.7345
▁모습은	-11.7345
▁효율	-11.7347
▁파고	-11.7347
▁모양인	-11.7348
▁제출한	-11.7351
▁기업들	-11.7351
▁정치학	-11.7353
BR	-11.7354
▁소유한	-11.7354
▁교량	-11.7354
했습니다	-11.7356
▁열차를	-11.7358
▁통하는	-11.7359
▁콰	-11.736
▁도청	-11.736
▁통역	-11.7362
보좌관	-11.7363
▁정상에	-11.7363
▁모은	-11.7365
▁길어	-11.7365
▁준주	-11.7365
▁인민군	-11.7367
▁발의	-11.7367
▁막고	-11.7368
▁출전하지	-11.7368
▁구조적	-11.7368
▁단계에	-11.737
▁이용하고	-11.7371
▁순종	-11.7372
vel	-11.7372
▁활동하며	-11.7372
최고	-11.7376
▁근대화	-11.7377
▁명령에	-11.7378
▁소자	-11.7379
IX	-11.7381
분기	-11.7383
영역	-11.7383
샤오	-11.7385
▁도입했다	-11.7388
▁암살당	-11.7388
질환	-11.7389
▁긍정적	-11.739
▁미치지	-11.7391
법률	-11.7392
_18	-11.7392
▁대통령과	-11.7393
당해	-11.7394
▁평지	-11.7395
▁부사	-11.7398
▁종식	-11.7402
직에	-11.7402
▁안성	-11.7403
tz	-11.7406
▁숨겨	-11.7408
▁성지	-11.7409
ros	-11.7412
▁개최되	-11.7412
▁기술적	-11.7414
▁변이	-11.7414
들만	-11.7414
-200	-11.7415
주의에	-11.7416
▁세리	-11.742
▁단원	-11.7421
클레	-11.7422
▁카시	-11.7423
▁캐릭터를	-11.7425
▁루트	-11.7425
cle	-11.7425
▁계몽	-11.7426
▁지칭하	-11.7428
▁애리조나	-11.7429
▁거리에서	-11.7429
평리	-11.7431
▁영향이	-11.7434
허가	-11.7435
천명	-11.7439
▁드러	-11.7441
인물	-11.7442
rn	-11.7443
트론	-11.7444
▁교대	-11.7447
셉	-11.7448
바야시	-11.7449
▁선제	-11.745
▁세계화	-11.745
▁사이타마	-11.745
식품	-11.745
▁후지와라	-11.7451
▁유정	-11.7451
護	-11.7453
케라톱스	-11.7453
交	-11.7453
産	-11.7453
κ	-11.7453
溫	-11.7453
丁	-11.7453
岳	-11.7453
恭	-11.7453
衆	-11.7453
م	-11.7453
▁갈릴레이	-11.7453
▁높여	-11.7453
▁멜버른	-11.7453
▁세종특별자치시	-11.7453
▁익스플로러	-11.7453
▁해트트릭	-11.7453
▁휩쓸	-11.7453
렝	-11.7453
잣	-11.7453
쭉	-11.7453
찮	-11.7453
ن	-11.7453
勳	-11.7453
л	-11.7453
▁매니저	-11.7453
▁중소기업	-11.7453
奎	-11.7453
What	-11.7453
▁최연소	-11.7453
非	-11.7453
ん	-11.7453
James	-11.7453
▁뛰어넘	-11.7453
▁않으므로	-11.7453
皇帝	-11.7453
ル	-11.7453
▁야마모토	-11.7454
▁삽화	-11.7454
▁빠지게	-11.7454
▁교과서	-11.7454
▁띤	-11.7454
여우원숭이	-11.7455
▁결핵	-11.7455
▁줄무늬	-11.7455
▁컴파일러	-11.7455
▁텔	-11.7455
▁트리플	-11.7455
▁부분일식	-11.7455
▁저지른	-11.7455
▁칼럼	-11.7456
▁이사벨	-11.7456
▁맞았다	-11.7456
▁익숙	-11.7457
▁동유럽	-11.7458
▁싸운	-11.7458
▁불리었다	-11.7458
▁추정되며	-11.7458
▁트래	-11.7459
▁아이폰	-11.7459
▁박스	-11.746
▁격투	-11.746
▁들어왔다	-11.7461
▁거칠	-11.7462
▁좀더	-11.7462
▁참의원	-11.7464
▁프레스	-11.7466
▁건담	-11.7466
읍에	-11.7466
검은	-11.7467
▁더이상	-11.7467
▁제갈량	-11.7467
ensis	-11.7467
▁에어로	-11.7467
▁창출	-11.7468
▁패망	-11.7468
cent	-11.7469
▁발표하고	-11.747
▁90%	-11.7471
▁직속	-11.7471
▁느끼게	-11.7472
▁이르	-11.7472
▁이베리아	-11.7472
▁밝혀지지	-11.7472
▁붙었다	-11.7473
▁페로	-11.7473
▁사랑하는	-11.7473
티는	-11.7475
▁죽이는	-11.7475
▁부를	-11.7476
▁포스터	-11.7476
▁온건	-11.7477
▁표시하는	-11.7477
▁하라	-11.7478
▁선임되었다	-11.7479
▁메츠	-11.7481
▁흑백	-11.7481
▁노래로	-11.7482
▁짝	-11.7483
▁덩어리	-11.7485
▁결승전에	-11.7487
▁사망하였고	-11.7488
▁증가했다	-11.7488
▁앞쪽	-11.7489
▁지나면	-11.7491
itt	-11.7492
▁관청	-11.7493
▁회피	-11.7494
▁저주	-11.7494
▁PP	-11.7496
▁우르	-11.7496
▁못하였고	-11.7496
▁순천시	-11.7498
▁입술	-11.7498
▁이루지	-11.75
모노	-11.7501
▁관행	-11.7502
▁마카	-11.7502
fo	-11.7503
▁자행	-11.7503
』(	-11.7503
▁독립군	-11.7505
▁백과사전	-11.7506
▁천도	-11.7507
권에서는	-11.7507
▁더비	-11.7509
▁학생이	-11.7509
▁찍어	-11.7509
▁판매고	-11.7511
▁알아내	-11.7513
셜	-11.7513
▁아담	-11.7514
▁가지로	-11.7514
▁안개	-11.7515
▁승리에	-11.7516
▁발령	-11.7517
▁복권	-11.7518
수정	-11.7519
▁주조	-11.7519
▁시네마	-11.752
램	-11.752
▁정박	-11.752
▁중엽	-11.7522
▁왜구	-11.7523
▁우회	-11.7523
▁커뮤니케이션	-11.7524
청소년	-11.7525
▁퇴장	-11.7525
▁이용해서	-11.7527
▁사령	-11.7527
▁라이너	-11.7528
▁연이어	-11.7528
▁현장에서	-11.7529
▁성남시	-11.753
▁당선된	-11.7531
▁엑스포	-11.7534
▁메일	-11.7534
▁증진	-11.7534
▁발목	-11.7535
▁다우	-11.7535
▁결혼한	-11.7537
광년	-11.7537
DD	-11.7538
브루	-11.7538
▁소속기관	-11.7538
티드	-11.7538
)”	-11.7539
라마	-11.7539
▁누가	-11.754
▁수염	-11.7541
▁맹세	-11.7542
▁가르치는	-11.7543
▁배가	-11.7543
▁89	-11.7544
▁북경	-11.7545
▁권유로	-11.7548
▁군데	-11.7548
▁Ad	-11.7549
As	-11.755
성분	-11.7551
▁여포	-11.7551
▁중도	-11.7552
▁지명되었다	-11.7553
▁지배하에	-11.7554
▁넓이	-11.7554
관에서	-11.7555
라토	-11.7556
▁스크립트	-11.7557
살라	-11.7558
qua	-11.7558
▁믹스	-11.756
▁지린	-11.756
▁프로그램에서	-11.7561
von	-11.7562
▁유래하였다	-11.7564
▁SL	-11.7564
▁것이나	-11.7567
▁추서	-11.7569
그리고	-11.7575
▁1200	-11.7575
rad	-11.7577
▁부족으로	-11.7579
▁연예인	-11.7579
▁감동	-11.758
▁거점으로	-11.7582
▁취하는	-11.7583
▁전방	-11.7583
▁로베르	-11.7585
▁입단하여	-11.7586
Ha	-11.7587
▁김준	-11.7589
▁이송	-11.7591
▁1-1	-11.7591
▁생전에	-11.7592
▁것이지만	-11.7592
▁남조	-11.7593
▁판매하는	-11.7593
▁기념비	-11.7593
▁포함되지	-11.7594
▁대중의	-11.7596
▁고아	-11.7596
하에서	-11.7596
▁2.5	-11.7599
▁총선거	-11.76
▁보자	-11.7601
▁했었다	-11.7601
렌스	-11.7603
▁하나님의	-11.7603
▁오크	-11.7606
▁편집자	-11.7608
▁ch	-11.7609
▁병이	-11.7611
가르	-11.7611
▁근대적	-11.7611
SU	-11.7611
스런	-11.7613
▁사랑에	-11.7614
▁상이	-11.7614
▁나의	-11.7615
▁관구	-11.7615
▁플리	-11.7616
▁러시아인	-11.7617
▁종군	-11.7618
oma	-11.7618
▁십자	-11.7621
▁탄도	-11.7623
▁사용되어	-11.7625
fer	-11.7626
uck	-11.7627
▁1-2	-11.7628
▁계시	-11.7629
▁준결승전	-11.763
▁나간다	-11.763
▁비평가들	-11.7631
나마	-11.7632
월호	-11.7633
▁And	-11.7634
값을	-11.7635
▁적게	-11.7636
▁유타	-11.7636
질량	-11.7636
▁평가가	-11.7638
도서관은	-11.7638
▁시라	-11.7639
준은	-11.7639
▁리얼	-11.7639
교리	-11.764
▁기성	-11.7642
▁재차	-11.7643
mu	-11.7644
▁동부에	-11.7645
▁블루스	-11.7647
부족	-11.7647
▁단정	-11.7649
먼은	-11.7653
▁등등	-11.7654
▁증상이	-11.7655
▁배수	-11.7655
인들과	-11.7655
▁교회에서	-11.7655
▁고마	-11.7655
▁겉	-11.7656
렴	-11.7657
광장	-11.7657
▁선사	-11.7657
▁자진	-11.7658
SM	-11.766
▁출연하여	-11.7661
▁면이	-11.7661
옹주	-11.7661
▁법무	-11.7664
▁변경했다	-11.7666
▁감독직	-11.7667
▁진행되어	-11.7669
▁반역	-11.7669
▁떨어졌	-11.767
▁중원	-11.767
ami	-11.7674
층에서	-11.7675
▁할리	-11.7677
기관인	-11.7677
▁인명	-11.7679
▁징병	-11.7679
▁경쟁자	-11.768
곡선	-11.768
▁릴	-11.768
▁베티	-11.7683
▁지구에	-11.7689
▁학계	-11.7689
▁곡식	-11.769
권자	-11.7691
▁총기	-11.7692
▁야마구치	-11.7693
▁통과한	-11.7694
▁통일신라	-11.7695
▁만의	-11.7695
親	-11.7696
衣	-11.7697
냄	-11.7697
똑	-11.7697
Michael	-11.7697
»	-11.7697
▁Award	-11.7697
▁가브리엘	-11.7697
▁거뒀다	-11.7697
▁게오르크	-11.7697
▁기슭에	-11.7697
▁네이션스컵	-11.7697
▁두드러진	-11.7697
▁매끄러	-11.7697
▁무솔리니	-11.7697
▁에스컬레이터	-11.7697
▁잦은	-11.7697
▁집행유예	-11.7697
▁초콜릿	-11.7697
▁클레멘스	-11.7697
▁탄자니아	-11.7697
▁함경북도	-11.7697
條	-11.7697
秋	-11.7697
約	-11.7697
養	-11.7697
륭	-11.7697
캣	-11.7697
м	-11.7697
▁셀주크	-11.7697
僧	-11.7697
富	-11.7697
▁모멘트	-11.7697
龜	-11.7697
▁라이브러리	-11.7697
鏡	-11.7697
CP	-11.7697
▁부적절	-11.7697
▁시멘트	-11.7697
▁요충지	-11.7697
▁여운형	-11.7697
▁안테나	-11.7697
▁마포구	-11.7697
淵	-11.7697
▁유격수	-11.7697
(1991	-11.7697
▁아테나	-11.7697
▁알파벳	-11.7697
▁없으므로	-11.7697
▁밀가루	-11.7697
▁소수민족	-11.7698
▁플랜	-11.7698
▁이시카와	-11.7698
▁바꿀	-11.7699
▁크롬	-11.7699
▁내보내	-11.7699
▁별이	-11.7699
▁북유럽	-11.7699
▁아이치현	-11.77
▁가족과	-11.77
▁치러	-11.77
▁다목적	-11.77
▁추리	-11.77
▁아시안컵	-11.7701
보트	-11.7701
▁자책점	-11.7701
▁다툼	-11.7702
PL	-11.7702
▁키워	-11.7702
▁생각하지	-11.7702
▁추존	-11.7702
▁보너스	-11.7702
▁톰슨	-11.7703
▁△	-11.7704
▁머물러	-11.7704
ors	-11.7705
베스트	-11.7705
▁물러난	-11.7706
▁바젤	-11.7706
▁성우로	-11.7706
▁설화	-11.7706
▁찐	-11.7708
럽게	-11.7709
ics	-11.771
▁찾아온	-11.771
▁필수적	-11.7711
▁1887	-11.7711
ding	-11.7711
▁연대는	-11.7712
카즈	-11.7712
▁끼쳤다	-11.7712
▁패럴림픽	-11.7712
▁레스터	-11.7712
▁1869	-11.7713
▁평안도	-11.7713
없	-11.7713
fa	-11.7713
▁개헌	-11.7714
▁회장으로	-11.7715
▁오대	-11.7715
▁MTV	-11.7715
▁본체	-11.7715
▁울프	-11.7716
▁간주된다	-11.7717
▁중복	-11.7717
▁역임했고	-11.7717
Col	-11.7718
레즈	-11.7718
▁등록금	-11.7719
▁젊은이들	-11.772
▁투항	-11.772
▁관저	-11.772
▁출연해	-11.772
자산	-11.7722
리얼	-11.7722
▁연립	-11.7722
We	-11.7724
▁사육	-11.7724
▁족보	-11.7725
▁연회	-11.7728
▁흠	-11.7728
▁숀	-11.773
▁적었다	-11.773
▁mi	-11.773
리치	-11.7732
▁열정	-11.7732
뿐이었다	-11.7735
▁도망치	-11.7736
▁대나무	-11.7736
대행	-11.7737
▁각성	-11.7738
▁사관	-11.7738
ray	-11.7739
▁한창	-11.774
▁고래	-11.774
▁첼로	-11.7741
▁면모	-11.7742
▁지위에	-11.7742
▁섬과	-11.7744
▁체크	-11.7745
▁히로시	-11.7745
지도자	-11.7747
》(,	-11.7748
▁작가들	-11.7748
▁한큐	-11.7749
▁아스카	-11.7749
▁장착된	-11.7749
전체	-11.7749
▁관용	-11.7749
▁관목	-11.775
▁의자	-11.7751
▁교회와	-11.7753
도움	-11.7754
댄	-11.7754
▁물려받	-11.7755
▁영화에서	-11.7756
▁화장	-11.7758
▁장관이	-11.776
▁시작되었고	-11.7761
수페르	-11.7761
▁고추	-11.7762
▁헌병	-11.7764
팩	-11.7764
▁시작하였으며	-11.7765
▁남방	-11.7766
▁고문서	-11.7768
찍	-11.777
▁클라우드	-11.777
킬로미터	-11.777
왈	-11.7771
▁가져다	-11.7772
▁바꾸고	-11.7772
▁자질	-11.7772
버섯	-11.7773
캠프	-11.7773
▁거주한다	-11.7773
▁설립되어	-11.7774
떠	-11.7774
▁앨범으로	-11.7776
▁결합한	-11.7777
▁시스템에	-11.7777
▁인문	-11.7778
▁비치	-11.7779
▁기해	-11.7779
▁1600	-11.778
▁보이지만	-11.7782
▁정적	-11.7783
▁조사에	-11.7784
▁광명	-11.7785
▁간격으로	-11.7785
▁숙소	-11.7786
En	-11.7786
▁카트	-11.7788
려면	-11.7789
현종	-11.779
▁정에	-11.7791
▁Music	-11.7791
▁갈리	-11.7792
▁조합원	-11.7793
▁왕에게	-11.7795
▁사이토	-11.7795
▁겐지	-11.7796
[...]
